//
// Created by ZONT_ on 10/25/2024.
//

#ifndef MODEL_HPP
#define MODEL_HPP

unsigned char model_bytes[16544] = {
    // Offset 0x00000000 to 0x0000409F
    0x1C, 0x00, 0x00, 0x00, 0x54, 0x46, 0x4C, 0x33, 0x14, 0x00, 0x20, 0x00,
    0x1C, 0x00, 0x18, 0x00, 0x14, 0x00, 0x10, 0x00, 0x0C, 0x00, 0x00, 0x00,
    0x08, 0x00, 0x04, 0x00, 0x14, 0x00, 0x00, 0x00, 0x1C, 0x00, 0x00, 0x00,
    0x8C, 0x00, 0x00, 0x00, 0xE4, 0x00, 0x00, 0x00, 0xE0, 0x3B, 0x00, 0x00,
    0xF0, 0x3B, 0x00, 0x00, 0x3C, 0x40, 0x00, 0x00, 0x03, 0x00, 0x00, 0x00,
    0x01, 0x00, 0x00, 0x00, 0x10, 0x00, 0x00, 0x00, 0x00, 0x00, 0x0A, 0x00,
    0x10, 0x00, 0x0C, 0x00, 0x08, 0x00, 0x04, 0x00, 0x0A, 0x00, 0x00, 0x00,
    0x0C, 0x00, 0x00, 0x00, 0x1C, 0x00, 0x00, 0x00, 0x38, 0x00, 0x00, 0x00,
    0x0F, 0x00, 0x00, 0x00, 0x73, 0x65, 0x72, 0x76, 0x69, 0x6E, 0x67, 0x5F,
    0x64, 0x65, 0x66, 0x61, 0x75, 0x6C, 0x74, 0x00, 0x01, 0x00, 0x00, 0x00,
    0x04, 0x00, 0x00, 0x00, 0x9C, 0xFF, 0xFF, 0xFF, 0x07, 0x00, 0x00, 0x00,
    0x04, 0x00, 0x00, 0x00, 0x07, 0x00, 0x00, 0x00, 0x64, 0x65, 0x6E, 0x73,
    0x65, 0x5F, 0x31, 0x00, 0x01, 0x00, 0x00, 0x00, 0x04, 0x00, 0x00, 0x00,
    0x06, 0xC4, 0xFF, 0xFF, 0x04, 0x00, 0x00, 0x00, 0x07, 0x00, 0x00, 0x00,
    0x69, 0x6E, 0x70, 0x75, 0x74, 0x5F, 0x31, 0x00, 0x02, 0x00, 0x00, 0x00,
    0x34, 0x00, 0x00, 0x00, 0x04, 0x00, 0x00, 0x00, 0xDC, 0xFF, 0xFF, 0xFF,
    0x0A, 0x00, 0x00, 0x00, 0x04, 0x00, 0x00, 0x00, 0x13, 0x00, 0x00, 0x00,
    0x43, 0x4F, 0x4E, 0x56, 0x45, 0x52, 0x53, 0x49, 0x4F, 0x4E, 0x5F, 0x4D,
    0x45, 0x54, 0x41, 0x44, 0x41, 0x54, 0x41, 0x00, 0x08, 0x00, 0x0C, 0x00,
    0x08, 0x00, 0x04, 0x00, 0x08, 0x00, 0x00, 0x00, 0x09, 0x00, 0x00, 0x00,
    0x04, 0x00, 0x00, 0x00, 0x13, 0x00, 0x00, 0x00, 0x6D, 0x69, 0x6E, 0x5F,
    0x72, 0x75, 0x6E, 0x74, 0x69, 0x6D, 0x65, 0x5F, 0x76, 0x65, 0x72, 0x73,
    0x69, 0x6F, 0x6E, 0x00, 0x0B, 0x00, 0x00, 0x00, 0xF8, 0x3A, 0x00, 0x00,
    0xF0, 0x3A, 0x00, 0x00, 0xD0, 0x3A, 0x00, 0x00, 0xC0, 0x38, 0x00, 0x00,
    0xB0, 0x08, 0x00, 0x00, 0xA0, 0x00, 0x00, 0x00, 0x98, 0x00, 0x00, 0x00,
    0x90, 0x00, 0x00, 0x00, 0x88, 0x00, 0x00, 0x00, 0x68, 0x00, 0x00, 0x00,
    0x04, 0x00, 0x00, 0x00, 0xA6, 0xC4, 0xFF, 0xFF, 0x04, 0x00, 0x00, 0x00,
    0x54, 0x00, 0x00, 0x00, 0x0C, 0x00, 0x00, 0x00, 0x08, 0x00, 0x0E, 0x00,
    0x08, 0x00, 0x04, 0x00, 0x08, 0x00, 0x00, 0x00, 0x10, 0x00, 0x00, 0x00,
    0x24, 0x00, 0x00, 0x00, 0x00, 0x00, 0x06, 0x00, 0x08, 0x00, 0x04, 0x00,
    0x06, 0x00, 0x00, 0x00, 0x04, 0x00, 0x00, 0x00, 0x00, 0x00, 0x00, 0x00,
    0x00, 0x00, 0x0A, 0x00, 0x10, 0x00, 0x0C, 0x00, 0x08, 0x00, 0x04, 0x00,
    0x0A, 0x00, 0x00, 0x00, 0x02, 0x00, 0x00, 0x00, 0x02, 0x00, 0x00, 0x00,
    0x04, 0x00, 0x00, 0x00, 0x06, 0x00, 0x00, 0x00, 0x32, 0x2E, 0x31, 0x30,
    0x2E, 0x31, 0x00, 0x00, 0x06, 0xC5, 0xFF, 0xFF, 0x04, 0x00, 0x00, 0x00,
    0x10, 0x00, 0x00, 0x00, 0x31, 0x2E, 0x35, 0x2E, 0x30, 0x00, 0x00, 0x00,
    0x00, 0x00, 0x00, 0x00, 0x00, 0x00, 0x00, 0x00, 0x7C, 0xC1, 0xFF, 0xFF,
    0x80, 0xC1, 0xFF, 0xFF, 0x84, 0xC1, 0xFF, 0xFF, 0x2E, 0xC5, 0xFF, 0xFF,
    0x04, 0x00, 0x00, 0x00, 0x00, 0x08, 0x00, 0x00, 0xCA, 0xA2, 0x22, 0x3F,
    0x93, 0x19, 0x78, 0xC0, 0x3F, 0xFB, 0x37, 0xBF, 0x02, 0x8F, 0x09, 0x40,
    0xDB, 0x02, 0x59, 0xBF, 0x76, 0x9A, 0xB3, 0xBF, 0xFF, 0xA6, 0x4E, 0xC0,
    0xBF, 0x17, 0x7A, 0x3F, 0x6E, 0x27, 0x23, 0xBF, 0x8B, 0x7D, 0x2E, 0x40,
    0x18, 0x20, 0x54, 0x40, 0x97, 0xC2, 0xC7, 0x3E, 0xE2, 0xFC, 0x70, 0xC0,
    0x9A, 0x1A, 0x9F, 0xBF, 0xEC, 0xC7, 0x02, 0x40, 0x5C, 0x48, 0x85, 0xBF,
    0x0A, 0x70, 0x82, 0xBF, 0xF2, 0xA3, 0x36, 0x40, 0xF9, 0xE5, 0xDD, 0xBF,
    0x09, 0x17, 0x16, 0x40, 0xDB, 0x7D, 0x78, 0x40, 0x3B, 0x20, 0x2B, 0x3F,
    0x53, 0x1A, 0x59, 0xC0, 0x9F, 0x76, 0xD5, 0x3F, 0x48, 0xC5, 0xCE, 0xBE,
    0x9A, 0xD2, 0x5B, 0x3E, 0x91, 0x3C, 0x80, 0x3E, 0xDA, 0x19, 0xF2, 0x3F,
    0x2F, 0x1B, 0x93, 0x3F, 0x95, 0x8B, 0x34, 0x3F, 0xBF, 0x98, 0x1C, 0xC0,
    0xAF, 0x86, 0xB8, 0x3F, 0x49, 0x31, 0xD9, 0xBE, 0xB6, 0x0B, 0x14, 0x40,
    0x70, 0x09, 0xC0, 0xBF, 0xE6, 0xAB, 0x40, 0x40, 0x8A, 0xFF, 0x68, 0x40,
    0x99, 0x9F, 0x86, 0xC0, 0x07, 0xE7, 0x1B, 0x40, 0x77, 0x9E, 0xD3, 0xBF,
    0xD0, 0x2E, 0x9F, 0x3E, 0xB9, 0xAA, 0xE1, 0x3F, 0x6D, 0xBC, 0xB7, 0xBF,
    0x81, 0x42, 0xB9, 0x3F, 0xF0, 0x26, 0x44, 0xC0, 0xB7, 0x80, 0x85, 0xBE,
    0xEB, 0x7C, 0x79, 0x40, 0xED, 0xA9, 0xAD, 0xBE, 0x16, 0x79, 0x57, 0x3F,
    0xEC, 0xD4, 0xB3, 0x3F, 0x2B, 0x21, 0x4F, 0xBD, 0x0C, 0xD6, 0x65, 0x3F,
    0x09, 0x8A, 0x05, 0x3F, 0xE1, 0xD1, 0x20, 0x3D, 0xBC, 0x7C, 0xAE, 0x3E,
    0x59, 0xF2, 0xC5, 0x3F, 0x00, 0x21, 0xED, 0xBF, 0xB1, 0xDE, 0x08, 0x3F,
    0xA0, 0x4F, 0x38, 0xC0, 0x43, 0x95, 0x47, 0x3F, 0x90, 0xBC, 0xE7, 0xC0,
    0x6C, 0x68, 0x5A, 0xC0, 0x60, 0x0F, 0xBF, 0xBF, 0x40, 0xDC, 0x35, 0x40,
    0xA6, 0x42, 0x76, 0xBD, 0x27, 0xAA, 0x28, 0x40, 0xA3, 0xC9, 0x56, 0xC0,
    0x33, 0xC1, 0x07, 0xBF, 0xD4, 0xCA, 0x83, 0xBF, 0x1F, 0x5B, 0x81, 0x3F,
    0xFD, 0x46, 0x31, 0x40, 0x7E, 0xBC, 0xCC, 0xBB, 0xFA, 0x1E, 0x68, 0xBF,
    0x6D, 0xD1, 0x39, 0x3E, 0xB9, 0x0D, 0x59, 0xC0, 0x72, 0x34, 0x2E, 0xC0,
    0xBB, 0x1B, 0x16, 0x40, 0x27, 0xC1, 0x39, 0xBE, 0x17, 0xE7, 0x98, 0xBF,
    0x98, 0x7F, 0xE5, 0xBF, 0xDD, 0x3F, 0xC4, 0xC0, 0x88, 0xA2, 0x92, 0xBF,
    0x69, 0xCB, 0x54, 0xC0, 0x66, 0x25, 0x0B, 0x40, 0x04, 0x26, 0x90, 0xBF,
    0x59, 0xB6, 0x16, 0x40, 0x99, 0xEA, 0xA5, 0xC0, 0xA3, 0x54, 0x09, 0x3F,
    0xBE, 0x79, 0x9F, 0xBF, 0xD0, 0xF8, 0x14, 0x3F, 0xD9, 0x25, 0x2E, 0x3F,
    0xB7, 0xF8, 0x4B, 0xC0, 0xA9, 0xD3, 0xEA, 0xBE, 0x51, 0x77, 0x0A, 0x40,
    0x0D, 0x4F, 0xFB, 0xBF, 0x55, 0x25, 0x0E, 0xC0, 0x24, 0xF2, 0x92, 0xBF,
    0x04, 0xB4, 0x06, 0x40, 0xE8, 0xEF, 0x67, 0x40, 0x22, 0x3F, 0x54, 0x3F,
    0xA6, 0xA6, 0xD8, 0xBF, 0x5C, 0x3F, 0x3E, 0x3F, 0xB1, 0x14, 0x4C, 0x40,
    0x06, 0x0B, 0x6E, 0xC0, 0x31, 0xF3, 0x05, 0xC1, 0x28, 0xFF, 0x24, 0xC0,
    0x76, 0x98, 0x23, 0x3F, 0x17, 0x65, 0x42, 0xC0, 0xD9, 0x5C, 0x14, 0xC0,
    0x60, 0x10, 0x2F, 0x40, 0x03, 0xB4, 0xD4, 0x3E, 0xB5, 0x77, 0x16, 0x3F,
    0x19, 0x7C, 0x04, 0xC0, 0x3B, 0xE1, 0x28, 0x40, 0x9A, 0x8B, 0xB8, 0x3E,
    0xEC, 0xF4, 0x9A, 0xBF, 0x06, 0x33, 0xD7, 0x3F, 0x90, 0x14, 0xE6, 0x3C,
    0x26, 0x3B, 0xD8, 0x3E, 0x6A, 0x67, 0x4A, 0x3F, 0x6E, 0xD3, 0xCA, 0x3F,
    0xA8, 0x36, 0x56, 0x40, 0x11, 0x04, 0x94, 0xC0, 0xA1, 0x71, 0x00, 0x40,
    0xB9, 0x3C, 0xB6, 0x3E, 0xFE, 0x39, 0x87, 0x3F, 0x9A, 0x3D, 0x22, 0x3E,
    0x66, 0x9F, 0xD6, 0xBF, 0x6D, 0x95, 0xB8, 0x3F, 0x05, 0x0D, 0x6E, 0xBF,
    0x86, 0x2B, 0x9C, 0xC0, 0x5C, 0x5F, 0xF0, 0xBF, 0xEE, 0x21, 0xFF, 0x3F,
    0xA9, 0x1C, 0xA8, 0xBF, 0xF3, 0x8D, 0x87, 0x40, 0x05, 0xF1, 0x80, 0x40,
    0xD4, 0x9A, 0x8F, 0x3C, 0x85, 0x81, 0x1B, 0xC0, 0x1C, 0x44, 0x21, 0xC0,
    0x37, 0xD4, 0x1C, 0xC0, 0xE2, 0x31, 0x28, 0xC0, 0x1F, 0x5E, 0x08, 0x40,
    0xFE, 0xBF, 0x82, 0xC0, 0x6E, 0xA1, 0xAB, 0x3E, 0xFA, 0xE5, 0x8D, 0x3E,
    0x3D, 0xC1, 0x4A, 0xBF, 0x01, 0x3B, 0x47, 0x40, 0x7A, 0xD4, 0x80, 0xC0,
    0x25, 0x2C, 0x16, 0xC0, 0xAE, 0x5A, 0x0F, 0x40, 0x10, 0x2A, 0x24, 0x3E,
    0xD1, 0x2D, 0xB1, 0xBE, 0x29, 0x62, 0x1A, 0xC0, 0xB9, 0xAC, 0xF5, 0x3E,
    0x5D, 0xD0, 0x80, 0xC0, 0x3F, 0x6E, 0xA2, 0xBF, 0x16, 0x6B, 0x31, 0xBF,
    0x85, 0x95, 0x1A, 0x3F, 0xD6, 0xDC, 0x45, 0xBF, 0xE0, 0x59, 0x27, 0xC0,
    0xDC, 0x1D, 0x15, 0xBF, 0xFB, 0x9F, 0x63, 0xC0, 0x49, 0x49, 0xD9, 0x3F,
    0x68, 0x39, 0x00, 0x40, 0xF0, 0x72, 0x67, 0x3F, 0xB1, 0x65, 0x64, 0xBF,
    0xAF, 0x41, 0x6A, 0xC0, 0x31, 0xF6, 0x16, 0xC0, 0xE6, 0x3B, 0xA3, 0xBF,
    0xAE, 0x13, 0x19, 0xBE, 0x18, 0xB4, 0x69, 0x40, 0xEE, 0x35, 0x77, 0x3F,
    0xA3, 0xCA, 0x16, 0xC0, 0xE1, 0x4D, 0x60, 0x40, 0xC4, 0x64, 0x13, 0xBF,
    0xA1, 0xC7, 0x68, 0xBF, 0x9A, 0x98, 0x30, 0x40, 0xD2, 0x91, 0x14, 0xC0,
    0x06, 0x81, 0x89, 0xC0, 0x92, 0xD7, 0xF4, 0xBE, 0xAB, 0x8F, 0x9E, 0x3F,
    0x6D, 0x7A, 0x5C, 0x40, 0xAE, 0x89, 0x11, 0xC0, 0xDA, 0x17, 0xF3, 0xBF,
    0x04, 0x0F, 0xD6, 0xBF, 0xDD, 0x94, 0xBF, 0xBF, 0xD4, 0x8A, 0x6F, 0x3F,
    0xF3, 0xF9, 0x14, 0x40, 0x72, 0xD2, 0x29, 0x3F, 0xD7, 0x63, 0x9A, 0x40,
    0xFC, 0x47, 0x9C, 0xBF, 0xB4, 0xF5, 0xC4, 0x3E, 0x70, 0x8F, 0x32, 0xBF,
    0xB4, 0x4A, 0x22, 0xC0, 0x10, 0x04, 0x3B, 0x40, 0xD3, 0xCA, 0xC8, 0xC0,
    0x8F, 0x36, 0x07, 0x3F, 0x77, 0x2B, 0xD6, 0xBF, 0xBC, 0x83, 0x31, 0x3F,
    0x96, 0x43, 0x46, 0x3F, 0x71, 0xAA, 0x77, 0xBF, 0x90, 0x53, 0xF1, 0x3F,
    0xAB, 0xDC, 0x24, 0x3D, 0x8F, 0xAE, 0x8D, 0xBF, 0x13, 0xCF, 0x10, 0xC0,
    0x38, 0x40, 0x11, 0xC0, 0xC2, 0xFF, 0x89, 0x3F, 0xCF, 0xF8, 0x91, 0xC0,
    0x8F, 0xB3, 0x91, 0xC0, 0x69, 0xB2, 0x0E, 0x40, 0x85, 0x83, 0x79, 0xBC,
    0xC3, 0x00, 0xD6, 0x3F, 0x9C, 0x22, 0x80, 0xC0, 0x55, 0x0C, 0x7B, 0x40,
    0x84, 0xAC, 0x72, 0x3E, 0x22, 0x56, 0x90, 0x3F, 0x38, 0xB7, 0x29, 0xC0,
    0x0C, 0x9C, 0x43, 0xC0, 0x8F, 0x35, 0x6E, 0x40, 0xBE, 0xD9, 0x19, 0x40,
    0x8C, 0x75, 0x0B, 0xBF, 0xF5, 0x93, 0xBC, 0x3F, 0x0E, 0xBF, 0x3C, 0x3F,
    0x69, 0x89, 0x16, 0xC0, 0x0D, 0x67, 0x1D, 0xC0, 0xE9, 0xFC, 0x31, 0xC0,
    0xBE, 0x55, 0xCE, 0x3E, 0x08, 0x8D, 0xB7, 0x3F, 0xF0, 0x6C, 0x0E, 0xC0,
    0x50, 0x46, 0x8C, 0x3F, 0x74, 0x42, 0xE7, 0xBF, 0xEF, 0x61, 0xDB, 0xBE,
    0x81, 0x96, 0x1F, 0x40, 0xA0, 0x4E, 0x9E, 0xBF, 0xC5, 0x95, 0xBB, 0xBF,
    0x5F, 0xE1, 0x89, 0xBE, 0x15, 0x6A, 0x8A, 0xBF, 0xF5, 0x13, 0x88, 0x3E,
    0x2C, 0xC7, 0x72, 0x40, 0xCF, 0x7D, 0xF2, 0x3F, 0x53, 0x64, 0x15, 0x40,
    0xC1, 0xAF, 0x8D, 0xC0, 0x45, 0x97, 0xFD, 0xBE, 0xB6, 0xDE, 0x2D, 0xBF,
    0x50, 0xE2, 0x00, 0x3F, 0xC2, 0x46, 0xF5, 0x3F, 0xA2, 0xD9, 0xD7, 0x3F,
    0x8B, 0x6C, 0x65, 0xBE, 0x80, 0x6F, 0xE0, 0x3E, 0xCE, 0xE9, 0x41, 0x40,
    0x7E, 0xDD, 0xA1, 0x40, 0x7C, 0xD8, 0x52, 0x3F, 0x9A, 0x4C, 0x09, 0xC0,
    0x92, 0xE1, 0xC0, 0x40, 0xE7, 0x9B, 0x25, 0xC0, 0xD3, 0xE3, 0x20, 0x3F,
    0xEF, 0xD6, 0xF9, 0xBF, 0xF0, 0xA1, 0x09, 0x40, 0xE2, 0x78, 0x3E, 0x40,
    0x04, 0xC4, 0x0D, 0xC0, 0x82, 0x88, 0x85, 0x3F, 0x94, 0x5A, 0x61, 0xBF,
    0x1F, 0x82, 0x93, 0xBF, 0xDF, 0x3C, 0xD3, 0x3D, 0x52, 0x4F, 0x5E, 0x3F,
    0x68, 0x23, 0x2C, 0xBF, 0x3A, 0x4E, 0xBA, 0x3D, 0xA1, 0x81, 0xF9, 0x3F,
    0x1F, 0xE6, 0xEE, 0x3E, 0x69, 0xF8, 0xA8, 0xBF, 0x79, 0xF1, 0x18, 0xC0,
    0x79, 0x15, 0x87, 0xBF, 0xA1, 0x5A, 0x90, 0xBF, 0xE0, 0x75, 0xC1, 0xBF,
    0x5B, 0x4B, 0xFC, 0xBE, 0x9C, 0x0E, 0xBC, 0x3F, 0xCB, 0x54, 0xD5, 0x3E,
    0x10, 0x28, 0x0D, 0xC0, 0x63, 0xDC, 0x1E, 0x40, 0x9B, 0xA4, 0xE2, 0x3E,
    0x8F, 0x43, 0x61, 0x40, 0x18, 0xDC, 0x9E, 0x3F, 0x41, 0xE1, 0x4B, 0x40,
    0x12, 0x90, 0xB7, 0xBF, 0x98, 0x4B, 0x4B, 0xBF, 0xE5, 0xEB, 0x23, 0xC0,
    0x0A, 0x07, 0xC8, 0x3F, 0xD5, 0x8C, 0xF9, 0x3F, 0x7A, 0x67, 0x03, 0x40,
    0x4B, 0x5F, 0xF1, 0xBF, 0xAE, 0x5F, 0xC6, 0x3E, 0x41, 0xF3, 0x2F, 0x3F,
    0x85, 0x1F, 0x62, 0xC0, 0x01, 0x34, 0x81, 0x3F, 0x3A, 0xB9, 0x0C, 0xBF,
    0xEB, 0xEE, 0x20, 0x40, 0xF4, 0x45, 0x2D, 0xBE, 0x9C, 0x19, 0x5C, 0xBF,
    0xC4, 0x66, 0x58, 0xC0, 0x84, 0x97, 0xF6, 0xBF, 0xA3, 0x9B, 0xD2, 0x3F,
    0xB4, 0x36, 0x85, 0xBE, 0x36, 0xCE, 0x36, 0xC0, 0xF2, 0x7A, 0x99, 0xBF,
    0xE3, 0x4D, 0x41, 0xC0, 0x7D, 0x59, 0xA8, 0x3E, 0x0F, 0x3D, 0x2D, 0x40,
    0x32, 0xFF, 0x7C, 0x3E, 0x20, 0x74, 0x2D, 0xC0, 0xBA, 0x37, 0x12, 0xC0,
    0x68, 0xD9, 0x13, 0x40, 0xE8, 0xC0, 0x69, 0xBF, 0xC4, 0x47, 0xF6, 0x3E,
    0x45, 0x6E, 0xC5, 0x3F, 0xA4, 0xF6, 0x3E, 0x3F, 0x3E, 0x05, 0xA9, 0x3F,
    0xC6, 0xD4, 0x61, 0x40, 0xF5, 0xB6, 0x78, 0x3F, 0xFA, 0xAA, 0xB4, 0x3F,
    0x5A, 0xE0, 0x04, 0xC0, 0xB0, 0x13, 0xE6, 0xBF, 0x91, 0x4A, 0xE4, 0x3F,
    0xFE, 0x68, 0xC2, 0xBF, 0xE3, 0x72, 0xBB, 0x40, 0x22, 0x41, 0x9C, 0x3F,
    0x03, 0xFB, 0xF7, 0x3F, 0xB6, 0x59, 0x17, 0x3F, 0xBB, 0x57, 0xF5, 0x3E,
    0x2A, 0xBA, 0xBB, 0x3F, 0xBC, 0xF6, 0x8E, 0xBF, 0xB7, 0xBD, 0x8F, 0x3F,
    0x83, 0xE8, 0x16, 0x40, 0xD6, 0x9A, 0x55, 0x40, 0x3B, 0x3D, 0x12, 0x40,
    0xA5, 0x97, 0x06, 0x40, 0x6E, 0x11, 0x42, 0x40, 0x62, 0x48, 0x6C, 0x40,
    0x03, 0x5E, 0x08, 0xC0, 0x41, 0xD8, 0x23, 0x40, 0x86, 0xE0, 0x37, 0xC0,
    0x5E, 0x1B, 0x8F, 0x40, 0xC0, 0x3D, 0x7C, 0xC0, 0x1D, 0xE3, 0xF9, 0x3F,
    0x89, 0x42, 0xDD, 0xBF, 0xA9, 0x7E, 0x9B, 0x3F, 0x30, 0x9C, 0x5B, 0x40,
    0xB1, 0x06, 0x51, 0xBF, 0x52, 0x40, 0x86, 0x3F, 0xFC, 0x8C, 0xD1, 0xBF,
    0x67, 0x04, 0x1A, 0xC0, 0x3C, 0xC7, 0x2C, 0xBE, 0x94, 0x60, 0xB7, 0x3F,
    0x36, 0x93, 0x0E, 0xC0, 0xCC, 0x05, 0x9C, 0xBF, 0xDB, 0xBC, 0x34, 0xC0,
    0xDE, 0x03, 0x43, 0xC0, 0x67, 0x9A, 0x4A, 0x40, 0x02, 0x5F, 0x15, 0xC0,
    0x54, 0xAC, 0x08, 0xC0, 0x58, 0xBE, 0x05, 0x40, 0xE5, 0x2C, 0x95, 0x3F,
    0x6E, 0xB0, 0x23, 0x40, 0x7E, 0xF0, 0xDF, 0x3F, 0x9F, 0x2D, 0x39, 0x40,
    0x6C, 0x79, 0xB2, 0xBE, 0xC0, 0x23, 0x41, 0xC0, 0xE9, 0x7A, 0x5F, 0xC0,
    0x1E, 0x1E, 0x65, 0xBF, 0x89, 0x4D, 0xB9, 0xBF, 0xCD, 0x7E, 0x79, 0x3F,
    0xB7, 0xBB, 0xE6, 0xBF, 0x74, 0x2B, 0x45, 0xBE, 0xF9, 0xF4, 0xA4, 0x3F,
    0xD8, 0x15, 0x82, 0xC0, 0x4B, 0xB8, 0x0C, 0xC0, 0x68, 0x12, 0x43, 0x40,
    0xBE, 0xA1, 0xA4, 0x3C, 0x0D, 0x55, 0xC7, 0xC0, 0xBC, 0x8F, 0x8E, 0x3E,
    0xDC, 0x78, 0x14, 0xC0, 0x55, 0x09, 0x13, 0xBF, 0x99, 0xB3, 0x86, 0xC0,
    0x32, 0x28, 0x86, 0x40, 0x3A, 0x0A, 0x5C, 0xC0, 0xEF, 0xED, 0x09, 0x3F,
    0xD8, 0x0D, 0x57, 0x3F, 0x3A, 0x39, 0x2E, 0x3F, 0xB0, 0xBD, 0xD5, 0x3F,
    0x6C, 0xBE, 0xA7, 0xBF, 0x05, 0xD1, 0x1A, 0x40, 0x8A, 0x73, 0x0B, 0x3E,
    0x24, 0xD1, 0x30, 0xC0, 0xCB, 0x7F, 0x86, 0xBE, 0x91, 0x10, 0xC4, 0x3E,
    0x09, 0xFE, 0xB5, 0xBE, 0xE0, 0x7E, 0x61, 0xBF, 0x0C, 0xAC, 0x45, 0x40,
    0x48, 0x5E, 0x10, 0x3F, 0xB6, 0xB0, 0x17, 0x40, 0x2E, 0xA8, 0x99, 0x3F,
    0x2A, 0x92, 0xB8, 0x3F, 0x11, 0xFC, 0x52, 0x3E, 0x57, 0xD0, 0xC0, 0x3E,
    0x44, 0x2E, 0x23, 0xBD, 0x42, 0x0B, 0x66, 0xBF, 0x5B, 0x89, 0xB1, 0xBD,
    0x4E, 0xD5, 0xFE, 0xBD, 0x93, 0xF1, 0x9F, 0xBF, 0x32, 0xAB, 0xBD, 0xBF,
    0x3C, 0x1F, 0xB1, 0xBF, 0x9D, 0x26, 0xF5, 0xBE, 0x47, 0x0B, 0x94, 0x3F,
    0x6D, 0x5C, 0xE9, 0x3E, 0x4E, 0x4E, 0x03, 0x40, 0x90, 0x7D, 0xAE, 0x3E,
    0xC2, 0xFA, 0x5D, 0xBF, 0x57, 0x63, 0x7E, 0xBF, 0xF9, 0x2F, 0xE1, 0x3F,
    0xB1, 0xF8, 0xD7, 0xBE, 0x32, 0x2D, 0x30, 0xC0, 0x0D, 0xB0, 0xCC, 0x3E,
    0x7D, 0xD0, 0xB8, 0x3F, 0x70, 0xE9, 0x9D, 0x3F, 0x90, 0x91, 0x3D, 0xBF,
    0x41, 0x7E, 0x20, 0x3F, 0xD7, 0xA7, 0x7E, 0xBE, 0xF6, 0x39, 0x72, 0x3F,
    0x95, 0x28, 0x1D, 0x3F, 0x9E, 0xB8, 0xB2, 0x3F, 0x12, 0x3F, 0xCE, 0xBF,
    0x36, 0x7B, 0x0F, 0x3F, 0x6F, 0x98, 0xD2, 0x3F, 0x2D, 0x3B, 0x10, 0x3F,
    0x16, 0x3A, 0x3A, 0x3D, 0x0B, 0x52, 0x1B, 0xBF, 0xDA, 0x0C, 0xFC, 0xBE,
    0x35, 0xEA, 0xC2, 0x3F, 0x74, 0x34, 0x4C, 0x3E, 0xBF, 0x97, 0x86, 0xBF,
    0x16, 0xFD, 0x41, 0x3F, 0x01, 0x15, 0xBE, 0x3F, 0x19, 0x67, 0x1D, 0xBF,
    0x1C, 0x59, 0xCC, 0x3E, 0xCF, 0x01, 0x2A, 0xC0, 0xD8, 0xBD, 0xD0, 0xBE,
    0x0A, 0x7B, 0xFF, 0xBF, 0x1B, 0x14, 0x44, 0xBE, 0x2E, 0x7B, 0xDD, 0x3D,
    0xAA, 0x5A, 0xF5, 0x3F, 0x38, 0x84, 0x8A, 0xBF, 0xF9, 0x68, 0x6F, 0x3F,
    0xF0, 0xD7, 0xD0, 0xBF, 0xB8, 0xE7, 0x19, 0xBF, 0xA5, 0xC5, 0xA9, 0xBF,
    0xDD, 0x2D, 0x08, 0xC0, 0xD5, 0x65, 0x49, 0xBF, 0xCB, 0xD1, 0xBC, 0xBE,
    0xF2, 0x84, 0x0A, 0xBF, 0xDF, 0x0F, 0x25, 0x3F, 0xDA, 0x2E, 0x8F, 0xBE,
    0xB1, 0x37, 0x56, 0xC0, 0x30, 0x2F, 0x75, 0xBF, 0xC9, 0x5C, 0x06, 0xC0,
    0xBB, 0xB4, 0x7C, 0x3E, 0x6A, 0xEC, 0xF4, 0x3F, 0x6F, 0x2A, 0x33, 0x3F,
    0xCC, 0xCA, 0x05, 0xBF, 0xB6, 0x2E, 0x92, 0xBE, 0x0A, 0x4F, 0x19, 0xBF,
    0x6A, 0x0A, 0x3D, 0xBF, 0xF9, 0xBB, 0x21, 0x3F, 0xD4, 0x53, 0x1A, 0x3F,
    0x7E, 0x86, 0x6C, 0x3F, 0x91, 0x5B, 0xB9, 0xBF, 0x1F, 0x39, 0xF9, 0xBF,
    0xA2, 0x59, 0xBB, 0xBF, 0x61, 0xB7, 0xDF, 0x3F, 0xA5, 0x5C, 0x97, 0x3E,
    0x41, 0xB5, 0x49, 0x3F, 0x34, 0x6D, 0x5F, 0x3F, 0x2D, 0x1D, 0x3D, 0x40,
    0xFF, 0x3C, 0x9B, 0x3F, 0x21, 0x41, 0x0F, 0xBF, 0xF4, 0x5A, 0xAB, 0x3F,
    0x88, 0xA4, 0x11, 0xBF, 0x5B, 0xFF, 0x58, 0x3F, 0x9F, 0x99, 0x82, 0x3F,
    0xF4, 0xF8, 0x63, 0x3F, 0xE5, 0x6F, 0x0F, 0x3F, 0x7E, 0x52, 0x7F, 0xBE,
    0x0D, 0x09, 0x97, 0xBF, 0x0F, 0x68, 0x79, 0xBF, 0x05, 0x1D, 0xCA, 0x3F,
    0x04, 0x97, 0x24, 0x3F, 0xDC, 0xE4, 0x2B, 0x3F, 0x08, 0x54, 0x12, 0xBF,
    0x80, 0x76, 0x9C, 0x3F, 0x6A, 0xFD, 0x5A, 0xBE, 0xC6, 0xF7, 0xDC, 0x3F,
    0xFD, 0x2E, 0x99, 0x3F, 0xA5, 0x04, 0x0F, 0xC0, 0xC1, 0xC2, 0x0D, 0x40,
    0x51, 0x99, 0x6E, 0x3F, 0xF7, 0xCF, 0x35, 0xC0, 0x7E, 0x89, 0x8C, 0xBF,
    0xAC, 0xC7, 0xD9, 0x3E, 0xED, 0xAD, 0x86, 0xBE, 0x91, 0x56, 0xF6, 0x3E,
    0x89, 0xD1, 0xA7, 0x3F, 0x7A, 0x16, 0x69, 0x3E, 0xC8, 0x85, 0xE6, 0xBF,
    0x90, 0xB8, 0x36, 0x40, 0x3A, 0xCD, 0xFF, 0xFF, 0x04, 0x00, 0x00, 0x00,
    0x00, 0x30, 0x00, 0x00, 0xA2, 0xE0, 0x65, 0xBF, 0x72, 0x11, 0x27, 0xBF,
    0x75, 0x1D, 0x14, 0xBE, 0x31, 0x2F, 0xA8, 0x3E, 0xE8, 0xAE, 0x3D, 0x3D,
    0xC7, 0x67, 0x0F, 0x40, 0x03, 0x93, 0x5A, 0xBF, 0x5E, 0xFD, 0x34, 0xBF,
    0x4F, 0xC7, 0x81, 0x3F, 0xA2, 0x9F, 0xB3, 0xBE, 0x0D, 0x53, 0x84, 0x3F,
    0x2C, 0xD4, 0x7B, 0x3F, 0x3F, 0x4C, 0x75, 0xBE, 0xF8, 0x34, 0x04, 0xBE,
    0x57, 0xB5, 0xA3, 0xBF, 0x67, 0xEA, 0xDB, 0xBD, 0xFB, 0x6D, 0x85, 0xBE,
    0x8E, 0x9C, 0x40, 0xBE, 0xBC, 0x45, 0x0A, 0x3F, 0x59, 0x0B, 0x4F, 0xBE,
    0x57, 0x04, 0x0D, 0xBF, 0x2B, 0xEF, 0x2C, 0x3E, 0x60, 0xB5, 0x3F, 0xBF,
    0x86, 0x03, 0x61, 0x3E, 0xAF, 0xF9, 0x88, 0xB9, 0x10, 0x99, 0xD5, 0x3D,
    0xC4, 0x31, 0xDC, 0xBF, 0xE1, 0x5F, 0x80, 0xBC, 0xBE, 0x58, 0x87, 0xBD,
    0x58, 0xB9, 0xA5, 0x3F, 0xCA, 0xDF, 0xE3, 0xBF, 0xAA, 0x8F, 0x1C, 0x3F,
    0xA8, 0x23, 0x00, 0xBF, 0x65, 0x0C, 0xEC, 0x3E, 0xC0, 0x7B, 0x03, 0x3F,
    0x1C, 0x57, 0xBC, 0xBE, 0x8D, 0xA6, 0xDA, 0x3E, 0xF3, 0x17, 0x12, 0xBF,
    0x11, 0x08, 0x2D, 0xBD, 0xF1, 0xFA, 0x0F, 0x3E, 0x94, 0x3B, 0x20, 0x3C,
    0xCE, 0x0C, 0x56, 0x3F, 0xD8, 0x65, 0xB6, 0x3D, 0x29, 0xB3, 0x04, 0xC0,
    0x68, 0x0A, 0x11, 0x3F, 0xB8, 0x98, 0x25, 0x40, 0x6A, 0x1E, 0x02, 0xBF,
    0x4D, 0xC8, 0xAD, 0x3E, 0x39, 0xD9, 0x6B, 0x3F, 0xE8, 0xB4, 0x6D, 0xBE,
    0x98, 0x97, 0xF0, 0xBE, 0x20, 0xB4, 0x87, 0xBE, 0xF7, 0x5B, 0xEC, 0x3B,
    0x26, 0xE5, 0x49, 0xBF, 0xA7, 0xA4, 0x14, 0x3E, 0xE1, 0x57, 0x73, 0x3F,
    0x09, 0x07, 0xDE, 0x3D, 0xD7, 0xA6, 0x23, 0x3F, 0xC2, 0xF1, 0x08, 0xBF,
    0x79, 0x97, 0x6C, 0x3E, 0x9A, 0x17, 0x13, 0xBF, 0xA5, 0x67, 0x62, 0x3F,
    0xB8, 0x0F, 0xFA, 0x3D, 0x41, 0x1E, 0xE3, 0xBE, 0x04, 0x13, 0x8A, 0x3F,
    0xF7, 0xB0, 0xCE, 0xBE, 0x79, 0x57, 0xB6, 0x3F, 0xA0, 0xD1, 0x23, 0xC0,
    0x2E, 0x5C, 0xCA, 0x3F, 0x9D, 0x0E, 0x00, 0xC0, 0x82, 0x1E, 0x33, 0xBF,
    0x69, 0x77, 0xCA, 0x3F, 0xB3, 0x5F, 0x71, 0x3F, 0x80, 0x54, 0xC4, 0x3E,
    0x78, 0x8D, 0x57, 0x3E, 0x3F, 0x2B, 0x6E, 0x3F, 0xF6, 0xC9, 0x24, 0x3F,
    0x08, 0x09, 0x9A, 0xBE, 0x4B, 0x09, 0x8E, 0xBF, 0x3F, 0x49, 0x4A, 0xBF,
    0x20, 0xD6, 0x95, 0xBF, 0x2A, 0x74, 0x81, 0xBF, 0x62, 0xF2, 0x3C, 0xBE,
    0xC4, 0x42, 0x82, 0xBF, 0xB3, 0x2B, 0x8E, 0xBE, 0x06, 0x88, 0x1C, 0xBF,
    0x24, 0x85, 0x0E, 0x3F, 0x20, 0x9E, 0xB9, 0x3F, 0x6C, 0xF3, 0x0F, 0xBF,
    0x00, 0x0D, 0x05, 0x3E, 0x11, 0xAC, 0x99, 0xBE, 0x90, 0x80, 0xBB, 0xBF,
    0x62, 0x79, 0x99, 0xBC, 0x17, 0x6D, 0x92, 0x3F, 0xB3, 0x25, 0x83, 0xBE,
    0x54, 0x98, 0x59, 0xBE, 0x53, 0x21, 0xDC, 0x3E, 0x31, 0xD8, 0x89, 0xBF,
    0x53, 0x2E, 0x2D, 0xBF, 0xD7, 0x93, 0xB8, 0xBE, 0x51, 0x63, 0x4D, 0x3D,
    0xA9, 0x0E, 0x2E, 0x3F, 0x8A, 0xA6, 0x51, 0xBF, 0xBD, 0x06, 0x5D, 0xBE,
    0x55, 0x5E, 0x55, 0x3F, 0x68, 0x7C, 0x22, 0xC0, 0xB0, 0x50, 0x8D, 0x3F,
    0x5C, 0x88, 0x01, 0xBE, 0xD1, 0x20, 0x0D, 0xBF, 0x1B, 0x70, 0x3C, 0xBF,
    0x10, 0x81, 0x87, 0x3E, 0x21, 0xEE, 0x21, 0x3E, 0x3B, 0xC3, 0xD2, 0xBD,
    0xBE, 0xB0, 0x15, 0xBC, 0x63, 0xFD, 0xD3, 0x3E, 0xAD, 0x67, 0x38, 0x3D,
    0xEE, 0x4C, 0x59, 0x3D, 0xE1, 0x57, 0x61, 0x3F, 0xA7, 0x21, 0xEC, 0xBE,
    0xFB, 0x79, 0xAB, 0x3E, 0xE2, 0x06, 0x5C, 0xBE, 0x5D, 0xF0, 0x89, 0x3D,
    0x01, 0xB8, 0x6D, 0xBE, 0x4B, 0xDD, 0x54, 0xBF, 0xA2, 0xC2, 0xD1, 0x3E,
    0xD8, 0x2D, 0x42, 0x3F, 0x1F, 0xCF, 0x0B, 0x40, 0x84, 0xF6, 0xF3, 0xBE,
    0x8D, 0x32, 0x91, 0xBF, 0x94, 0xF5, 0x93, 0x3F, 0x83, 0xA3, 0x9C, 0xBE,
    0xAA, 0xD6, 0x83, 0xBD, 0x55, 0x45, 0xCE, 0xBD, 0xB4, 0xCB, 0x84, 0xBE,
    0x38, 0x24, 0x15, 0x40, 0x2D, 0x9D, 0x7F, 0x3F, 0xAC, 0x5C, 0x1C, 0xBE,
    0x09, 0x7B, 0x12, 0xBF, 0xEE, 0x39, 0x4D, 0xBE, 0x62, 0x51, 0x99, 0x3E,
    0x55, 0x8E, 0x9D, 0xBE, 0xAE, 0x81, 0xED, 0x3E, 0x6A, 0xD6, 0x05, 0xBF,
    0xC8, 0xAD, 0x95, 0xBE, 0x3B, 0xEE, 0x16, 0xBF, 0x59, 0xF2, 0xDD, 0xBE,
    0x23, 0xBE, 0xA8, 0x3E, 0xB2, 0xB5, 0xC9, 0xBF, 0x6E, 0x13, 0x4E, 0x3F,
    0xF7, 0x1F, 0xB7, 0x3F, 0xAA, 0x83, 0x17, 0x3F, 0xED, 0x9D, 0xF8, 0xBE,
    0xC1, 0xE3, 0xD4, 0xBE, 0xB9, 0x59, 0x16, 0xBE, 0x68, 0xB5, 0x96, 0x3F,
    0xD6, 0xA2, 0x18, 0x3F, 0x1D, 0x74, 0xED, 0x3E, 0xB1, 0x60, 0x92, 0x3E,
    0xED, 0x28, 0x0B, 0x3F, 0x13, 0xDE, 0x93, 0x3F, 0xF5, 0xF6, 0x32, 0xC0,
    0x4A, 0x33, 0x99, 0x3F, 0x18, 0xC9, 0x33, 0x3F, 0x88, 0xA1, 0x5A, 0x3F,
    0xF5, 0x51, 0xE1, 0xBE, 0x02, 0xD7, 0x27, 0xBD, 0xFD, 0x9A, 0x57, 0xBE,
    0xA3, 0x81, 0x51, 0xBF, 0x4C, 0x18, 0x11, 0xBE, 0x04, 0x80, 0x28, 0x3F,
    0xB6, 0xC8, 0x0E, 0x40, 0x90, 0x9E, 0xD8, 0x3F, 0xE8, 0x67, 0xB9, 0x3E,
    0x91, 0x98, 0x38, 0x3D, 0x3F, 0x42, 0x94, 0xBE, 0xB0, 0x0D, 0xE2, 0x3D,
    0x2F, 0x0B, 0x26, 0xC0, 0xAF, 0xFA, 0xAC, 0x3E, 0x8E, 0x1A, 0x56, 0x3E,
    0x59, 0x43, 0x45, 0xBF, 0x0D, 0xE4, 0xBF, 0xBE, 0x23, 0xE0, 0xFD, 0xBE,
    0xDF, 0xDD, 0xFC, 0xBE, 0xEB, 0x1F, 0x2A, 0xBD, 0x57, 0xCA, 0xE7, 0xBF,
    0x49, 0xEC, 0x51, 0x3F, 0xC3, 0xC0, 0x70, 0x3F, 0x0E, 0x5E, 0x8D, 0xBE,
    0x71, 0xF8, 0x11, 0x3F, 0x80, 0xA9, 0x47, 0xBF, 0x18, 0x52, 0xF0, 0x3E,
    0xDB, 0xB9, 0xBF, 0x3E, 0x38, 0x21, 0x86, 0xBE, 0x67, 0xC4, 0xFD, 0xBE,
    0xBE, 0xC5, 0xB0, 0x3E, 0x63, 0x72, 0x2B, 0x3D, 0x92, 0xB8, 0x43, 0xBE,
    0x03, 0x50, 0x27, 0xBF, 0xCC, 0xD3, 0x30, 0x3F, 0xF0, 0x81, 0xC6, 0xBE,
    0x1D, 0x2F, 0x01, 0x3E, 0x3F, 0x50, 0xA0, 0x3E, 0x32, 0x87, 0x5C, 0xBF,
    0x07, 0xB2, 0xC2, 0xBE, 0xC4, 0x44, 0x03, 0xBF, 0x44, 0x29, 0x4E, 0xBF,
    0xD7, 0x24, 0x46, 0x3E, 0x5D, 0x70, 0x5A, 0xBF, 0x53, 0x4C, 0x22, 0xBF,
    0xC3, 0x32, 0x41, 0x3E, 0x81, 0x5F, 0xAC, 0xBF, 0x09, 0x5A, 0xC0, 0xBE,
    0x20, 0x73, 0x3A, 0xBE, 0xF9, 0xFE, 0x6B, 0xBE, 0xE3, 0x46, 0x9B, 0xBD,
    0x69, 0xB2, 0x91, 0x3F, 0x6B, 0xA9, 0xF5, 0xBE, 0x31, 0x8C, 0x75, 0xBE,
    0xF8, 0x72, 0x2D, 0x3F, 0xC0, 0x42, 0x2C, 0xBF, 0x91, 0x23, 0x04, 0xBF,
    0xA3, 0xDF, 0xAE, 0x3C, 0x51, 0xC8, 0xC1, 0xBF, 0x72, 0x4F, 0x2D, 0x3D,
    0x11, 0x57, 0x9F, 0x3E, 0xD8, 0xAA, 0x47, 0xBC, 0x06, 0x33, 0x8E, 0xBE,
    0x93, 0x89, 0xE5, 0xBE, 0x23, 0x0A, 0x84, 0xBE, 0xC5, 0x17, 0x6D, 0xBF,
    0xE6, 0x3F, 0x6A, 0x3F, 0x73, 0xC9, 0xED, 0xBF, 0xE5, 0x3D, 0x16, 0x3F,
    0x38, 0x58, 0xB6, 0xBE, 0xE1, 0xAF, 0x20, 0x3F, 0x60, 0x72, 0x40, 0x3F,
    0xD7, 0xCD, 0x22, 0xBE, 0x32, 0x08, 0x6A, 0x3C, 0x3D, 0x9D, 0x12, 0xBF,
    0xE7, 0x60, 0x07, 0x40, 0x33, 0x42, 0x1B, 0x3F, 0x18, 0x4F, 0x2A, 0x3F,
    0xC7, 0x60, 0x3E, 0xBE, 0xA8, 0xCA, 0x95, 0x3E, 0xC9, 0x62, 0x3A, 0x3F,
    0x1E, 0x64, 0xE4, 0xBF, 0xBC, 0x70, 0x5B, 0x3F, 0xFA, 0xB6, 0x94, 0xBF,
    0x4B, 0x06, 0x7C, 0xBF, 0xAB, 0x1B, 0x4C, 0xBF, 0x95, 0x8C, 0xF7, 0xBC,
    0x2A, 0xC9, 0xF4, 0xBF, 0x8B, 0x17, 0xB4, 0x3D, 0x96, 0x14, 0x10, 0xBF,
    0xE2, 0xCE, 0xB3, 0x3E, 0x5A, 0x92, 0x3D, 0x3F, 0xCD, 0x73, 0x15, 0x3F,
    0xF2, 0x91, 0xF1, 0xBD, 0x91, 0xAC, 0x99, 0x3F, 0x4B, 0xF7, 0x08, 0xC0,
    0x3C, 0xC5, 0x76, 0xBE, 0xF8, 0x3C, 0x75, 0x3F, 0xB6, 0x75, 0x88, 0xBE,
    0x21, 0x7D, 0x0C, 0xBF, 0xEA, 0xBE, 0x23, 0x3F, 0x86, 0x4A, 0x81, 0x3E,
    0x35, 0x8E, 0xFE, 0x3E, 0x27, 0xB7, 0xA1, 0xBD, 0xD3, 0xDC, 0x69, 0xBC,
    0x69, 0xC9, 0x98, 0xBE, 0x2B, 0x3E, 0xCB, 0x3E, 0x48, 0xC2, 0xD8, 0xBF,
    0x0A, 0xFC, 0x4E, 0xBE, 0xCC, 0x09, 0x1B, 0x3F, 0x32, 0xE0, 0x13, 0x3F,
    0x38, 0xD6, 0xEC, 0xBF, 0x23, 0xF7, 0x90, 0xBD, 0x52, 0x95, 0xF1, 0xBD,
    0x3C, 0xF5, 0x92, 0xBE, 0xB6, 0xFE, 0x75, 0x3D, 0x55, 0xE3, 0x65, 0xBE,
    0x9C, 0x7B, 0xF6, 0x3F, 0xA8, 0x51, 0x6E, 0xBF, 0xF3, 0x1C, 0xC8, 0x3E,
    0xF5, 0x25, 0x74, 0x3E, 0xD9, 0xDD, 0xB1, 0xBE, 0x37, 0x2B, 0x2A, 0x3F,
    0x28, 0x23, 0x04, 0x3E, 0xCA, 0x8D, 0x4F, 0x3F, 0xBD, 0xB3, 0x01, 0x3D,
    0xD7, 0xA2, 0x28, 0xBF, 0xB5, 0xEE, 0xF3, 0x3F, 0xA7, 0xD0, 0xE2, 0x3F,
    0x16, 0x3F, 0x0A, 0xC0, 0x91, 0x35, 0xC0, 0x3E, 0x25, 0xFC, 0x6F, 0xBC,
    0xCF, 0x6C, 0x83, 0x3E, 0x87, 0x79, 0xCD, 0x3D, 0x8A, 0xBE, 0xD3, 0x3E,
    0x1D, 0x1E, 0x84, 0x3E, 0xCC, 0x10, 0x20, 0x3E, 0x06, 0xE3, 0x06, 0x3E,
    0xEA, 0xB0, 0x0B, 0xBE, 0xCE, 0x0D, 0x7A, 0xBE, 0x38, 0x05, 0x04, 0xBF,
    0x56, 0x24, 0x0C, 0x3E, 0x21, 0x42, 0xF1, 0xBD, 0xF2, 0x44, 0xD3, 0xBE,
    0x62, 0x71, 0x42, 0xBF, 0x1F, 0xBD, 0x6D, 0x3F, 0x45, 0x7C, 0xAA, 0x3C,
    0x7E, 0xF2, 0x75, 0x3F, 0x3F, 0x66, 0xDA, 0x3E, 0x8D, 0x3F, 0x41, 0xBF,
    0x9E, 0xB0, 0xDE, 0xBF, 0x3E, 0x7B, 0xC8, 0x3E, 0x2E, 0x04, 0xB9, 0xBC,
    0x7D, 0x7E, 0x55, 0xBB, 0x40, 0x9D, 0xB3, 0xBF, 0x91, 0x79, 0xE4, 0xBC,
    0x07, 0x9D, 0x84, 0x3F, 0x18, 0x6C, 0xFF, 0x3D, 0x20, 0x93, 0xF1, 0x3D,
    0x89, 0x8D, 0x88, 0xBF, 0xEF, 0xAF, 0xF0, 0xBD, 0x04, 0xC3, 0x8B, 0x3E,
    0x92, 0x03, 0x8E, 0x3F, 0x90, 0x1A, 0x1C, 0xBF, 0x37, 0x0F, 0x89, 0xBE,
    0x83, 0x13, 0x9F, 0x3F, 0x06, 0x05, 0x76, 0x3F, 0x3E, 0x93, 0x80, 0xBF,
    0xFD, 0xC7, 0x01, 0xBF, 0x5C, 0xE1, 0x99, 0xBE, 0xF0, 0x4A, 0xA5, 0xBF,
    0x95, 0xAC, 0x1F, 0x3E, 0xDB, 0x25, 0x9E, 0xBF, 0x35, 0xC2, 0xF9, 0xBD,
    0xEE, 0xE4, 0x9E, 0x3E, 0x66, 0x25, 0x54, 0x3F, 0x81, 0x6B, 0x70, 0xBD,
    0x42, 0x05, 0x16, 0x40, 0xA3, 0xC5, 0xC8, 0x3E, 0x13, 0xAE, 0x88, 0xBF,
    0x9F, 0x0D, 0x8B, 0xBF, 0x92, 0x5D, 0x8F, 0xBF, 0x74, 0xA1, 0x33, 0x3F,
    0xEE, 0x26, 0x91, 0x3E, 0x31, 0x69, 0x85, 0xBD, 0x6C, 0xC3, 0xAD, 0x3E,
    0x18, 0xBE, 0xBA, 0x3F, 0xD8, 0xBD, 0x60, 0x3E, 0x35, 0x01, 0xEF, 0xBE,
    0xED, 0x2A, 0xBE, 0x3E, 0xC7, 0x5A, 0xC8, 0xBC, 0x6F, 0xA1, 0x6A, 0x3F,
    0x1E, 0xBC, 0x91, 0x3F, 0x35, 0xD8, 0x56, 0x3D, 0x7B, 0x66, 0x3E, 0x3F,
    0xF2, 0x37, 0x0E, 0x3F, 0xC4, 0x8A, 0x75, 0x3E, 0x0E, 0x0B, 0x23, 0x3D,
    0xB9, 0x87, 0xA3, 0x3E, 0xB9, 0xE6, 0x53, 0x3E, 0x74, 0xA3, 0x79, 0x3E,
    0x34, 0x54, 0x8B, 0x3F, 0xBA, 0xB2, 0xB6, 0x3F, 0x27, 0x40, 0xA1, 0x3F,
    0x4F, 0x03, 0xDB, 0xBE, 0xC8, 0xC5, 0x80, 0xBF, 0x26, 0x3D, 0xE3, 0xBF,
    0xAA, 0xD2, 0xC8, 0x3E, 0xA9, 0x94, 0x6D, 0x3E, 0xC2, 0xD6, 0x60, 0xBE,
    0x7C, 0x13, 0x58, 0x3F, 0xE3, 0xCC, 0xEF, 0xBE, 0xB8, 0x2A, 0xCE, 0x3D,
    0xB7, 0x72, 0x7C, 0x3E, 0x09, 0x8A, 0x87, 0xBF, 0x05, 0x33, 0xA3, 0x3E,
    0xC7, 0x7A, 0x07, 0x3E, 0xAF, 0x67, 0xF0, 0xBE, 0x97, 0xC4, 0x26, 0x3F,
    0xB4, 0xF9, 0x6F, 0x3E, 0x0F, 0x8D, 0x04, 0xBF, 0x16, 0xCD, 0xA7, 0xBB,
    0x8A, 0x0A, 0x4B, 0xBF, 0xA8, 0xCE, 0xA1, 0x3E, 0x50, 0x56, 0xB8, 0xBE,
    0x5D, 0x15, 0x94, 0x3F, 0xB1, 0xC9, 0x04, 0x3F, 0x67, 0xA6, 0xA9, 0x3E,
    0xE8, 0x5F, 0xA2, 0xBF, 0xA9, 0xE5, 0xB2, 0x3F, 0xC6, 0xFC, 0xD3, 0x3E,
    0xE6, 0x02, 0xE7, 0xBE, 0xA2, 0x60, 0xA3, 0xBD, 0x29, 0x48, 0x2D, 0xBF,
    0x16, 0x8A, 0x81, 0xBD, 0xC8, 0x3C, 0x57, 0xBF, 0xA8, 0xA4, 0x56, 0x3F,
    0x21, 0xFB, 0x1F, 0xBF, 0x6C, 0x4F, 0x44, 0x3E, 0x6B, 0x94, 0x81, 0x3F,
    0x69, 0xCD, 0xC8, 0x3D, 0x75, 0x76, 0x18, 0xBF, 0x0F, 0x47, 0x98, 0xBE,
    0x37, 0x04, 0x34, 0x3F, 0xE4, 0x8D, 0xA9, 0xBF, 0x0A, 0x42, 0xB0, 0xBF,
    0xD0, 0xDE, 0xCD, 0xBF, 0x2E, 0x9E, 0x5B, 0x3F, 0x23, 0x0F, 0x0B, 0x3F,
    0xE3, 0x68, 0xAF, 0x3E, 0x07, 0xBD, 0x0E, 0xBE, 0xB6, 0x8B, 0x90, 0x3F,
    0xD5, 0x74, 0xD1, 0x3F, 0xC4, 0xDD, 0xEF, 0xBE, 0xB5, 0x69, 0x24, 0xBE,
    0xB4, 0x45, 0x62, 0x3E, 0x3C, 0x29, 0x13, 0x3F, 0xB2, 0x22, 0xD0, 0xBD,
    0x26, 0x54, 0x18, 0xBF, 0xD3, 0x5D, 0x96, 0x3D, 0x38, 0x15, 0xCB, 0xBE,
    0x9A, 0x6F, 0xC7, 0xBE, 0x62, 0x2C, 0x98, 0x3E, 0xD5, 0x26, 0x3B, 0xBE,
    0xF1, 0x7E, 0xBE, 0x3E, 0x86, 0x97, 0xE9, 0x3E, 0x3A, 0xF5, 0x7B, 0x3F,
    0x57, 0xCB, 0xA0, 0xBD, 0x02, 0x15, 0x1B, 0x3E, 0x1E, 0xE7, 0x9C, 0x3E,
    0x44, 0x0D, 0x5D, 0xBF, 0xCE, 0x2C, 0x88, 0x3F, 0x45, 0x6D, 0xAD, 0xBE,
    0x7A, 0x15, 0xAE, 0x3F, 0x43, 0x38, 0x1B, 0x3F, 0xBD, 0xF4, 0x2B, 0xBF,
    0x76, 0x9E, 0x8E, 0xBF, 0xA2, 0x49, 0x8A, 0x3F, 0xDC, 0xE1, 0xB5, 0x3E,
    0xAE, 0x8C, 0x6B, 0x3F, 0x20, 0xF8, 0x59, 0x3F, 0x6C, 0x46, 0x2E, 0xBE,
    0x14, 0xFC, 0x04, 0x40, 0xD3, 0x3F, 0xFD, 0xBD, 0x53, 0xC5, 0x6A, 0x3F,
    0x1C, 0x83, 0x91, 0xBF, 0xD6, 0x67, 0x1D, 0xBF, 0x7B, 0xC3, 0x95, 0xBE,
    0xF6, 0xDF, 0x1D, 0x3F, 0xD6, 0xF1, 0x1A, 0x40, 0x8D, 0xC5, 0x5C, 0x3F,
    0x01, 0xE9, 0x0B, 0x3F, 0x1C, 0x69, 0xDE, 0x3E, 0x2A, 0x2B, 0x04, 0xBF,
    0x1D, 0x17, 0x79, 0xBF, 0xE5, 0xB6, 0xBA, 0xBD, 0xD4, 0x00, 0x86, 0x3F,
    0x2E, 0x1F, 0xFB, 0x3F, 0x74, 0xD7, 0xE9, 0x3E, 0xC1, 0xE5, 0x9C, 0xBE,
    0xBB, 0xDE, 0xBE, 0xBF, 0xDC, 0xC1, 0xBE, 0x3F, 0x67, 0xC1, 0x8B, 0xBF,
    0xCC, 0x72, 0x82, 0x3F, 0xB1, 0x46, 0xD8, 0x3F, 0x47, 0x69, 0x87, 0xBD,
    0x07, 0xA2, 0xD8, 0x3F, 0xD0, 0x0B, 0x6B, 0x3E, 0x0A, 0x7C, 0x95, 0x3D,
    0x74, 0x9F, 0x38, 0xBF, 0xDB, 0x69, 0x28, 0x3F, 0xEC, 0x96, 0xAA, 0x3E,
    0x6D, 0x07, 0x95, 0x3E, 0x9C, 0xE5, 0x6F, 0xBF, 0xE8, 0x4B, 0x10, 0x3E,
    0x1F, 0xF1, 0x07, 0x3F, 0x6F, 0x8B, 0x1B, 0x3E, 0x1E, 0x8F, 0x11, 0xBD,
    0x17, 0xED, 0x5B, 0xBF, 0x11, 0x44, 0xE1, 0x3E, 0xBB, 0x34, 0xBB, 0x3F,
    0xEE, 0xFE, 0x23, 0xBF, 0xB0, 0x02, 0x7D, 0x3F, 0x44, 0xD4, 0xC6, 0x3F,
    0x39, 0xD2, 0x19, 0xBF, 0xB4, 0x27, 0xF6, 0x3F, 0xEB, 0x37, 0xA7, 0xBE,
    0xB2, 0x7F, 0x08, 0x3F, 0x7F, 0x94, 0x6D, 0x3F, 0xA1, 0x6A, 0x82, 0xBD,
    0xA0, 0x62, 0xAF, 0x3E, 0x21, 0x62, 0xBD, 0xBE, 0x64, 0x7F, 0x5F, 0xBE,
    0x90, 0xA3, 0x1F, 0xBF, 0x7B, 0xD6, 0x5C, 0xBF, 0x87, 0xD3, 0x6F, 0x3F,
    0xCA, 0xF8, 0x73, 0xBE, 0x6A, 0xAD, 0x95, 0xBF, 0xF4, 0x9A, 0x4B, 0x3F,
    0xD2, 0x64, 0x4A, 0xBF, 0xF7, 0xD6, 0xCC, 0xBF, 0xBE, 0xFE, 0x55, 0x3B,
    0xB4, 0x57, 0x46, 0xBF, 0xC2, 0x54, 0x88, 0x3F, 0xEE, 0x68, 0x2A, 0xBF,
    0x64, 0x8D, 0xA2, 0xBD, 0x94, 0xCE, 0x86, 0x3F, 0xF1, 0x05, 0x3D, 0x3F,
    0x05, 0x36, 0x8D, 0x3F, 0xE8, 0x76, 0xF5, 0x3E, 0x1C, 0xFC, 0xC1, 0xBE,
    0x97, 0xBC, 0x43, 0x3F, 0xF9, 0xBA, 0xF0, 0x3D, 0x1D, 0xCA, 0x1C, 0x3F,
    0x84, 0x0C, 0x8C, 0xBF, 0x16, 0x84, 0xAC, 0x3D, 0xFA, 0xE0, 0x20, 0x3F,
    0x26, 0x92, 0x87, 0x3F, 0x75, 0x20, 0x71, 0xBE, 0x27, 0xD4, 0x7D, 0xBF,
    0xDF, 0x57, 0xA3, 0x3E, 0x06, 0x88, 0x0D, 0xBF, 0x20, 0x2A, 0x05, 0x3F,
    0xB9, 0xBA, 0x20, 0x3F, 0x4B, 0x67, 0x08, 0x3F, 0xA6, 0x31, 0x83, 0xBE,
    0x8B, 0x19, 0xA4, 0xBF, 0xDC, 0x93, 0x8B, 0x3E, 0x9F, 0x28, 0xA0, 0xBE,
    0x53, 0x02, 0x72, 0x3E, 0xE3, 0x0E, 0xD9, 0x3F, 0xF2, 0x8F, 0x7B, 0xBF,
    0x82, 0xB4, 0xFD, 0xBD, 0xB1, 0xC7, 0xF5, 0x3D, 0x98, 0x21, 0x3A, 0xBE,
    0x64, 0x5B, 0xD2, 0x3E, 0xD0, 0x27, 0xA4, 0xBC, 0x1D, 0xA0, 0x73, 0x3F,
    0x0F, 0x07, 0x0A, 0xBE, 0x94, 0x6F, 0xB6, 0x3F, 0xE3, 0x11, 0xB7, 0xBF,
    0x55, 0x05, 0x1B, 0x3E, 0x84, 0x54, 0x88, 0xBF, 0xD0, 0x44, 0x6B, 0x3F,
    0x96, 0xB8, 0x4A, 0xBF, 0x56, 0xA1, 0xFE, 0x3E, 0x29, 0x03, 0xC9, 0x3E,
    0xD4, 0x58, 0x84, 0xBF, 0xA7, 0x82, 0xA8, 0x3E, 0x92, 0x79, 0x8A, 0xBF,
    0xFE, 0xDF, 0x90, 0x3D, 0x66, 0xE7, 0xEA, 0x3E, 0xD0, 0x4C, 0x6B, 0x3F,
    0xF9, 0x99, 0xA8, 0xBE, 0x97, 0x0F, 0x05, 0xBF, 0x0C, 0x5E, 0x2B, 0x3E,
    0x98, 0x00, 0x8A, 0xBF, 0xBD, 0xE3, 0x3E, 0x3F, 0x9D, 0xBC, 0x84, 0xBE,
    0xAA, 0xC3, 0x46, 0xBF, 0x5B, 0xB0, 0xA8, 0xBE, 0x8E, 0x97, 0xEE, 0x3E,
    0x86, 0x47, 0x05, 0x3C, 0x27, 0xA1, 0x1E, 0xBE, 0x13, 0x0B, 0x18, 0x3E,
    0x23, 0x0E, 0x80, 0x3F, 0xD0, 0x62, 0xA6, 0xBD, 0x46, 0x18, 0x69, 0x3D,
    0x7B, 0x93, 0x82, 0x3F, 0x61, 0x0B, 0xE0, 0xBF, 0xD1, 0x13, 0xEC, 0xBE,
    0x63, 0xCD, 0x63, 0xBF, 0xCB, 0x3E, 0xE9, 0xBB, 0xEE, 0x32, 0x08, 0x3F,
    0x03, 0xB3, 0x1E, 0x3E, 0x79, 0xAF, 0x33, 0x3F, 0x39, 0x23, 0x79, 0x3F,
    0x4C, 0x51, 0xE3, 0xBF, 0x7A, 0xA7, 0xE9, 0xBE, 0xD6, 0x5B, 0x81, 0xBE,
    0xA0, 0xF7, 0xDA, 0x3D, 0xF9, 0x4F, 0xD9, 0xBE, 0xFC, 0x79, 0xAA, 0xBD,
    0xA2, 0x35, 0xC1, 0xBF, 0x37, 0x8A, 0xAE, 0xBE, 0xEC, 0x93, 0x2C, 0x3F,
    0xEE, 0xA4, 0xA1, 0xBF, 0xFE, 0xFF, 0x1C, 0xBE, 0xF2, 0xF6, 0x8B, 0x3F,
    0xEB, 0xED, 0x88, 0x3D, 0x1D, 0x1D, 0xA5, 0xBF, 0x8C, 0x33, 0x97, 0x3F,
    0xF0, 0x8E, 0x05, 0xBF, 0x4A, 0x3B, 0x97, 0xBE, 0xBC, 0x99, 0x07, 0xBF,
    0xA5, 0xF3, 0x15, 0xBF, 0xFE, 0x34, 0x43, 0xBF, 0x94, 0xFE, 0x2C, 0x3F,
    0xBD, 0x81, 0x9C, 0xBE, 0x0F, 0xB7, 0x92, 0xBF, 0x23, 0x9D, 0x02, 0xBF,
    0x56, 0x71, 0x84, 0xBD, 0x04, 0x1C, 0xF1, 0xBE, 0x8C, 0x6F, 0xE0, 0xBE,
    0x8C, 0x81, 0x0E, 0x3F, 0x7A, 0x5A, 0x89, 0xBF, 0xD5, 0xE9, 0xC3, 0x3E,
    0xDD, 0x74, 0x28, 0xBF, 0x62, 0xB2, 0xEC, 0x3D, 0x6D, 0xAF, 0x88, 0xBF,
    0x05, 0x57, 0xC8, 0xBF, 0xA8, 0x04, 0xF2, 0x3E, 0xC0, 0xE4, 0x48, 0x3F,
    0xAA, 0x5B, 0xCA, 0x3E, 0xF4, 0x77, 0x4C, 0xBE, 0xAE, 0xD6, 0xF2, 0xBD,
    0xCE, 0x6F, 0x26, 0x3E, 0xFB, 0x73, 0x75, 0xBD, 0x71, 0xDA, 0x33, 0xBF,
    0xCD, 0x7A, 0x3B, 0xBF, 0xE2, 0x9C, 0x6F, 0xBF, 0x74, 0x3D, 0x0C, 0xBF,
    0x2E, 0x7F, 0x40, 0x3F, 0xCC, 0x91, 0x3F, 0xBF, 0xEF, 0x97, 0x04, 0xBF,
    0xAF, 0x49, 0x15, 0x3F, 0x56, 0x78, 0x5C, 0x3F, 0xCC, 0x19, 0xFE, 0xBE,
    0xE3, 0xA4, 0x3B, 0x3F, 0x5B, 0x8E, 0xD8, 0xBE, 0x13, 0x74, 0x55, 0xBF,
    0xF9, 0xEE, 0x1B, 0x40, 0x84, 0xA6, 0x1A, 0x3E, 0xCB, 0x92, 0xF1, 0x3E,
    0x98, 0xC4, 0x23, 0xBF, 0x63, 0x9F, 0xAC, 0x3C, 0x40, 0x2A, 0x0B, 0xBF,
    0x48, 0xC4, 0x70, 0xBF, 0xD0, 0x12, 0xE3, 0x3F, 0x48, 0x84, 0xFA, 0x3E,
    0x49, 0x7C, 0xBD, 0x3E, 0xC6, 0x88, 0x5E, 0xBF, 0x83, 0xB0, 0x7F, 0xBF,
    0x3E, 0x81, 0x30, 0x3F, 0x5E, 0xC6, 0x88, 0x3D, 0xD1, 0x64, 0x43, 0x3E,
    0xCB, 0xBA, 0x88, 0x3E, 0x86, 0xE7, 0x12, 0xBD, 0x92, 0x91, 0x2E, 0x3F,
    0xAE, 0x4E, 0x4F, 0xBF, 0xD4, 0x46, 0x82, 0x3F, 0xAC, 0xD7, 0x98, 0x3F,
    0x9A, 0x14, 0x87, 0xBE, 0xDE, 0xE3, 0x13, 0x3E, 0x7B, 0x89, 0x8D, 0x3E,
    0x43, 0xBF, 0x58, 0xBF, 0x3C, 0x18, 0x79, 0x3F, 0x28, 0xEB, 0x0D, 0xBD,
    0xF1, 0x14, 0x08, 0x3F, 0x8A, 0x75, 0xED, 0x3E, 0xB3, 0xEA, 0x3D, 0x3F,
    0x3C, 0xDA, 0x27, 0xBF, 0x31, 0xD1, 0x11, 0xC0, 0xBA, 0xEF, 0xF7, 0xBE,
    0x13, 0x6D, 0x8B, 0x3F, 0xAB, 0x8D, 0x6F, 0xBF, 0x8B, 0xD5, 0xCC, 0x3E,
    0x39, 0x30, 0x85, 0x3F, 0xBF, 0xEF, 0xD6, 0x3F, 0x2C, 0xFF, 0x1B, 0xBF,
    0x6E, 0x2A, 0xE5, 0xBD, 0x3A, 0x7D, 0x92, 0xBF, 0xA9, 0x17, 0xCA, 0xBD,
    0x5C, 0x10, 0xEF, 0xBD, 0x9A, 0xEF, 0x29, 0xBF, 0xBF, 0xB5, 0x3E, 0x3F,
    0xBF, 0x27, 0xC4, 0x3E, 0x72, 0xAB, 0x1F, 0x3F, 0x7B, 0x74, 0x88, 0xBE,
    0xC1, 0xEC, 0xF0, 0x3E, 0xC6, 0xAF, 0xC7, 0xBE, 0xA3, 0x41, 0x4C, 0xBF,
    0x7B, 0xFB, 0xE2, 0x3E, 0x24, 0x1A, 0xC3, 0xBE, 0x33, 0x8B, 0x73, 0xBF,
    0x3E, 0xD9, 0x8B, 0x3E, 0x4F, 0x9D, 0x46, 0xBF, 0x5F, 0x28, 0xE0, 0x3E,
    0x5F, 0x24, 0x9F, 0x3D, 0xF4, 0x36, 0xB6, 0x3E, 0xFB, 0xE7, 0xF9, 0x3E,
    0xD1, 0x3C, 0x94, 0xBF, 0xCB, 0xF6, 0x22, 0x3F, 0x6F, 0x0C, 0x77, 0x3F,
    0x56, 0xEF, 0x96, 0xBE, 0xE8, 0xC3, 0x0F, 0xBC, 0xCE, 0xB6, 0x06, 0xBF,
    0xE0, 0x34, 0x01, 0x3F, 0x29, 0x29, 0x28, 0xBF, 0x0E, 0x13, 0x32, 0xBF,
    0x5C, 0x55, 0xD8, 0xBE, 0xD2, 0xEE, 0xD7, 0xBE, 0x31, 0x4B, 0x73, 0xBF,
    0x0D, 0xE3, 0xB6, 0xBF, 0x17, 0x25, 0x3B, 0x3E, 0x47, 0x8F, 0x34, 0xBD,
    0x3A, 0x25, 0x80, 0x3F, 0xD9, 0x4E, 0x6E, 0xBE, 0xB8, 0x97, 0x59, 0x3E,
    0xF5, 0x24, 0xB0, 0x3F, 0x98, 0x4B, 0x11, 0x3C, 0xA6, 0xAC, 0x8B, 0x3F,
    0x60, 0x53, 0x89, 0xBE, 0x91, 0x9A, 0x06, 0xBE, 0xE8, 0xB5, 0x02, 0xBF,
    0xFB, 0xF5, 0x72, 0x3E, 0x61, 0x76, 0xCB, 0x3F, 0xCF, 0x41, 0x08, 0xBF,
    0x0D, 0x41, 0x12, 0x40, 0x18, 0x41, 0x32, 0x3F, 0x8B, 0x32, 0xE1, 0xBE,
    0x7C, 0xCB, 0xEF, 0xBE, 0x1A, 0xC2, 0x60, 0xBF, 0x0B, 0xAC, 0x30, 0x3C,
    0x2E, 0x03, 0xAD, 0xBF, 0xB5, 0x51, 0x05, 0xBF, 0xD5, 0xE5, 0x55, 0x3F,
    0xC4, 0x7F, 0xE5, 0xBE, 0xD8, 0x64, 0x86, 0xBF, 0xB8, 0xA5, 0x1A, 0x3F,
    0xDA, 0x4A, 0x93, 0x3E, 0xD6, 0x80, 0x5F, 0x3E, 0x86, 0x3F, 0x8A, 0x3D,
    0xB5, 0x29, 0xFD, 0xBE, 0x59, 0xEA, 0x12, 0x3E, 0x6E, 0xA1, 0x3C, 0xBF,
    0x7A, 0xFF, 0x94, 0xBF, 0xB9, 0x70, 0xFC, 0xBE, 0xB3, 0x94, 0x6E, 0x3F,
    0xAA, 0x91, 0x12, 0xBF, 0x0E, 0x55, 0x11, 0x3F, 0x9E, 0x5A, 0x86, 0xBF,
    0x10, 0xA2, 0x08, 0x3F, 0x18, 0x5E, 0x8C, 0x3F, 0xA0, 0xC7, 0x7A, 0x3E,
    0xB5, 0x99, 0x0B, 0xBF, 0x64, 0x27, 0x61, 0x3F, 0xB7, 0xE9, 0x96, 0x3E,
    0xA1, 0x84, 0x31, 0x3F, 0xB9, 0x40, 0xB6, 0x3F, 0xF1, 0xE8, 0xC0, 0xBF,
    0x94, 0x6F, 0xD1, 0x3B, 0xEA, 0xAE, 0xFD, 0xBD, 0xB3, 0x37, 0xB4, 0xBE,
    0xF7, 0x66, 0xA4, 0x3F, 0xA8, 0xC8, 0x94, 0xBE, 0x30, 0xDF, 0x2A, 0xBF,
    0xF2, 0xFD, 0x79, 0xBE, 0xE7, 0x1C, 0x50, 0xBF, 0xB8, 0x25, 0xE1, 0xBF,
    0x09, 0xE4, 0x83, 0xBF, 0x1E, 0x5C, 0x84, 0x3F, 0x02, 0x98, 0x3C, 0x3F,
    0x3C, 0xD2, 0x96, 0x3E, 0x84, 0xAD, 0x79, 0x3D, 0xA1, 0x15, 0x9A, 0x3D,
    0x53, 0x49, 0x8A, 0xBF, 0x25, 0xC5, 0xC7, 0xBE, 0x7C, 0x6C, 0x9E, 0x3F,
    0x61, 0x87, 0x2F, 0x40, 0x01, 0xB1, 0xAF, 0x3F, 0xF6, 0xC9, 0xA7, 0xBE,
    0x43, 0xCB, 0x30, 0xBF, 0x34, 0xA1, 0xC0, 0x3E, 0xD6, 0xE3, 0x0D, 0xBF,
    0x7D, 0x0F, 0x44, 0x3E, 0x58, 0x4B, 0x66, 0x3F, 0xB6, 0x44, 0x2C, 0xBF,
    0x49, 0x13, 0x67, 0xBE, 0xFA, 0x22, 0x25, 0xBD, 0x07, 0x89, 0xDD, 0x3E,
    0x51, 0xA1, 0x4B, 0x3F, 0x50, 0xE2, 0x21, 0xBF, 0x3A, 0x09, 0x62, 0x3F,
    0x3A, 0x50, 0xFC, 0xBA, 0xBF, 0x80, 0x16, 0xBE, 0x9B, 0x01, 0x9F, 0x3D,
    0x6A, 0xEB, 0x64, 0x3F, 0x22, 0x98, 0x2F, 0xBF, 0x8E, 0x25, 0x6F, 0x3D,
    0x0E, 0x50, 0x02, 0xBF, 0xD3, 0xD7, 0x2D, 0x3F, 0xCD, 0x51, 0x1A, 0xBF,
    0x0B, 0x13, 0xFB, 0x3F, 0x04, 0x6C, 0xD1, 0xBE, 0xF2, 0xBC, 0x4A, 0x3F,
    0xC3, 0xD8, 0x2C, 0xBF, 0x32, 0xC4, 0x38, 0x3E, 0xB3, 0x41, 0xD0, 0x3E,
    0xCD, 0xE0, 0x9E, 0x3E, 0x94, 0x75, 0xF5, 0xBE, 0x7F, 0xC1, 0xD2, 0xBE,
    0xDA, 0x8E, 0x14, 0x3F, 0x77, 0x79, 0x1C, 0x3F, 0x64, 0x76, 0x36, 0xBF,
    0xC3, 0x6E, 0x6D, 0xBE, 0xCA, 0x93, 0x9E, 0xBF, 0xC7, 0x20, 0xFD, 0xBE,
    0x29, 0x19, 0x68, 0x3F, 0xE8, 0xAF, 0x97, 0x3F, 0xDE, 0xDD, 0x29, 0x3F,
    0x05, 0x72, 0xB1, 0xBE, 0xF2, 0x3A, 0x37, 0x3F, 0x23, 0xA1, 0x22, 0xBF,
    0x61, 0x18, 0xFB, 0xBE, 0x4F, 0x22, 0x3A, 0x3C, 0xC1, 0x21, 0xAF, 0xBD,
    0x1B, 0x51, 0x09, 0x3E, 0x1D, 0xDB, 0x05, 0xBF, 0x97, 0x46, 0xB4, 0xBE,
    0x6C, 0x3C, 0xBB, 0xBC, 0xA9, 0x63, 0x00, 0xC0, 0xF2, 0x81, 0xFB, 0x3E,
    0x1D, 0xE4, 0x85, 0xBD, 0xD3, 0x5E, 0x7F, 0xBF, 0x8D, 0x85, 0x0C, 0x3F,
    0x9D, 0x9E, 0x89, 0x3E, 0x4C, 0x1B, 0xD7, 0x3E, 0xB1, 0x49, 0xB3, 0xBF,
    0xF5, 0x88, 0xAD, 0x3E, 0xB7, 0xBD, 0xE8, 0xBE, 0x55, 0xD4, 0x15, 0x3E,
    0x46, 0xB3, 0x98, 0xBE, 0xC1, 0x86, 0x65, 0x3E, 0x71, 0xAC, 0x5D, 0xBE,
    0xE1, 0xC3, 0xDC, 0xBE, 0x07, 0x81, 0x3C, 0xBF, 0xFA, 0x17, 0xAF, 0x3F,
    0x64, 0xE5, 0x46, 0x3E, 0xB0, 0x49, 0x75, 0xBF, 0xD2, 0x73, 0x86, 0xBE,
    0xEE, 0xE8, 0xFB, 0xBE, 0x01, 0xEA, 0xF4, 0xBF, 0xB5, 0x91, 0xB9, 0xBE,
    0x78, 0x92, 0x0E, 0xBF, 0x5E, 0xDD, 0x31, 0xBF, 0x85, 0x85, 0x00, 0x3F,
    0xF2, 0x0F, 0x11, 0xBF, 0x53, 0x29, 0x11, 0x3F, 0x48, 0x6A, 0xC1, 0xBE,
    0xBB, 0xAB, 0x23, 0xBF, 0x70, 0x73, 0x29, 0xBF, 0xEE, 0x0C, 0x83, 0x3F,
    0x8B, 0xFD, 0xC7, 0xBA, 0xF9, 0x8D, 0xD7, 0x3F, 0x44, 0x86, 0xFA, 0xBE,
    0x2B, 0x79, 0xA4, 0xBD, 0x62, 0x10, 0xAB, 0x3F, 0xE9, 0x28, 0x03, 0xBF,
    0xD1, 0x85, 0x5C, 0x3F, 0xE5, 0xA7, 0x90, 0x3F, 0xD0, 0xD9, 0x04, 0xBD,
    0x75, 0x80, 0x84, 0x3F, 0xAF, 0xFC, 0xC9, 0x3E, 0xD0, 0x00, 0xC6, 0x3C,
    0x72, 0x6A, 0xAD, 0xBF, 0xFB, 0x9D, 0x8B, 0x3E, 0xD5, 0x18, 0x83, 0x3F,
    0x8D, 0xF7, 0x49, 0xBF, 0x75, 0x66, 0x87, 0x3F, 0x06, 0x4C, 0x43, 0xBF,
    0x94, 0x9E, 0x83, 0xBF, 0x28, 0x1A, 0x70, 0x3E, 0x0D, 0x06, 0x52, 0x3E,
    0xCC, 0xC3, 0xD1, 0x3E, 0xEA, 0xDE, 0x3F, 0xBF, 0xFB, 0x6A, 0x1C, 0xBF,
    0x48, 0x9B, 0x88, 0xBE, 0x34, 0x74, 0x03, 0xBF, 0xAB, 0x2F, 0xC5, 0x3F,
    0xA8, 0xB2, 0xB9, 0x3F, 0x54, 0x87, 0x14, 0xC0, 0x36, 0xBD, 0x14, 0xBE,
    0x74, 0x57, 0x29, 0x3D, 0x70, 0x0A, 0x01, 0x3F, 0xB2, 0xDB, 0xCD, 0xBE,
    0x48, 0x6A, 0x1B, 0x3F, 0x54, 0xF7, 0x4A, 0xBF, 0xCA, 0x02, 0xAB, 0xBF,
    0x2F, 0xA4, 0x8C, 0x3E, 0xAC, 0x3E, 0xC9, 0x3D, 0x55, 0x03, 0x8A, 0x3F,
    0x68, 0x0F, 0xF1, 0xBC, 0x2F, 0x15, 0x86, 0xBE, 0xEA, 0x00, 0xD6, 0x3E,
    0xA3, 0x61, 0xB0, 0xBF, 0x47, 0xC1, 0x40, 0xBF, 0x75, 0xE9, 0xF7, 0x3E,
    0x91, 0xD2, 0xBC, 0xBF, 0xCE, 0x1F, 0x97, 0x3F, 0x68, 0xAA, 0x41, 0xBE,
    0x0C, 0x08, 0x77, 0x3D, 0xAC, 0x91, 0x3D, 0xBF, 0x2D, 0x36, 0x49, 0x3F,
    0x08, 0x69, 0x12, 0xBF, 0x7A, 0x88, 0x92, 0xBF, 0x8A, 0xCF, 0x57, 0xBF,
    0x8D, 0x4C, 0x10, 0xBE, 0xDF, 0xD4, 0x39, 0xBE, 0xF0, 0xAE, 0xCA, 0xBE,
    0xD3, 0x8C, 0x91, 0xBF, 0x80, 0xEF, 0xB3, 0xBF, 0x48, 0xE9, 0x80, 0xBC,
    0xE5, 0xA8, 0xA0, 0x3F, 0x1A, 0x3F, 0x63, 0xBF, 0xB2, 0xCF, 0x8D, 0xBE,
    0x73, 0xD6, 0x79, 0x3F, 0x64, 0xBB, 0xC7, 0x3F, 0xB4, 0xEE, 0x51, 0xBF,
    0x73, 0x68, 0xEB, 0xBE, 0x3D, 0xBE, 0xC2, 0xBE, 0x4B, 0x4C, 0x89, 0x3F,
    0x2C, 0x19, 0xBB, 0xBE, 0x23, 0x00, 0x0F, 0x3F, 0x80, 0x98, 0x9B, 0xBF,
    0xD6, 0xEF, 0x2E, 0x3F, 0x5E, 0x6A, 0x22, 0x3E, 0xA9, 0x38, 0x51, 0xBF,
    0xC9, 0x68, 0xF6, 0xBD, 0x58, 0x51, 0x8D, 0x3E, 0x00, 0xA6, 0x4D, 0x3F,
    0x20, 0x03, 0xCC, 0xBF, 0x0B, 0x1C, 0xE6, 0xBE, 0x57, 0x2E, 0x10, 0x3D,
    0xE6, 0x0E, 0x08, 0x40, 0x48, 0x9C, 0xBE, 0xBE, 0x6D, 0xE7, 0xB9, 0xBE,
    0xC7, 0x44, 0x01, 0x3F, 0xC9, 0x2C, 0x51, 0xBF, 0xC2, 0xBD, 0x55, 0xBD,
    0xF3, 0x33, 0x3A, 0xBF, 0xB1, 0x65, 0x59, 0xBF, 0xAB, 0x71, 0x15, 0xBE,
    0x6C, 0x06, 0xD7, 0xBE, 0x65, 0x35, 0x10, 0xBF, 0x33, 0x49, 0xEE, 0xBD,
    0xF3, 0xF4, 0x53, 0x3F, 0xB8, 0x3C, 0x1C, 0xBF, 0xAB, 0x62, 0x8D, 0x3E,
    0x03, 0x9E, 0x2B, 0xBF, 0xCA, 0xB9, 0xFA, 0x3D, 0x00, 0xBC, 0xDF, 0x3E,
    0x25, 0x85, 0x96, 0xBF, 0x61, 0x87, 0x42, 0xBE, 0xB9, 0x8B, 0x29, 0x3F,
    0xAA, 0x4E, 0x4A, 0x3F, 0x25, 0x63, 0x64, 0xBF, 0x25, 0x12, 0x43, 0xBF,
    0x40, 0x0F, 0xA4, 0xBF, 0xB4, 0x22, 0xAD, 0xBE, 0xBE, 0x9E, 0x8A, 0xBF,
    0x90, 0x7D, 0x13, 0x3F, 0xF6, 0xF1, 0x47, 0xBE, 0xAB, 0x54, 0xF6, 0x3E,
    0x5C, 0xEF, 0x57, 0x3E, 0x08, 0x06, 0x22, 0xBE, 0x2B, 0x0B, 0x00, 0xBF,
    0x07, 0x1E, 0x0C, 0xBE, 0xB7, 0xDC, 0x41, 0xBE, 0x32, 0x8A, 0xE8, 0x3E,
    0x53, 0x93, 0xE8, 0xBE, 0xAA, 0x68, 0xAC, 0xBF, 0xE4, 0x0A, 0x06, 0xBF,
    0xC8, 0xED, 0x62, 0xBE, 0x1A, 0xBE, 0x2B, 0x3F, 0x4B, 0xF6, 0x07, 0xBE,
    0x29, 0xBA, 0x8A, 0xBE, 0x1E, 0x14, 0xA4, 0x3E, 0xF6, 0xE7, 0xC8, 0x3E,
    0x75, 0x70, 0x5A, 0xBF, 0x19, 0xA3, 0x06, 0xBF, 0xD4, 0x1C, 0x32, 0xBD,
    0xB4, 0x2D, 0x64, 0x3F, 0x4E, 0x07, 0xAA, 0x3C, 0x9C, 0x63, 0x54, 0xBF,
    0xEB, 0xF7, 0xB9, 0xBE, 0xBD, 0x49, 0x11, 0xBF, 0xA6, 0xEE, 0x91, 0xBE,
    0x22, 0xD2, 0xAF, 0x3F, 0x9E, 0xF0, 0x07, 0xBF, 0x94, 0x95, 0xE4, 0xBE,
    0x24, 0x00, 0x4E, 0x3E, 0x59, 0xBF, 0x72, 0x3D, 0x57, 0xE3, 0x6B, 0x3F,
    0xD5, 0x65, 0x7D, 0xBF, 0xF3, 0xED, 0xCF, 0xBE, 0x91, 0x42, 0x6E, 0x3F,
    0xFE, 0x2C, 0xBA, 0x3E, 0x9B, 0xF4, 0xDB, 0x3E, 0xC9, 0x98, 0xB3, 0x3F,
    0x52, 0x6D, 0x96, 0xBE, 0x2D, 0x8D, 0x18, 0xBF, 0x29, 0x5D, 0x1D, 0xBF,
    0xBF, 0x6B, 0x8C, 0x3F, 0xA0, 0xA2, 0xD8, 0xBE, 0x9D, 0xD9, 0xC0, 0xBF,
    0x65, 0x40, 0x15, 0x3F, 0xDA, 0x0C, 0x2B, 0xBD, 0x47, 0x00, 0x28, 0x3F,
    0x55, 0xD0, 0x81, 0x3E, 0x61, 0x52, 0x3C, 0x3E, 0x02, 0x9D, 0xE5, 0x3E,
    0xBC, 0xDE, 0xDE, 0xBD, 0x06, 0x37, 0x09, 0x3E, 0x4E, 0x0D, 0xB9, 0x3F,
    0x03, 0x90, 0x9A, 0xBE, 0x9F, 0xDB, 0x14, 0xBE, 0x1B, 0x5C, 0x68, 0xBE,
    0x83, 0xD4, 0xD3, 0x3E, 0x3E, 0x87, 0xB7, 0x3E, 0x3B, 0xE4, 0x0A, 0xC0,
    0xDC, 0x85, 0xC4, 0xBD, 0xDA, 0xC7, 0xC7, 0x3F, 0x8F, 0xB1, 0xC5, 0xBE,
    0x79, 0x4A, 0x5D, 0xBF, 0x69, 0xE5, 0x2D, 0xBE, 0x8D, 0xAC, 0x0A, 0x3E,
    0xC3, 0x14, 0xD0, 0xBD, 0x4F, 0x23, 0x82, 0x3F, 0xEE, 0x43, 0x66, 0xBF,
    0x4B, 0xBF, 0xC9, 0x3E, 0x93, 0x7B, 0x91, 0x3E, 0xE4, 0x85, 0x98, 0x3F,
    0x70, 0xA9, 0x9D, 0xBF, 0xC0, 0x9F, 0x3B, 0xBF, 0x12, 0x89, 0x53, 0x3F,
    0x80, 0xA3, 0x9E, 0xBF, 0xE6, 0xFC, 0x3C, 0xBF, 0x2B, 0x4C, 0x8F, 0xBE,
    0x56, 0xD6, 0xE6, 0xBE, 0x0D, 0x77, 0x8E, 0xBF, 0x2F, 0x31, 0x0F, 0x3F,
    0xA7, 0x67, 0xE1, 0xBD, 0x1C, 0x83, 0xA1, 0x3E, 0x29, 0x18, 0xEE, 0x3E,
    0xB5, 0xA2, 0x08, 0x3F, 0xB6, 0x68, 0x4D, 0xBF, 0x95, 0x18, 0x0C, 0xBF,
    0x53, 0xBE, 0xC2, 0xBE, 0x2D, 0xEF, 0x18, 0x40, 0x45, 0xBC, 0xF5, 0x3D,
    0x2A, 0xD7, 0xD0, 0xBE, 0xFF, 0xDA, 0xAF, 0xBF, 0x2F, 0xF2, 0x9B, 0x3E,
    0x53, 0xBE, 0x87, 0x3F, 0xE1, 0x02, 0x05, 0x3F, 0x66, 0xAB, 0x2C, 0xBE,
    0x38, 0xDF, 0x10, 0xBD, 0x08, 0x60, 0x97, 0x3D, 0xE8, 0x01, 0x84, 0xBF,
    0xD4, 0x00, 0x5C, 0x3F, 0x0F, 0x72, 0x18, 0x3F, 0x24, 0xD7, 0x4E, 0xBF,
    0xE2, 0xB0, 0xD5, 0x3F, 0x8F, 0xBB, 0x98, 0xBD, 0x2D, 0x47, 0x90, 0xBE,
    0xF4, 0x71, 0x48, 0xBE, 0x56, 0x14, 0x65, 0xBF, 0x22, 0xA9, 0x9A, 0xBF,
    0xF0, 0x24, 0xA7, 0x3E, 0xDD, 0x8A, 0x58, 0xBF, 0xF1, 0x97, 0x8C, 0x3F,
    0xD4, 0x0A, 0xD8, 0xBE, 0x76, 0x9D, 0x4E, 0x3F, 0xD7, 0xD8, 0xF1, 0x3E,
    0x27, 0x58, 0xEB, 0x3E, 0x11, 0x43, 0xC1, 0x3D, 0xDE, 0xCF, 0xD2, 0x3E,
    0x68, 0xDF, 0xCC, 0xBE, 0x9C, 0x39, 0xA5, 0xBF, 0xD7, 0x57, 0x66, 0xBD,
    0xD9, 0xD6, 0xB5, 0x3F, 0xDE, 0x88, 0xB3, 0xBF, 0x40, 0x13, 0x85, 0xBD,
    0x35, 0x68, 0xDB, 0xBF, 0xB4, 0xF7, 0x06, 0xBF, 0x98, 0x91, 0x3A, 0xBF,
    0xD7, 0x55, 0x85, 0x3F, 0x49, 0xD9, 0x07, 0xBF, 0x53, 0xB3, 0xD0, 0xBD,
    0xDC, 0xC0, 0x09, 0xBF, 0x5C, 0xF5, 0x19, 0xBE, 0x01, 0x9F, 0x6D, 0xBE,
    0xD6, 0xA1, 0x0C, 0x3F, 0xB9, 0x48, 0x52, 0x3E, 0xB0, 0x13, 0x32, 0x3E,
    0xB5, 0x00, 0xCD, 0x3E, 0xF5, 0x77, 0xB7, 0x3F, 0xC6, 0x9A, 0x4F, 0xBD,
    0x5C, 0xE7, 0x70, 0xBF, 0x22, 0x2E, 0x82, 0xBF, 0xB3, 0xB6, 0x69, 0xBE,
    0x6D, 0xBB, 0x90, 0x3D, 0x4D, 0xCF, 0x96, 0x3F, 0xB1, 0xD4, 0x5A, 0x3F,
    0x82, 0xE8, 0xAE, 0x3F, 0xF0, 0x1C, 0x31, 0xBF, 0xC4, 0x36, 0xAF, 0x3F,
    0x21, 0xFA, 0x55, 0x3E, 0xED, 0x23, 0x1D, 0x3E, 0xBC, 0x83, 0x4F, 0x3D,
    0x9C, 0x44, 0xCA, 0x3F, 0x3F, 0xC3, 0x34, 0x3D, 0x50, 0x81, 0xB8, 0x3E,
    0x3A, 0x17, 0xA4, 0xBF, 0x39, 0x1A, 0x9C, 0xBF, 0x29, 0x43, 0x27, 0xBE,
    0x40, 0x51, 0x86, 0xBE, 0x2B, 0x75, 0xF3, 0x3E, 0x38, 0x17, 0x44, 0x3E,
    0x1A, 0x4B, 0x90, 0xBE, 0x1E, 0x74, 0x9E, 0xBE, 0xD3, 0xF1, 0x09, 0x3F,
    0x36, 0xC6, 0x0B, 0x40, 0x0D, 0x07, 0x9D, 0x3F, 0x8A, 0xC5, 0x8B, 0x3F,
    0x75, 0x8B, 0xCD, 0x3E, 0xA7, 0xEF, 0x7C, 0x3E, 0xB7, 0xBA, 0xE5, 0x3D,
    0xF5, 0xBB, 0x58, 0xBF, 0xD4, 0x76, 0x15, 0x3F, 0x07, 0xAE, 0x59, 0xBF,
    0xF0, 0x95, 0xA2, 0x3E, 0x19, 0x91, 0x5A, 0xBE, 0x81, 0xA1, 0x88, 0x3E,
    0x2B, 0xBE, 0x54, 0xBF, 0x88, 0xD8, 0x00, 0x3F, 0xD2, 0x1E, 0x0B, 0x3E,
    0xF8, 0xF5, 0x5C, 0x3F, 0x16, 0x47, 0x00, 0x3F, 0xC9, 0x71, 0x2B, 0xBE,
    0xF1, 0x5D, 0x20, 0x3F, 0xB2, 0xB1, 0x71, 0x3F, 0xD1, 0x68, 0x85, 0x3F,
    0x62, 0xB7, 0x8B, 0xBE, 0x3A, 0x4A, 0x8C, 0xBF, 0xF7, 0x18, 0xAF, 0xBE,
    0xD0, 0xEE, 0x7D, 0x3D, 0xF2, 0x8C, 0x3F, 0xBF, 0x17, 0x25, 0x08, 0x3F,
    0x23, 0xF0, 0x4C, 0xBD, 0xA7, 0x03, 0xB9, 0xBF, 0x0C, 0xD8, 0x38, 0x3F,
    0x58, 0x9E, 0x37, 0xBF, 0x42, 0xB7, 0x48, 0x3F, 0xED, 0xAF, 0x03, 0x40,
    0x06, 0x31, 0xF9, 0xBF, 0x88, 0x4B, 0xB8, 0xBE, 0xBF, 0x66, 0x81, 0x3F,
    0x7A, 0x0B, 0x2B, 0xBF, 0xEB, 0x7E, 0xF4, 0xBD, 0xC9, 0x30, 0xAE, 0x3F,
    0xC0, 0x2A, 0x1E, 0xBE, 0x54, 0xF7, 0x92, 0x3F, 0xF4, 0xFC, 0xE6, 0xBD,
    0x1E, 0xAB, 0x75, 0xBD, 0xC1, 0xAF, 0x57, 0x3E, 0x8A, 0xF8, 0xAD, 0xBF,
    0x04, 0xAF, 0x13, 0x3F, 0x0F, 0xEF, 0x92, 0xBE, 0x23, 0xA2, 0xE0, 0xBD,
    0x58, 0x4A, 0x14, 0x3D, 0xA8, 0x8D, 0x2E, 0x3E, 0x67, 0x35, 0xD6, 0x3E,
    0xFC, 0xD2, 0x97, 0xBF, 0x4C, 0xA7, 0x03, 0xBF, 0xC6, 0x8C, 0xEA, 0xBE,
    0x9A, 0xBD, 0x8A, 0xBE, 0x2F, 0xF7, 0x06, 0x3F, 0x8F, 0x8D, 0x33, 0xBF,
    0x9F, 0xB7, 0x86, 0xBF, 0xC3, 0x27, 0x50, 0x3F, 0xD0, 0xA0, 0xB5, 0xBE,
    0xC7, 0x53, 0x18, 0x3F, 0xB8, 0xC5, 0xAA, 0x3E, 0x81, 0x76, 0x25, 0xBF,
    0x57, 0xD0, 0x29, 0x3F, 0xEC, 0x33, 0xA6, 0xBE, 0x8D, 0x26, 0x5D, 0xBF,
    0x06, 0x05, 0x61, 0x3E, 0x08, 0xC6, 0x05, 0x40, 0x5C, 0x2C, 0x08, 0x3F,
    0xD4, 0x31, 0x2B, 0x3F, 0xCB, 0x3A, 0xDE, 0x3F, 0xE2, 0xEC, 0x12, 0xBF,
    0x1C, 0xA4, 0xCB, 0xBE, 0xCC, 0xF5, 0xAA, 0x3E, 0x0E, 0xAD, 0xDE, 0xBD,
    0xC9, 0x1D, 0xE2, 0x3D, 0x4C, 0x37, 0x09, 0x40, 0xFF, 0x5E, 0x52, 0xB9,
    0x12, 0x6E, 0x54, 0xBD, 0xD8, 0xFC, 0x87, 0x3F, 0x41, 0xC4, 0xBC, 0x3E,
    0xDD, 0xDE, 0xE0, 0xBF, 0x93, 0xDC, 0x5F, 0x3E, 0xC3, 0xE8, 0xB2, 0xBF,
    0x67, 0xFD, 0x20, 0x3F, 0x16, 0x11, 0x87, 0x3E, 0xF9, 0x1B, 0x8F, 0xBE,
    0x45, 0xF5, 0xB9, 0x3E, 0xD9, 0xF4, 0x01, 0x3F, 0x01, 0x88, 0x78, 0xBF,
    0x4C, 0x31, 0xEC, 0xBD, 0x20, 0xC7, 0x6B, 0x3F, 0x6C, 0x52, 0x31, 0xBF,
    0xBB, 0x71, 0x02, 0x3F, 0x57, 0x79, 0xBD, 0x3E, 0x86, 0xE6, 0x81, 0xBE,
    0x94, 0xE5, 0x4C, 0xBE, 0xD8, 0x9E, 0xFB, 0x3D, 0xDD, 0x1A, 0x87, 0xBE,
    0xB5, 0x7F, 0xA8, 0xBE, 0x5D, 0x51, 0xA4, 0xBB, 0x59, 0x34, 0x46, 0xBF,
    0xCB, 0x99, 0xA4, 0x3F, 0xEA, 0xE0, 0x98, 0x3D, 0xA3, 0x79, 0xCA, 0xBE,
    0x30, 0x1A, 0x5D, 0xBF, 0xCD, 0xDC, 0x4E, 0xBE, 0xB9, 0x6B, 0x57, 0xBF,
    0xAB, 0x02, 0x32, 0xBC, 0x76, 0xD0, 0x39, 0x3F, 0x6A, 0x4A, 0x8F, 0xBE,
    0x33, 0x08, 0x02, 0xBF, 0xFA, 0xB5, 0xEF, 0x3C, 0x97, 0xC7, 0xE8, 0xBE,
    0x42, 0x9B, 0x17, 0xBF, 0x4E, 0x25, 0x53, 0xBF, 0x87, 0xC1, 0xEF, 0xBE,
    0xD7, 0x4F, 0x92, 0x3E, 0xB7, 0xBE, 0x1A, 0x3F, 0x54, 0xA1, 0x44, 0x3F,
    0x42, 0x5D, 0xD5, 0x3D, 0xBF, 0x77, 0x17, 0x3F, 0x25, 0x9B, 0x6C, 0xBF,
    0xF8, 0xC2, 0xBE, 0x3B, 0x56, 0x50, 0x02, 0xBC, 0xC3, 0x4C, 0xF7, 0x3E,
    0x29, 0x8D, 0xBF, 0x3E, 0xAD, 0xF0, 0x13, 0x40, 0x89, 0x8D, 0x2C, 0x3F,
    0x25, 0x84, 0x9C, 0x3E, 0x2A, 0x57, 0x81, 0x3F, 0x73, 0x9D, 0x4C, 0x3E,
    0xBE, 0xAD, 0xBA, 0x3F, 0xCC, 0xD1, 0x5F, 0x3D, 0x63, 0x6C, 0x8C, 0xBF,
    0x5D, 0xEF, 0x95, 0xBF, 0xE2, 0xA4, 0x04, 0x3E, 0x52, 0x01, 0x9B, 0x3E,
    0xB3, 0xE9, 0x49, 0xBE, 0x99, 0xC9, 0x69, 0xBF, 0xC2, 0x96, 0x69, 0x3F,
    0x7F, 0x67, 0xC8, 0x3E, 0x3F, 0xA7, 0xFE, 0x3E, 0x2B, 0x5E, 0x9C, 0xBF,
    0x65, 0x43, 0x14, 0x3F, 0xB2, 0x69, 0xC5, 0xBF, 0xBA, 0x1D, 0xFD, 0x3E,
    0x5D, 0x11, 0xBE, 0x3E, 0xDB, 0xFD, 0x1D, 0xBF, 0xDD, 0x7C, 0xBF, 0xBD,
    0x88, 0x2C, 0x27, 0xBF, 0x04, 0x9F, 0x54, 0x3E, 0x13, 0xB6, 0x60, 0x3F,
    0x1D, 0xC3, 0x64, 0xBD, 0xBB, 0x2F, 0x85, 0x3E, 0x37, 0x52, 0x43, 0xBF,
    0xBD, 0x31, 0x09, 0xBF, 0xF2, 0x55, 0x0B, 0x3C, 0x9F, 0x80, 0xF2, 0x3E,
    0x2C, 0xAD, 0xFC, 0xBF, 0xF3, 0x0B, 0xB4, 0xBF, 0xB0, 0x9B, 0x79, 0x3C,
    0x1C, 0xDF, 0xBE, 0x3F, 0x21, 0xB9, 0xEA, 0x3F, 0x8A, 0x69, 0x1A, 0xBF,
    0xB0, 0xDC, 0xF6, 0xBE, 0xD0, 0xCC, 0x96, 0xBC, 0x1D, 0xAB, 0x60, 0x3F,
    0x04, 0x01, 0xCD, 0xBD, 0x59, 0xCC, 0xCC, 0xBE, 0xB2, 0xB2, 0x86, 0x3E,
    0x4E, 0x54, 0x68, 0xBF, 0x87, 0x07, 0x19, 0x3F, 0xCB, 0x20, 0x48, 0xBD,
    0x89, 0x0A, 0x8D, 0x3E, 0xB7, 0x28, 0xA6, 0xBF, 0x47, 0x1B, 0x28, 0xBF,
    0xD5, 0xAC, 0x7A, 0xBD, 0xE1, 0x11, 0x56, 0xBE, 0x6C, 0x6A, 0x81, 0xBE,
    0x8C, 0x71, 0xB4, 0xBF, 0x38, 0x0E, 0x6F, 0xBD, 0x78, 0x21, 0x70, 0xBF,
    0xC1, 0x96, 0x11, 0x40, 0x9B, 0xB5, 0x60, 0x3F, 0xFA, 0xD2, 0x0B, 0xBF,
    0xF3, 0xCB, 0x94, 0x3F, 0xBC, 0x1C, 0x6F, 0x3F, 0x9D, 0x03, 0x0A, 0xBE,
    0xBD, 0xBE, 0x2C, 0x3F, 0x2A, 0xBF, 0xCA, 0xBF, 0xF2, 0xC6, 0xB7, 0xBE,
    0xDA, 0xB7, 0x92, 0xBE, 0x8F, 0x33, 0x6B, 0xBC, 0xB0, 0x11, 0x56, 0xBE,
    0xAE, 0xCD, 0x48, 0x3F, 0x46, 0x8B, 0xA6, 0xBF, 0xCE, 0xAE, 0x25, 0xBF,
    0xA6, 0x0D, 0x6F, 0x3F, 0x81, 0x68, 0xA4, 0xBE, 0xE5, 0x47, 0xA8, 0x3E,
    0xFA, 0xC5, 0x30, 0xBF, 0xDA, 0x69, 0xA5, 0x3F, 0x1C, 0x6D, 0xEB, 0x3D,
    0xDA, 0x70, 0x5A, 0x3F, 0x27, 0x58, 0x3F, 0xBE, 0xAC, 0x17, 0x0A, 0xBF,
    0x7C, 0x03, 0x9B, 0xBC, 0x44, 0xFA, 0x9E, 0xBF, 0x0C, 0x27, 0xA1, 0x3E,
    0xF8, 0x68, 0xE7, 0xBD, 0x6C, 0xFA, 0x63, 0xBE, 0x61, 0x08, 0x91, 0x3F,
    0x74, 0xAF, 0xEA, 0x3E, 0xE8, 0x1A, 0xC2, 0xBF, 0xFB, 0xF4, 0x52, 0x3F,
    0x9C, 0x26, 0x12, 0x3E, 0x97, 0x9B, 0x58, 0xBF, 0xBD, 0x71, 0xEB, 0x3E,
    0xA8, 0x20, 0xA8, 0xBF, 0x77, 0xF7, 0x28, 0x3E, 0x58, 0x7B, 0x3E, 0x3E,
    0xB3, 0xF8, 0x32, 0xBF, 0x01, 0x5E, 0x90, 0xBC, 0x22, 0x47, 0x5B, 0x3D,
    0x11, 0x0D, 0xB6, 0xBE, 0xB4, 0x40, 0xC5, 0x3F, 0xB1, 0xB8, 0xEC, 0x3E,
    0x7A, 0xDB, 0xBD, 0x3D, 0xE7, 0x2F, 0x21, 0x3F, 0x2B, 0x51, 0xEA, 0xBE,
    0x25, 0xAA, 0xCB, 0xBE, 0x20, 0xE7, 0x48, 0xBF, 0xEF, 0x2D, 0xDB, 0x3F,
    0xA1, 0x4A, 0xE6, 0xBE, 0x6C, 0x9F, 0xF7, 0x3E, 0xF0, 0x0A, 0x84, 0xBF,
    0x71, 0xC4, 0x5A, 0x3F, 0x72, 0x78, 0xDF, 0xBE, 0xA5, 0x7E, 0x3F, 0xBF,
    0x0B, 0x6A, 0x54, 0xBE, 0x44, 0x8A, 0xF5, 0x3E, 0xEC, 0xDC, 0x4F, 0x3F,
    0xC9, 0xB3, 0xFB, 0xBE, 0xC1, 0x58, 0xB6, 0xBE, 0x94, 0x2F, 0xDB, 0x3F,
    0xF3, 0x96, 0x93, 0x3F, 0x14, 0xEB, 0xD4, 0x3D, 0x93, 0xC8, 0x0F, 0x3F,
    0xA9, 0xA4, 0x29, 0xBE, 0x7A, 0x92, 0x47, 0xBF, 0x00, 0xD7, 0x29, 0x3F,
    0x7C, 0x51, 0xCC, 0x3E, 0x4C, 0xFD, 0x81, 0x3E, 0xF1, 0x82, 0xE7, 0x3F,
    0x6E, 0x16, 0x04, 0xBF, 0xA7, 0x7E, 0x27, 0x3F, 0x9D, 0xA2, 0xD5, 0xBD,
    0x7D, 0xEB, 0x89, 0x3E, 0xF2, 0xBF, 0xA2, 0xBF, 0x10, 0x3A, 0xA4, 0x3F,
    0x1C, 0xD4, 0x54, 0xBF, 0xC5, 0xDD, 0xA0, 0x3E, 0xE5, 0x3F, 0x3B, 0x3D,
    0x29, 0x29, 0x05, 0x3F, 0x07, 0x11, 0x25, 0xBF, 0x8B, 0x39, 0x97, 0xBF,
    0x07, 0x08, 0xB7, 0xBE, 0x47, 0x21, 0x81, 0x3C, 0xB1, 0x83, 0xAD, 0x3F,
    0x73, 0x88, 0x43, 0x40, 0xC5, 0x68, 0xC5, 0x3E, 0x17, 0x56, 0x44, 0x3F,
    0x03, 0xF7, 0x31, 0x3F, 0x69, 0x84, 0x2E, 0x3E, 0x63, 0x55, 0xEA, 0xBE,
    0x5D, 0x7C, 0x0F, 0xBD, 0x51, 0x93, 0x56, 0x3F, 0xE2, 0x8E, 0x8F, 0x3E,
    0xF9, 0x56, 0x30, 0xBF, 0x79, 0x27, 0x3A, 0xBC, 0x63, 0x5B, 0x91, 0xBF,
    0x9C, 0x3A, 0x84, 0x3E, 0x05, 0xDB, 0xA3, 0xBE, 0xBA, 0x0E, 0x5B, 0x3F,
    0xB1, 0xC4, 0x48, 0x3F, 0x82, 0x01, 0xC1, 0xBE, 0x06, 0xD8, 0x5E, 0x3F,
    0x9B, 0x01, 0x12, 0x40, 0xCC, 0x2B, 0x45, 0xBF, 0xF8, 0xE5, 0xF7, 0xBE,
    0x4C, 0xA0, 0x42, 0xBF, 0x5C, 0xB8, 0x83, 0x3E, 0x7F, 0x73, 0x7F, 0x3F,
    0xF2, 0x13, 0x31, 0xBF, 0x23, 0x60, 0x84, 0x3F, 0xB7, 0xBA, 0x12, 0x3E,
    0x5E, 0xC3, 0x2C, 0x3E, 0x86, 0x97, 0x32, 0x3F, 0xD3, 0xE7, 0x86, 0xBE,
    0xB3, 0xFD, 0xBE, 0x3E, 0x63, 0xEE, 0x3F, 0xBF, 0x28, 0x6D, 0x82, 0x3A,
    0xBE, 0xBD, 0x04, 0xBE, 0x1D, 0x8A, 0x52, 0xBF, 0xCA, 0xAB, 0xE1, 0x3F,
    0x54, 0xB3, 0x91, 0xBF, 0x2D, 0x78, 0xAD, 0xBD, 0x57, 0xBF, 0x1B, 0x3F,
    0x2F, 0x8B, 0xEB, 0xBE, 0xB8, 0x5C, 0x47, 0x3F, 0xFC, 0x73, 0x3B, 0x3E,
    0xFA, 0xD8, 0x0A, 0xBF, 0x2C, 0xD3, 0x48, 0x3E, 0x45, 0xBE, 0x8F, 0xBD,
    0xD9, 0x8B, 0x97, 0xBA, 0xDE, 0x14, 0x7A, 0x3F, 0xD9, 0xB4, 0x96, 0xBF,
    0xFD, 0xA5, 0x8A, 0x3D, 0xBC, 0x9A, 0xCC, 0xBD, 0xC2, 0xC0, 0x36, 0x3E,
    0xA2, 0xEB, 0x36, 0x3E, 0xFA, 0x88, 0x4E, 0x3E, 0x61, 0x43, 0x11, 0xBD,
    0x74, 0x2C, 0x86, 0xBE, 0xC6, 0xFA, 0x29, 0xBE, 0x6C, 0xE8, 0xED, 0x3E,
    0x9E, 0xE8, 0x92, 0xBF, 0x1C, 0x8B, 0x96, 0xBF, 0xB8, 0x96, 0x28, 0x3F,
    0x60, 0x10, 0xC1, 0xBF, 0x31, 0x00, 0xD5, 0x3F, 0x08, 0x4B, 0x95, 0x3F,
    0x05, 0xB7, 0x84, 0xBF, 0x16, 0x80, 0x55, 0xBF, 0x8B, 0x2F, 0xF1, 0x3E,
    0xEE, 0xBC, 0xB3, 0x3F, 0xE5, 0x44, 0x09, 0xBF, 0xC9, 0x6D, 0x71, 0xBE,
    0xE6, 0x7A, 0x5F, 0x3F, 0x12, 0x4A, 0x1B, 0xBF, 0x16, 0x5E, 0x0A, 0x40,
    0x8F, 0x3A, 0xD8, 0x3D, 0x94, 0x59, 0x4E, 0x3E, 0x32, 0x36, 0x5D, 0x3D,
    0x3B, 0xB4, 0x0E, 0x3F, 0x97, 0xB2, 0x88, 0xBE, 0x6F, 0x59, 0x35, 0x3E,
    0x81, 0x8E, 0xE9, 0x3E, 0x0B, 0x66, 0x57, 0x3F, 0xAA, 0x29, 0x99, 0x3E,
    0x7A, 0xBC, 0x8D, 0x3E, 0x33, 0x9B, 0x1D, 0xBE, 0x66, 0xC5, 0x63, 0xBF,
    0xDF, 0x31, 0x29, 0x3F, 0x3D, 0x6C, 0xCE, 0x3F, 0x2E, 0xBB, 0xBE, 0x3F,
    0x36, 0x02, 0x13, 0x3F, 0x87, 0xE3, 0x3F, 0xBF, 0x61, 0x6F, 0xEB, 0x3C,
    0xDB, 0xBF, 0xD1, 0xBD, 0x99, 0x7B, 0x14, 0x3F, 0xE8, 0x0A, 0x63, 0xBF,
    0x84, 0xD1, 0x35, 0xBF, 0x79, 0x9C, 0x44, 0x3F, 0x96, 0x31, 0x5C, 0x3D,
    0xF2, 0x69, 0xDA, 0x3D, 0xB2, 0x2A, 0xC4, 0xBF, 0x88, 0xFA, 0x12, 0xBE,
    0x50, 0x5E, 0x38, 0xBD, 0x20, 0xDC, 0x9D, 0xBF, 0x29, 0x18, 0x6E, 0xBF,
    0x22, 0xAA, 0x70, 0x3E, 0x84, 0xFA, 0x04, 0xBD, 0x16, 0x12, 0x37, 0x3E,
    0x1C, 0xA1, 0xA4, 0x3E, 0xC6, 0xF2, 0x47, 0xBE, 0x9B, 0xCC, 0x62, 0x3F,
    0xD2, 0x42, 0xD0, 0xBE, 0xDB, 0x28, 0x91, 0x3F, 0x08, 0xFB, 0x85, 0xBF,
    0xD7, 0x09, 0xBE, 0xBF, 0x31, 0x99, 0xAE, 0xBD, 0xA3, 0x25, 0xF2, 0xBE,
    0x38, 0x29, 0x6A, 0x3F, 0xB9, 0x88, 0xB3, 0x3D, 0x4E, 0x44, 0x1A, 0xBF,
    0xCD, 0xC2, 0xE0, 0x3E, 0xD9, 0x27, 0x0D, 0x3F, 0x71, 0x2F, 0xFB, 0xBF,
    0xDD, 0xAE, 0x7B, 0xBE, 0xD5, 0xAE, 0xAD, 0x3F, 0x50, 0x94, 0xFF, 0x3D,
    0xD1, 0x5B, 0xBE, 0x3D, 0x05, 0xCA, 0xA7, 0xBF, 0xF0, 0xE9, 0xAB, 0x3F,
    0xC5, 0xF4, 0xA5, 0xBE, 0xBC, 0x52, 0xDC, 0xBD, 0x4A, 0x59, 0x8E, 0xBD,
    0x0F, 0x4D, 0xEA, 0xBF, 0x02, 0xA3, 0xB2, 0xBD, 0x0B, 0x1B, 0x80, 0x3C,
    0xEA, 0x28, 0xA9, 0xBE, 0xD1, 0x62, 0x86, 0xBE, 0x54, 0xA8, 0x1A, 0x3F,
    0xEA, 0xB3, 0xD0, 0x3E, 0xBA, 0x66, 0x23, 0xBE, 0xED, 0x34, 0x99, 0xBE,
    0x2B, 0xBC, 0xC6, 0x3E, 0x4F, 0x44, 0xC3, 0xBD, 0x95, 0x48, 0xE1, 0xBE,
    0xA5, 0xD3, 0x7E, 0x3F, 0x7C, 0xDC, 0x13, 0x3F, 0xE5, 0x68, 0x1C, 0x3E,
    0x90, 0xFD, 0xFE, 0xBE, 0x39, 0x7C, 0x0A, 0x40, 0xA5, 0x54, 0x34, 0x3F,
    0x05, 0x0F, 0x42, 0xBF, 0xDB, 0x13, 0x56, 0x3F, 0xC0, 0x54, 0x98, 0x3F,
    0xB2, 0xDF, 0x44, 0xBD, 0xE1, 0x19, 0x47, 0x3E, 0x27, 0x91, 0x6F, 0x3F,
    0x5F, 0xFA, 0x35, 0xBE, 0x8E, 0x7D, 0xEB, 0xBD, 0x6E, 0x41, 0x0A, 0xBF,
    0xE9, 0xCF, 0x85, 0x3E, 0x0D, 0x49, 0x2D, 0xBD, 0xC1, 0x6C, 0x7E, 0x3F,
    0xE0, 0xB5, 0x62, 0xBF, 0x93, 0x4F, 0x8D, 0xBF, 0xF3, 0xE1, 0x7F, 0x3D,
    0x50, 0xA7, 0xEC, 0xBE, 0x3A, 0x58, 0x4E, 0xBF, 0xFD, 0xBB, 0xE8, 0xBE,
    0x4A, 0x68, 0x65, 0x3E, 0xAD, 0x29, 0xAB, 0x3D, 0x40, 0x31, 0x28, 0x3B,
    0x24, 0x99, 0x21, 0x3F, 0x99, 0xF7, 0x28, 0xBE, 0x46, 0xAA, 0xDC, 0x3F,
    0x21, 0x1D, 0x87, 0x3E, 0xE1, 0x32, 0xA7, 0xBE, 0xE2, 0xCF, 0x8D, 0xBF,
    0x4C, 0x25, 0x94, 0x3F, 0x6B, 0x8F, 0x72, 0xBD, 0xDA, 0x62, 0x9F, 0x3E,
    0x3E, 0xF2, 0x0F, 0xBF, 0xBD, 0xEB, 0x49, 0xBF, 0x26, 0x08, 0xEA, 0xBC,
    0x01, 0x18, 0x2E, 0xBF, 0x69, 0x92, 0xC1, 0x3F, 0xFF, 0x36, 0x75, 0x3E,
    0xE5, 0x26, 0xD0, 0xBE, 0xCF, 0x17, 0xD0, 0xBF, 0x2D, 0xA3, 0x3D, 0x3E,
    0xBD, 0x49, 0x42, 0x3D, 0x25, 0x19, 0xD1, 0xBE, 0x74, 0x17, 0xBA, 0xBD,
    0x74, 0x1C, 0xA1, 0x3E, 0xFC, 0xF3, 0x83, 0x3E, 0x40, 0x56, 0x8C, 0x3F,
    0x08, 0x59, 0xCB, 0xBE, 0x0F, 0x12, 0x64, 0x3F, 0x6E, 0x18, 0x90, 0xBE,
    0xEB, 0x64, 0xB8, 0xBD, 0xFD, 0x91, 0xDA, 0x3F, 0x3F, 0xD4, 0xAB, 0xBF,
    0x8B, 0xB3, 0x12, 0x3F, 0x55, 0x47, 0x35, 0x3E, 0xCA, 0x07, 0x0D, 0xBF,
    0x67, 0xF6, 0x7F, 0x3F, 0x60, 0xD5, 0x2D, 0xBF, 0xA1, 0x4F, 0x63, 0x3F,
    0x5D, 0x5E, 0x31, 0xBF, 0x71, 0x14, 0x13, 0xC0, 0x26, 0xBA, 0xB9, 0x3D,
    0x7C, 0x67, 0xAC, 0x3F, 0x7C, 0x65, 0xBA, 0xBE, 0x26, 0x95, 0xF4, 0x3E,
    0xE2, 0x84, 0x14, 0x3E, 0x00, 0x74, 0x73, 0xBF, 0x01, 0xD6, 0x98, 0x3E,
    0x5F, 0x78, 0x73, 0x3E, 0x96, 0x45, 0xE5, 0x3D, 0xC1, 0xB1, 0x75, 0x3F,
    0x91, 0x6C, 0x16, 0x3E, 0x9B, 0x52, 0xD0, 0xBE, 0xE0, 0x4B, 0x62, 0xBF,
    0x37, 0xA4, 0xD0, 0xBD, 0x25, 0x26, 0x6D, 0xBF, 0x55, 0x78, 0x53, 0x3F,
    0x03, 0x09, 0x1E, 0xBF, 0xFD, 0x1E, 0x87, 0xBE, 0x68, 0x69, 0x4A, 0xBE,
    0xA5, 0x86, 0x52, 0x3F, 0xEE, 0xB0, 0x8D, 0x3F, 0x40, 0x2D, 0xC8, 0xBF,
    0xA9, 0x81, 0x6F, 0x3F, 0x32, 0xEC, 0x35, 0xBF, 0x77, 0x6E, 0x41, 0xBF,
    0x16, 0xC0, 0xF3, 0x3F, 0xD1, 0xD5, 0xC4, 0x3E, 0x62, 0xA2, 0xF5, 0xBE,
    0x5D, 0x35, 0x86, 0xBD, 0xCD, 0x8E, 0x81, 0x3F, 0xB9, 0xB2, 0x50, 0x3E,
    0xE4, 0x79, 0x3F, 0xBF, 0xEB, 0xFF, 0xFB, 0x3C, 0xD6, 0x9A, 0x5F, 0x3E,
    0x86, 0x9D, 0x35, 0x3F, 0x0C, 0x7E, 0x53, 0xBE, 0xC8, 0x2D, 0x85, 0xBF,
    0xD6, 0x0D, 0xAE, 0x3D, 0xCC, 0x66, 0x62, 0xBF, 0x1F, 0x61, 0xE1, 0x3D,
    0x6B, 0x2C, 0x22, 0xBE, 0x6C, 0x76, 0x9C, 0x3D, 0xBF, 0x3B, 0xC1, 0x3F,
    0x53, 0x8B, 0xD3, 0xBE, 0xE2, 0x9C, 0xF9, 0x3F, 0xE2, 0x20, 0x68, 0x3F,
    0xE7, 0xA4, 0x7E, 0x3E, 0xF7, 0x74, 0x0D, 0xBE, 0xB1, 0xBB, 0x0F, 0x3E,
    0x71, 0x01, 0x0B, 0x3F, 0x0D, 0x6B, 0xAD, 0x3F, 0x97, 0x8C, 0xB7, 0xBE,
    0x89, 0x8A, 0x7D, 0x3D, 0x86, 0x26, 0xB0, 0x3E, 0x07, 0xB5, 0xD0, 0xBE,
    0x0F, 0xA3, 0x63, 0xBE, 0x78, 0xD8, 0xE6, 0xBE, 0x2E, 0x79, 0x91, 0x3D,
    0xF5, 0x70, 0x8C, 0x3F, 0xFC, 0x81, 0xA9, 0x3E, 0x86, 0x7A, 0xC8, 0x3F,
    0xFC, 0xBD, 0x0F, 0xBF, 0x1C, 0xC8, 0x28, 0xBE, 0xA7, 0x0E, 0x26, 0x3F,
    0x2F, 0xF8, 0x0D, 0xBD, 0xFE, 0xCA, 0x54, 0xBE, 0x5E, 0x5C, 0x14, 0x3F,
    0x7D, 0xE1, 0x7B, 0xBF, 0x39, 0xC2, 0x81, 0x3F, 0xB7, 0x65, 0x57, 0xBD,
    0xCA, 0x0C, 0xA1, 0x3E, 0xB3, 0x04, 0xBA, 0xBE, 0xA6, 0xCF, 0xE1, 0x3F,
    0x12, 0xE0, 0x6E, 0x3E, 0x69, 0xC4, 0x2E, 0xBF, 0xBC, 0x43, 0xB2, 0xBE,
    0xEE, 0x25, 0x03, 0xBF, 0x15, 0xD0, 0x03, 0x3F, 0x24, 0x56, 0x25, 0x3E,
    0x03, 0x61, 0x4B, 0xBF, 0xE5, 0x08, 0xB6, 0x3F, 0xD1, 0xBD, 0x73, 0xBF,
    0xC2, 0x81, 0x05, 0x3F, 0xD1, 0x70, 0x7F, 0xBD, 0xFB, 0x9F, 0x08, 0xBF,
    0x52, 0xA7, 0xD0, 0x3A, 0xCA, 0x61, 0xD1, 0x3F, 0x62, 0xE8, 0x00, 0xBF,
    0x81, 0xB7, 0x21, 0xBF, 0x0D, 0x7F, 0x49, 0x3E, 0x42, 0xD0, 0xAD, 0xBD,
    0xB8, 0x27, 0x93, 0x3F, 0x78, 0x19, 0x5A, 0xBE, 0xBE, 0x36, 0x88, 0xBE,
    0x71, 0x8D, 0x43, 0x3F, 0x38, 0xE4, 0x5F, 0xBE, 0x9C, 0xE7, 0x06, 0xBE,
    0x1C, 0x49, 0x72, 0x3F, 0x34, 0x51, 0x8B, 0x3F, 0x32, 0xC0, 0x60, 0xBF,
    0xE6, 0x03, 0x88, 0x3E, 0x61, 0x38, 0x04, 0x3F, 0xA9, 0x3F, 0x24, 0xBF,
    0x35, 0x1E, 0x6E, 0xBE, 0xB0, 0x09, 0x6A, 0x3E, 0x63, 0x80, 0xFE, 0x3E,
    0xA3, 0xD8, 0x51, 0xBF, 0xFC, 0xB3, 0x7A, 0xBD, 0x05, 0xA0, 0xB9, 0x3E,
    0x42, 0x19, 0xC0, 0xBE, 0x95, 0x19, 0xD8, 0xBE, 0x86, 0x8E, 0xBB, 0x3E,
    0x27, 0x82, 0x84, 0x3D, 0x11, 0xCA, 0x69, 0xBF, 0x5B, 0x0C, 0x94, 0xBC,
    0x9D, 0x6A, 0x1F, 0x3F, 0x7B, 0xFF, 0x69, 0xBE, 0x46, 0xF0, 0x64, 0xBF,
    0x37, 0xF3, 0x7A, 0x3E, 0x68, 0x30, 0x06, 0xBF, 0x87, 0x1F, 0xD3, 0xBE,
    0x2F, 0xCD, 0x3C, 0xBF, 0x79, 0x2E, 0xCC, 0xBF, 0xA1, 0xCC, 0x47, 0x3E,
    0xE5, 0x93, 0x1E, 0xBF, 0x83, 0x09, 0x49, 0xBE, 0x85, 0x69, 0x35, 0x3E,
    0x49, 0xE8, 0x88, 0xBF, 0x97, 0x17, 0x62, 0x3D, 0x98, 0x7E, 0x0E, 0xBF,
    0x16, 0x8F, 0xB9, 0xBD, 0xEF, 0x14, 0xA3, 0xBF, 0xCC, 0xE8, 0xA5, 0xBF,
    0xD6, 0x79, 0xA6, 0x3C, 0xE7, 0xA8, 0x9D, 0xBF, 0xF6, 0xF5, 0x79, 0xBD,
    0xFA, 0x6B, 0x5D, 0xBF, 0x6B, 0x6A, 0x27, 0xBF, 0xD7, 0xF6, 0x1B, 0x3F,
    0x78, 0x26, 0xEB, 0xBD, 0xD5, 0x84, 0xB1, 0xBE, 0xD2, 0x99, 0xB3, 0x3F,
    0xD1, 0xCE, 0x1C, 0xBF, 0xE5, 0xD3, 0x60, 0xBF, 0x9E, 0xE2, 0x7E, 0xBE,
    0x0D, 0xD6, 0x36, 0xBF, 0x33, 0x12, 0x01, 0x3F, 0xBC, 0x34, 0x47, 0xBF,
    0xBC, 0xF3, 0xDC, 0x3D, 0x36, 0x4F, 0x38, 0x3F, 0xD2, 0x74, 0x4E, 0x3E,
    0xCC, 0x6A, 0xBD, 0xBF, 0x96, 0x35, 0x89, 0xBE, 0xE4, 0x02, 0x70, 0xBE,
    0x46, 0xF5, 0x08, 0x3E, 0x98, 0x98, 0x3B, 0xBF, 0x24, 0x57, 0x57, 0xBF,
    0x4B, 0x0C, 0xA3, 0x3F, 0x08, 0x39, 0xFE, 0x3C, 0xF2, 0x05, 0x9C, 0x3B,
    0xA3, 0x1E, 0x57, 0x3D, 0x52, 0x96, 0x1E, 0x3E, 0xD2, 0x81, 0x14, 0x3E,
    0xB2, 0x47, 0x76, 0x3F, 0x80, 0x7F, 0x6A, 0x3F, 0x92, 0xA8, 0x24, 0x3E,
    0x8C, 0x82, 0x3E, 0xBD, 0xDF, 0x41, 0xD0, 0x3D, 0xC3, 0x76, 0x83, 0xBF,
    0x28, 0x08, 0xF3, 0x3D, 0x8E, 0xE7, 0xAC, 0xBF, 0x19, 0x4B, 0x0D, 0xBE,
    0x83, 0x1C, 0x28, 0x3F, 0x49, 0xA3, 0x10, 0x3E, 0xB6, 0x7A, 0x5B, 0xBE,
    0x9D, 0x9D, 0xA0, 0x3F, 0xD9, 0x55, 0xF7, 0xBF, 0x4B, 0x90, 0x8E, 0xBF,
    0x17, 0x9C, 0x2F, 0x3E, 0x51, 0x02, 0xD7, 0xBE, 0xDE, 0x21, 0xEE, 0x3D,
    0x5A, 0x41, 0x94, 0x3E, 0x9A, 0xEA, 0xD9, 0xBF, 0xE8, 0xC7, 0xAD, 0xBE,
    0xE5, 0x2E, 0x3E, 0xBF, 0xB1, 0x63, 0x4C, 0xBF, 0x58, 0xEB, 0x36, 0x3D,
    0xC6, 0xD4, 0x91, 0xBE, 0xC1, 0x0B, 0x0A, 0xBF, 0xFE, 0x94, 0x10, 0x3F,
    0x5C, 0x5F, 0xAE, 0x3E, 0x3D, 0xAC, 0xF6, 0xBD, 0x4E, 0xD5, 0xA4, 0x3F,
    0x94, 0xC1, 0xA3, 0xBE, 0xF7, 0xE1, 0x9A, 0xBF, 0x1F, 0x58, 0x39, 0xBF,
    0xCD, 0x78, 0x10, 0xBD, 0x6F, 0x52, 0x83, 0x3E, 0x2C, 0x4C, 0xA5, 0xBE,
    0xF4, 0xC0, 0xD3, 0xBE, 0xA5, 0x05, 0xA6, 0x3F, 0xF8, 0xF2, 0xFB, 0x3D,
    0x73, 0x84, 0x67, 0x3E, 0xFF, 0xB6, 0x0A, 0xBE, 0x1C, 0x82, 0xC5, 0x3E,
    0xB5, 0x2B, 0x21, 0xBE, 0x22, 0x76, 0x0B, 0x3F, 0xE7, 0x1D, 0x61, 0xBF,
    0xB8, 0x22, 0x46, 0x3E, 0x59, 0x61, 0x79, 0x3E, 0x4E, 0x4C, 0x49, 0x3D,
    0xAA, 0x6F, 0x34, 0xBF, 0x89, 0x2F, 0xE0, 0xBF, 0xAF, 0x22, 0x15, 0x3E,
    0x2D, 0x27, 0x64, 0x3E, 0xC5, 0xC6, 0x0F, 0xBF, 0x01, 0xAD, 0xC3, 0x3F,
    0x41, 0xD6, 0xE9, 0xBF, 0x17, 0xB0, 0x24, 0x3F, 0x84, 0x89, 0x30, 0x3F,
    0xF8, 0x8C, 0x17, 0xBF, 0x6D, 0xB7, 0x7A, 0x3F, 0x24, 0xA2, 0x67, 0xBF,
    0xF4, 0x98, 0xAB, 0xBE, 0x28, 0x5F, 0x9E, 0x3E, 0x51, 0x35, 0x01, 0xBF,
    0xC4, 0x79, 0x10, 0x40, 0x5C, 0xDB, 0xAC, 0xBE, 0xCF, 0x99, 0x86, 0x3F,
    0xAF, 0xB9, 0x40, 0xBF, 0xDC, 0xDF, 0x89, 0x3E, 0x13, 0xD3, 0x2B, 0xBE,
    0x98, 0x26, 0xB3, 0xBF, 0xC3, 0xDD, 0x8D, 0x3E, 0x0D, 0x62, 0x18, 0xBD,
    0x55, 0xD3, 0xC7, 0x3F, 0x65, 0x82, 0x39, 0x3D, 0xEF, 0xCB, 0x69, 0x3D,
    0xA6, 0x5C, 0xBA, 0x3D, 0x37, 0x72, 0x03, 0xBE, 0xEC, 0xC0, 0x6C, 0x3E,
    0x5E, 0x36, 0x75, 0xBE, 0xC9, 0xD9, 0x6A, 0xBF, 0x06, 0xAD, 0x3D, 0xBF,
    0xE4, 0x34, 0x18, 0x3F, 0x68, 0x0F, 0x56, 0xBF, 0x15, 0xEE, 0xA8, 0x3E,
    0xB8, 0xDF, 0xE6, 0x3E, 0x45, 0x79, 0x0D, 0xBF, 0xF9, 0x42, 0xA9, 0xBE,
    0x56, 0xA2, 0xC6, 0xBF, 0xC0, 0x3B, 0x12, 0xBF, 0xD3, 0x7E, 0x67, 0xBC,
    0x4F, 0x9E, 0x9A, 0x3F, 0xEE, 0xC1, 0x38, 0x3E, 0x3C, 0x1F, 0x49, 0xBD,
    0x79, 0x09, 0xC3, 0x3E, 0xE7, 0x3B, 0x46, 0xBF, 0x65, 0x57, 0x01, 0x3F,
    0x27, 0xF7, 0x6B, 0x3F, 0x6C, 0x8A, 0x6E, 0xBF, 0xC4, 0xC4, 0x10, 0x3D,
    0x21, 0x76, 0x7C, 0xBF, 0xB3, 0x75, 0x51, 0x3C, 0x11, 0x97, 0x76, 0x3C,
    0xE5, 0x79, 0x79, 0xBE, 0x5C, 0xAE, 0xB2, 0xBF, 0x9C, 0xAE, 0xE1, 0x3E,
    0x18, 0x04, 0x8F, 0x3E, 0x98, 0x1B, 0xAE, 0xBE, 0xBF, 0x23, 0xCE, 0xBF,
    0x0F, 0xC9, 0xB2, 0xBE, 0x58, 0x8A, 0x27, 0xBF, 0xAE, 0xC7, 0x8E, 0xBD,
    0x93, 0x42, 0x80, 0x3E, 0x53, 0xFF, 0x92, 0xBE, 0x69, 0xA6, 0xCD, 0x3E,
    0x79, 0x06, 0xFE, 0x3E, 0xFC, 0xCB, 0x14, 0x3F, 0xC9, 0x0B, 0xC3, 0xBE,
    0xFB, 0x39, 0xEE, 0x3E, 0xC1, 0x6E, 0x56, 0x3E, 0x01, 0xE4, 0x91, 0x3E,
    0x72, 0xA4, 0x94, 0xBF, 0x8D, 0x30, 0x9B, 0x3E, 0x75, 0x24, 0x43, 0x3F,
    0x47, 0x4C, 0xA1, 0x3E, 0x07, 0x14, 0xB5, 0x3F, 0x6B, 0x7E, 0x51, 0xBE,
    0xA2, 0x70, 0x09, 0x3F, 0x4F, 0x68, 0x73, 0xBE, 0x0F, 0xB7, 0x7A, 0xBF,
    0xE7, 0x0A, 0x1F, 0xBC, 0xFE, 0x4C, 0xD5, 0x3C, 0xD8, 0x67, 0x6F, 0xBF,
    0x42, 0xF5, 0xC9, 0x3E, 0x49, 0xDE, 0x4F, 0x3E, 0x94, 0x0B, 0x49, 0x3F,
    0x4E, 0x5B, 0x62, 0x3E, 0x31, 0x04, 0x6A, 0x3F, 0x1A, 0xA6, 0xF6, 0x3E,
    0xDA, 0xF2, 0xD0, 0xBD, 0x7A, 0x11, 0x50, 0xBF, 0x6C, 0xD0, 0x2D, 0xBF,
    0x13, 0x50, 0x42, 0xBF, 0xC6, 0xB3, 0x3B, 0x3E, 0x89, 0x9C, 0x87, 0xBE,
    0x77, 0x4E, 0xE3, 0x3E, 0x25, 0x56, 0x8C, 0xBD, 0xF6, 0x12, 0x64, 0x3F,
    0x06, 0x64, 0xD2, 0x3F, 0x4B, 0x4F, 0xC5, 0x3F, 0x5B, 0x8A, 0xD6, 0x3E,
    0x00, 0x1A, 0xB2, 0xBF, 0xAF, 0xE5, 0x90, 0x3E, 0x2D, 0x1E, 0x6A, 0xBF,
    0x2A, 0x2F, 0x56, 0xBF, 0xED, 0x8C, 0xBC, 0x3F, 0x17, 0x8F, 0xA5, 0xBE,
    0xAA, 0xE9, 0x17, 0x3E, 0x37, 0xC1, 0xF1, 0x3E, 0xA8, 0x39, 0x47, 0x3D,
    0x81, 0xCC, 0x01, 0xBF, 0xF0, 0x61, 0x9A, 0xBC, 0xDB, 0xB9, 0x2A, 0xBF,
    0x69, 0x54, 0xD9, 0x3E, 0x34, 0xBA, 0xD0, 0xBE, 0x7B, 0x87, 0x7B, 0x3D,
    0xA3, 0x61, 0xCC, 0x3D, 0x60, 0x01, 0x38, 0x40, 0xC6, 0x7B, 0x84, 0xBE,
    0xE4, 0x67, 0xD2, 0xBE, 0x1F, 0x29, 0xEC, 0xBE, 0x82, 0x8B, 0x8D, 0x3F,
    0x69, 0xA4, 0xD8, 0xBE, 0xFA, 0x8E, 0x02, 0x40, 0xB7, 0x8D, 0xE9, 0xBF,
    0x2C, 0xBA, 0x4B, 0x3F, 0xBD, 0x18, 0x94, 0x3F, 0x22, 0xBE, 0xDE, 0x3C,
    0x88, 0xDB, 0xDB, 0x3E, 0x45, 0xB9, 0x26, 0x3F, 0x66, 0x9B, 0x18, 0x3F,
    0xC5, 0x24, 0x9A, 0xBE, 0x77, 0xC2, 0x27, 0x3F, 0x8C, 0x3E, 0x51, 0x3F,
    0x67, 0x17, 0xB3, 0xBF, 0x08, 0x10, 0x0C, 0x3F, 0x0F, 0x06, 0x11, 0xBF,
    0x90, 0x6E, 0x79, 0xBF, 0xF2, 0xB5, 0x8A, 0x3E, 0x5D, 0x0D, 0x88, 0x3E,
    0x82, 0xDF, 0xFB, 0x3D, 0x39, 0x36, 0x46, 0x3F, 0x1C, 0x22, 0x23, 0x3D,
    0xDE, 0xB4, 0x73, 0x3F, 0x23, 0x93, 0x50, 0x3F, 0xC3, 0x18, 0x4A, 0xBF,
    0xB6, 0xFA, 0x4A, 0xBF, 0xD9, 0x7C, 0x38, 0xBF, 0x25, 0x54, 0x82, 0x3E,
    0x5A, 0x1F, 0x60, 0x3F, 0x3B, 0xA9, 0xAB, 0xBE, 0x55, 0xFE, 0x3F, 0xBE,
    0x9F, 0x92, 0xCF, 0xBC, 0x1A, 0xCA, 0x29, 0x3F, 0x9C, 0x1C, 0xC6, 0xBE,
    0x81, 0x3E, 0xD5, 0x3D, 0x38, 0x32, 0x60, 0xBF, 0x65, 0xE8, 0xAB, 0x3F,
    0x00, 0xA3, 0xBF, 0x3F, 0x56, 0xE5, 0x74, 0xBF, 0xCA, 0x4A, 0xAA, 0xBF,
    0x2A, 0x54, 0xB9, 0x3E, 0x2C, 0x1B, 0xA1, 0x3F, 0xC6, 0x4D, 0x6E, 0x3D,
    0x03, 0x9A, 0xCC, 0x3E, 0x03, 0x2E, 0xBE, 0x3E, 0x26, 0x25, 0x54, 0x3E,
    0x00, 0x2A, 0xAA, 0x3F, 0x07, 0xC8, 0xD7, 0xBE, 0x47, 0x99, 0x93, 0xBF,
    0xBF, 0x80, 0x26, 0x3D, 0x21, 0xD9, 0x5C, 0xBF, 0x46, 0x86, 0xD6, 0x3F,
    0xBF, 0x85, 0xE8, 0x3E, 0x14, 0x34, 0x04, 0xC0, 0xAF, 0x30, 0xE3, 0x3E,
    0x25, 0x89, 0x52, 0x3F, 0xE3, 0xE6, 0x25, 0x3D, 0xB7, 0x4E, 0x96, 0xBC,
    0x03, 0x65, 0x2B, 0x3F, 0x9B, 0xF9, 0x21, 0x3F, 0x61, 0x86, 0x91, 0xBE,
    0xEB, 0x59, 0x50, 0xBC, 0x7F, 0xBC, 0x11, 0xBF, 0x9D, 0xF0, 0xF4, 0x3E,
    0x66, 0x16, 0x6B, 0x3E, 0x79, 0x85, 0x35, 0x3E, 0xA8, 0x75, 0x34, 0xBF,
    0x03, 0xF1, 0x34, 0x3E, 0xBA, 0x41, 0x92, 0x3E, 0xEB, 0x41, 0x87, 0x3D,
    0x12, 0xF5, 0xF7, 0x3F, 0xF1, 0xA7, 0xA7, 0xB9, 0x03, 0x25, 0x11, 0x3F,
    0xD1, 0x31, 0x39, 0xBF, 0x84, 0x06, 0x99, 0xBF, 0x65, 0x8D, 0x01, 0xC0,
    0x37, 0xB5, 0x40, 0x3F, 0x5D, 0x62, 0xBA, 0xBF, 0x98, 0xE7, 0xC9, 0x3C,
    0x6E, 0x9A, 0xDF, 0xBD, 0x3C, 0x1A, 0xCE, 0x3E, 0x47, 0xFA, 0xFD, 0x3D,
    0xB4, 0xC0, 0x8B, 0xBD, 0xEB, 0x53, 0x94, 0x3D, 0xD0, 0x8F, 0xB1, 0x3F,
    0xF3, 0x66, 0xF6, 0xBF, 0xD3, 0xFE, 0x0B, 0x40, 0xD3, 0x53, 0x8C, 0x3E,
    0xC7, 0x4D, 0x19, 0x3D, 0x26, 0x11, 0x13, 0x3F, 0x25, 0xD9, 0xAE, 0x3E,
    0x49, 0x31, 0x4B, 0xBF, 0xB3, 0xDD, 0x42, 0xBE, 0x32, 0xDF, 0x0D, 0xBF,
    0x61, 0x16, 0x48, 0x3F, 0x46, 0x96, 0x02, 0xBE, 0x52, 0x83, 0x82, 0x3E,
    0x33, 0x8F, 0xAA, 0x3F, 0xBE, 0x11, 0x32, 0xC0, 0x45, 0xDD, 0xBC, 0xBD,
    0x0C, 0xA0, 0xE1, 0x3F, 0xB8, 0x3C, 0xC9, 0x3E, 0xC3, 0xC3, 0x41, 0x3F,
    0x9D, 0x17, 0x04, 0xBE, 0xCC, 0x84, 0x18, 0x3F, 0x93, 0xAA, 0xF6, 0x3D,
    0xBB, 0xDF, 0x50, 0x3F, 0x02, 0xFE, 0x9A, 0xBF, 0xDC, 0x0E, 0x7B, 0x3E,
    0x32, 0x5F, 0x1D, 0xBF, 0xEE, 0xF5, 0x58, 0x3F, 0x8F, 0x03, 0xEB, 0xBF,
    0x2E, 0x6D, 0x60, 0x3F, 0x99, 0x50, 0x65, 0xBE, 0xE1, 0x00, 0x28, 0x3F,
    0xCD, 0x63, 0x82, 0xBF, 0x8B, 0xCC, 0x87, 0x3F, 0x0B, 0xC0, 0x86, 0xBF,
    0x5B, 0x1F, 0x53, 0xBD, 0x6F, 0x48, 0x67, 0x3F, 0xB9, 0x08, 0x45, 0xBF,
    0x02, 0x86, 0x5A, 0x3F, 0x60, 0x7A, 0x02, 0xBF, 0xF5, 0xE5, 0x21, 0x3F,
    0x05, 0x5A, 0xF2, 0x3F, 0x79, 0xBF, 0x9E, 0x3F, 0x33, 0x29, 0x9D, 0xBF,
    0x40, 0x68, 0xF5, 0x3E, 0x29, 0x83, 0x44, 0x3E, 0xF9, 0x85, 0x2C, 0x3E,
    0xBF, 0x20, 0xAE, 0x3F, 0x59, 0xED, 0x42, 0xBE, 0xC2, 0xA2, 0x22, 0xBF,
    0xEC, 0x6E, 0x39, 0x3E, 0xDC, 0xD4, 0x49, 0x3E, 0x36, 0x52, 0x74, 0xBF,
    0x9D, 0xC0, 0xA2, 0xBF, 0x61, 0x13, 0xAA, 0xBD, 0x94, 0xFF, 0xA1, 0x3E,
    0xCC, 0x7C, 0x8B, 0xBF, 0x08, 0x4B, 0x1F, 0xBF, 0xB3, 0xC7, 0xDD, 0xBE,
    0x45, 0x5D, 0xDE, 0x3F, 0x87, 0xF5, 0x38, 0x3F, 0x21, 0xA7, 0x12, 0x3F,
    0xDC, 0xD7, 0xC2, 0xBF, 0x5A, 0xED, 0x61, 0xBF, 0x4E, 0x56, 0x70, 0xBF,
    0x39, 0x1B, 0x22, 0x3F, 0x92, 0x7B, 0x9F, 0xBE, 0x91, 0x78, 0x28, 0xBF,
    0x93, 0x35, 0xD3, 0xBE, 0x4B, 0x11, 0x0C, 0xBF, 0x3C, 0xB5, 0xB6, 0x3F,
    0xE3, 0x7E, 0xA0, 0x3E, 0xD6, 0x65, 0xDF, 0xBD, 0xC7, 0x95, 0x3C, 0x3E,
    0x17, 0xCD, 0x18, 0xBE, 0xBB, 0x71, 0xE9, 0x3F, 0xB2, 0xA9, 0x9E, 0xBE,
    0x3D, 0x5E, 0x0E, 0xBF, 0xB4, 0xF5, 0xB4, 0x3E, 0xD5, 0x49, 0x6B, 0xBF,
    0xA4, 0x1B, 0xCD, 0x3E, 0x3F, 0x9A, 0x08, 0x3E, 0xBD, 0xE0, 0xEE, 0x3F,
    0xB0, 0x95, 0x8B, 0xBF, 0x66, 0xE4, 0x9F, 0xBE, 0xBB, 0x99, 0x08, 0xBF,
    0xD0, 0xA4, 0x30, 0xBF, 0x15, 0x51, 0x92, 0x3D, 0x3A, 0x52, 0x31, 0xBF,
    0xCD, 0x81, 0x8C, 0xBE, 0xA4, 0x33, 0xA8, 0xBE, 0x26, 0xAF, 0x95, 0x3E,
    0x96, 0xAE, 0x75, 0x3E, 0xF6, 0x28, 0xBF, 0xBE, 0x9E, 0xF1, 0x9F, 0x3E,
    0xE8, 0x62, 0xD4, 0xBE, 0xD9, 0xF1, 0xC6, 0xBE, 0x7F, 0x15, 0xA3, 0xBF,
    0xF5, 0x48, 0xCF, 0x3F, 0xA7, 0x70, 0xAA, 0xBF, 0x79, 0x81, 0x7B, 0xBE,
    0xA3, 0x48, 0x29, 0xBF, 0x72, 0x30, 0xBB, 0x3D, 0x05, 0x0F, 0xA3, 0x3E,
    0x85, 0x5F, 0xCF, 0xBF, 0x53, 0x62, 0x9E, 0xBD, 0x6E, 0xF2, 0x28, 0xBF,
    0xAF, 0xCE, 0xCF, 0x3E, 0xBC, 0x61, 0x0C, 0x3C, 0x12, 0x0F, 0xDC, 0x3F,
    0xF6, 0xE4, 0x29, 0xBE, 0x5E, 0x19, 0x51, 0x3E, 0x66, 0x28, 0x45, 0xBE,
    0xFD, 0xD8, 0xE9, 0x3D, 0xEC, 0xB4, 0x6E, 0x3F, 0x28, 0xA8, 0x15, 0xBD,
    0x7B, 0x17, 0xAE, 0xBE, 0x29, 0xCA, 0x86, 0xBF, 0x9D, 0x9A, 0x32, 0x3F,
    0x7C, 0x7B, 0x7E, 0x3F, 0x4A, 0x20, 0xA2, 0xBF, 0x44, 0x45, 0x91, 0xBF,
    0x63, 0x50, 0x06, 0x3F, 0x88, 0x47, 0xCF, 0x3F, 0xA6, 0x27, 0xA3, 0xBE,
    0x38, 0xB9, 0x43, 0x3E, 0xD9, 0x8A, 0x1B, 0x3F, 0x97, 0x8B, 0x4A, 0x3F,
    0x4D, 0x26, 0x12, 0x3F, 0x2E, 0x8C, 0xEA, 0x3E, 0x58, 0x01, 0x62, 0xBF,
    0xEA, 0x0F, 0x17, 0xBF, 0xA0, 0xF2, 0x47, 0xBF, 0xC1, 0x00, 0x04, 0x3F,
    0x0F, 0x37, 0x21, 0xBF, 0x48, 0xE6, 0xCF, 0x3E, 0xD4, 0xDF, 0xE0, 0x3F,
    0xD9, 0x05, 0xD5, 0xBE, 0xC0, 0xFC, 0xCD, 0x3D, 0xAE, 0x14, 0xF3, 0xBC,
    0x36, 0x74, 0x8E, 0x3F, 0x56, 0x8B, 0xF0, 0xBD, 0x95, 0x18, 0x41, 0xBE,
    0xF5, 0xFB, 0x59, 0x3F, 0x9A, 0xDC, 0xC1, 0x3F, 0x04, 0x86, 0x1A, 0x3F,
    0xDD, 0x76, 0x0B, 0xBE, 0xE7, 0x71, 0x25, 0x40, 0xEC, 0x28, 0x7A, 0x3E,
    0x8F, 0x9C, 0x06, 0x3F, 0x8C, 0xA5, 0x91, 0xBF, 0xAB, 0xFE, 0xAD, 0x3E,
    0x73, 0x9C, 0xEB, 0x3F, 0x81, 0xDB, 0x87, 0x3E, 0x08, 0x0A, 0x26, 0x3E,
    0xA1, 0x15, 0x33, 0xBF, 0xB3, 0x3F, 0xE2, 0x3D, 0x96, 0xF2, 0x55, 0x3F,
    0xBD, 0x33, 0xF5, 0xBF, 0xE5, 0x0E, 0xEC, 0xBE, 0x92, 0x97, 0x68, 0x3F,
    0xFD, 0x0F, 0x0B, 0x3E, 0x72, 0x6E, 0x14, 0xBE, 0x72, 0x7C, 0xA2, 0x3F,
    0x5D, 0xD0, 0xB8, 0xBE, 0x7A, 0x78, 0x41, 0x3E, 0x5F, 0x4E, 0x3A, 0x3F,
    0x72, 0x59, 0xF4, 0x3D, 0x27, 0xAE, 0x9F, 0x3F, 0xF0, 0xE6, 0x01, 0x40,
    0x01, 0x02, 0x35, 0xC0, 0x34, 0x37, 0xBC, 0x3F, 0x9D, 0xD7, 0x1D, 0x3F,
    0x57, 0x3A, 0x6E, 0xBF, 0x54, 0xE9, 0xAD, 0x3D, 0x49, 0x9F, 0x5F, 0xBF,
    0x1F, 0xAB, 0x19, 0xBE, 0xD1, 0x9D, 0xE4, 0x3E, 0x96, 0xB0, 0x1B, 0x3F,
    0xA2, 0x61, 0xA2, 0x3E, 0x8F, 0x8B, 0x04, 0x3F, 0x11, 0x03, 0x17, 0xBE,
    0x7F, 0xD6, 0x2D, 0xBC, 0xA4, 0x14, 0x0B, 0xBE, 0xB1, 0x6F, 0xB8, 0xBD,
    0xFE, 0xCC, 0x0F, 0x3F, 0xBE, 0xBD, 0xBE, 0x3E, 0x59, 0xDF, 0xBC, 0xBE,
    0x44, 0x42, 0xC9, 0x3F, 0xF8, 0xA2, 0x83, 0x3E, 0x5C, 0xB3, 0x4C, 0x3E,
    0x5B, 0x15, 0x3A, 0x3F, 0x44, 0xD1, 0x68, 0x3F, 0xFD, 0x5A, 0x68, 0xBD,
    0xCB, 0x80, 0x47, 0x3D, 0x71, 0xB5, 0x99, 0xBF, 0x76, 0xE5, 0xD5, 0xBE,
    0x02, 0x14, 0x70, 0xBF, 0x54, 0xD9, 0x89, 0xBF, 0x68, 0xE5, 0x99, 0xBE,
    0x2A, 0xBC, 0x9D, 0x3E, 0x22, 0xA6, 0x5F, 0x3E, 0x7F, 0xE2, 0xA4, 0xBE,
    0xA1, 0x83, 0xE3, 0x3E, 0xCB, 0xA3, 0x9E, 0xBF, 0xBF, 0x56, 0x7B, 0xBD,
    0x49, 0x2E, 0x66, 0x3D, 0x38, 0xF3, 0x06, 0x3F, 0xD6, 0xEB, 0x1A, 0x3F,
    0x69, 0x81, 0x47, 0xBF, 0x55, 0x79, 0xB4, 0xBF, 0x1F, 0x8F, 0xBC, 0x3E,
    0x6C, 0x7A, 0x1B, 0xBF, 0x88, 0x42, 0x40, 0xBF, 0xCB, 0x73, 0x24, 0xBF,
    0x63, 0x37, 0x37, 0x3F, 0x71, 0xDA, 0x25, 0x3F, 0x1E, 0xB3, 0x00, 0x3E,
    0x60, 0xF1, 0x3E, 0x40, 0xF1, 0xAB, 0x56, 0xBF, 0xAA, 0x93, 0xA6, 0xBD,
    0x61, 0x1B, 0xB9, 0xBE, 0x0A, 0x20, 0xCE, 0xBF, 0x77, 0x71, 0x25, 0x3F,
    0x02, 0x3C, 0x12, 0x3F, 0x88, 0xB2, 0x67, 0x3C, 0x16, 0xB2, 0x2B, 0x3F,
    0x64, 0x6E, 0x94, 0xBF, 0x86, 0xA1, 0x91, 0x3E, 0x04, 0xF4, 0x99, 0xBF,
    0xC3, 0x48, 0xEC, 0xBE, 0x77, 0x10, 0x29, 0x3F, 0xA4, 0x64, 0x02, 0xBF,
    0x34, 0x1D, 0x48, 0xBF, 0x10, 0x92, 0x9C, 0x3F, 0x44, 0x57, 0x2A, 0x3C,
    0xB9, 0x31, 0xBC, 0x3E, 0x73, 0xC6, 0x3A, 0x3E, 0xAA, 0xCA, 0xD2, 0xBF,
    0x0F, 0xD5, 0x6F, 0xBF, 0x59, 0x1E, 0x20, 0x3F, 0xF9, 0x73, 0xE3, 0x3E,
    0x77, 0x15, 0xFA, 0xBE, 0xFA, 0x22, 0xD8, 0x3E, 0xB5, 0x3E, 0x31, 0x3F,
    0xAA, 0x7B, 0xA7, 0xBF, 0x9F, 0x7A, 0x87, 0x3E, 0x33, 0xEB, 0x89, 0xBE,
    0xCB, 0x94, 0x85, 0x3F, 0xC7, 0xDC, 0x9B, 0xBF, 0x7A, 0xA8, 0x33, 0x3E,
    0x7A, 0x29, 0x04, 0x3F, 0x55, 0x61, 0x9B, 0x3E, 0x98, 0x14, 0xEF, 0x3E,
    0x6D, 0x10, 0xF6, 0x3D, 0xF1, 0xFC, 0x02, 0xBF, 0xB3, 0xAB, 0x26, 0xBF,
    0x40, 0x3B, 0xEF, 0xBE, 0x2B, 0x38, 0x85, 0x3E, 0xE6, 0x3F, 0x2A, 0x3F,
    0xFD, 0x38, 0xD8, 0xBF, 0x86, 0x7F, 0x93, 0x3C, 0x23, 0xB5, 0x9F, 0xBE,
    0xF8, 0xF0, 0x89, 0x3F, 0x69, 0x1B, 0xDC, 0x3D, 0xEC, 0xE6, 0x71, 0x3F,
    0xE4, 0x7E, 0x80, 0xBF, 0x4F, 0x7F, 0x96, 0x3F, 0x33, 0xBE, 0xB2, 0x3E,
    0x98, 0x66, 0xB1, 0x3C, 0x9D, 0xB2, 0xAB, 0x3E, 0xD4, 0x23, 0x07, 0x3E,
    0xF3, 0x0E, 0x62, 0x3F, 0x18, 0x96, 0x60, 0x3C, 0x96, 0x9D, 0x1E, 0xBF,
    0x72, 0x18, 0x36, 0xBF, 0x70, 0x56, 0x5C, 0xBF, 0x57, 0x3C, 0x49, 0xBF,
    0x36, 0x46, 0x60, 0x3F, 0xD3, 0xBF, 0x65, 0x3F, 0x56, 0xCE, 0x12, 0x3F,
    0x2A, 0xA0, 0x56, 0xBF, 0x54, 0x9B, 0xF6, 0xBE, 0x20, 0xF2, 0x7A, 0x3F,
    0xCC, 0xD4, 0xCB, 0xBE, 0x11, 0x82, 0x40, 0xBF, 0x9F, 0xF1, 0x1C, 0xBE,
    0x17, 0x67, 0x8D, 0x3F, 0x24, 0x6D, 0xA2, 0xBE, 0xC1, 0x65, 0x84, 0xBF,
    0xEE, 0x1D, 0xA1, 0x3E, 0xDF, 0xAA, 0x21, 0xBF, 0x77, 0xCF, 0x4B, 0x3F,
    0xFB, 0x81, 0x81, 0x3F, 0x4F, 0x54, 0x92, 0xBF, 0xB3, 0xE7, 0xA3, 0xBF,
    0x47, 0x67, 0x12, 0xBE, 0x22, 0x23, 0xE3, 0x3E, 0x80, 0x43, 0x1A, 0xBE,
    0x57, 0xFA, 0x2C, 0x3F, 0xDC, 0xA3, 0x2A, 0x3C, 0xA6, 0x87, 0x74, 0x3F,
    0xFF, 0x04, 0xB9, 0xBE, 0x0E, 0xA3, 0x4B, 0xBF, 0x53, 0xA1, 0x54, 0x3F,
    0xCF, 0x89, 0x61, 0xBF, 0xEC, 0x59, 0xC8, 0x3E, 0x7D, 0xC9, 0x02, 0xBF,
    0x83, 0xB9, 0xB9, 0xBE, 0xD6, 0x7D, 0x24, 0x3E, 0xCD, 0x71, 0xA6, 0xBE,
    0xC6, 0x95, 0xFD, 0x3E, 0x29, 0xFA, 0x57, 0x3F, 0x8D, 0x4B, 0x08, 0x3F,
    0x40, 0xBA, 0xFA, 0x3E, 0xC2, 0x85, 0x5E, 0xBF, 0xF1, 0xA4, 0xD0, 0x3D,
    0xC5, 0xBE, 0xB4, 0xBE, 0x9D, 0xBD, 0xC4, 0x3E, 0xEF, 0x8A, 0xEE, 0x3D,
    0xC3, 0x53, 0x10, 0x3E, 0x74, 0x5B, 0x92, 0x3E, 0xEE, 0x23, 0x94, 0x3F,
    0x97, 0x20, 0xF8, 0xBF, 0x81, 0x21, 0xD2, 0x3E, 0x24, 0x3B, 0x13, 0x3C,
    0xAB, 0x98, 0xE9, 0x39, 0xED, 0x08, 0x70, 0xBE, 0x13, 0x7A, 0xD1, 0xBE,
    0x82, 0x26, 0xA9, 0x3E, 0x68, 0x92, 0x5A, 0xBF, 0x7E, 0x5B, 0x5A, 0xBD,
    0xE7, 0x70, 0x8B, 0xBF, 0x40, 0xA9, 0x49, 0x3F, 0xA8, 0xD8, 0xA5, 0xBD,
    0x06, 0xD4, 0xA5, 0xBF, 0x16, 0xB6, 0xBF, 0x3D, 0x85, 0xF2, 0xAD, 0x3E,
    0xD0, 0x84, 0x6B, 0x3F, 0x4E, 0xD8, 0xAE, 0x3F, 0xDC, 0xE9, 0xDF, 0xBF,
    0x98, 0x8A, 0x9A, 0xBE, 0x53, 0x48, 0xEF, 0xBE, 0x36, 0xBC, 0xB9, 0xBF,
    0x8E, 0xC4, 0x05, 0xBE, 0xC4, 0x6A, 0x15, 0x3F, 0x90, 0xE3, 0xAC, 0xBE,
    0x2B, 0xFA, 0xD9, 0x3F, 0x9F, 0x83, 0x96, 0xBE, 0x9D, 0xF6, 0x8F, 0x3F,
    0x1A, 0xBF, 0xCD, 0x3E, 0x6C, 0x4E, 0x44, 0x3F, 0x02, 0xCF, 0xF5, 0xBE,
    0xE7, 0x82, 0xB4, 0x3E, 0xA0, 0x84, 0x0A, 0x40, 0x73, 0x7E, 0x36, 0x3F,
    0xE9, 0xED, 0x84, 0x3E, 0x44, 0x99, 0x08, 0x3F, 0xBA, 0x58, 0x5C, 0x3E,
    0x95, 0x61, 0x90, 0x3E, 0xB7, 0x06, 0x1C, 0xBF, 0x8F, 0x56, 0x54, 0xBF,
    0x89, 0xEA, 0x56, 0xBF, 0x4C, 0xE2, 0xCD, 0x3F, 0xDC, 0xA1, 0xBF, 0xBE,
    0x83, 0x7D, 0x5D, 0xBE, 0xF8, 0x08, 0x7B, 0x3E, 0x28, 0x21, 0xDF, 0xBD,
    0xB1, 0x57, 0x8C, 0x3F, 0xB1, 0xC8, 0xC2, 0xBE, 0x2A, 0x61, 0x66, 0xBC,
    0x10, 0xBB, 0x7C, 0x3F, 0xF4, 0x15, 0xA2, 0xBF, 0x84, 0x66, 0x2B, 0x3F,
    0x65, 0x23, 0x06, 0xBF, 0xD1, 0x2C, 0x11, 0x3F, 0xBD, 0xA5, 0x05, 0x3F,
    0xA5, 0x54, 0x34, 0xBF, 0x11, 0x7B, 0x8D, 0x3F, 0xB3, 0xC4, 0xCE, 0x3E,
    0xDF, 0xBF, 0x78, 0x3F, 0xEE, 0x98, 0x6D, 0x3E, 0x30, 0x18, 0x20, 0xBF,
    0xDB, 0x48, 0x8D, 0xBE, 0x1E, 0x8D, 0xAD, 0x3F, 0xEC, 0x06, 0x5E, 0x3B,
    0x5D, 0xA3, 0x55, 0x3F, 0x7E, 0xF0, 0xC6, 0xBD, 0x3C, 0x6B, 0x2C, 0xBD,
    0x66, 0xB8, 0x46, 0x3F, 0x03, 0x12, 0x02, 0x3F, 0x36, 0x09, 0x49, 0xBF,
    0x53, 0x4E, 0xCA, 0x3E, 0x47, 0x88, 0x77, 0x3F, 0xD0, 0x29, 0x8A, 0xBF,
    0x4C, 0x52, 0xD7, 0x3F, 0x25, 0x26, 0x86, 0xBF, 0xF6, 0x0A, 0x83, 0x3F,
    0x88, 0x28, 0x30, 0xBE, 0x08, 0xB2, 0xEF, 0x3F, 0x75, 0x33, 0x6D, 0xBD,
    0x2E, 0xB0, 0x5D, 0xBE, 0x04, 0x36, 0x1B, 0xBE, 0x7D, 0x58, 0x37, 0xBE,
    0x32, 0x54, 0xD5, 0x3F, 0x76, 0x1E, 0x2E, 0xBF, 0xF1, 0x04, 0xF2, 0x3E,
    0x96, 0x8C, 0x32, 0x3C, 0x17, 0xA9, 0x88, 0xBE, 0x43, 0x55, 0xB2, 0x3F,
    0x13, 0xF3, 0x6D, 0xBF, 0xC2, 0xA3, 0x53, 0x3F, 0xA6, 0xF4, 0xF8, 0x3E,
    0xB9, 0x47, 0x43, 0x3E, 0x42, 0x64, 0x24, 0x3F, 0xDB, 0xDF, 0x9D, 0xBD,
    0x08, 0x40, 0x60, 0xBE, 0x25, 0x2C, 0x0F, 0x3F, 0x70, 0xC8, 0x14, 0xBF,
    0xA5, 0xE5, 0x8D, 0xBE, 0xBA, 0x2E, 0xC2, 0xBE, 0xFA, 0x66, 0x0D, 0x3F,
    0x87, 0xBF, 0x22, 0xBF, 0x4F, 0x88, 0x9D, 0xBF, 0x5F, 0x20, 0x86, 0x3F,
    0xEA, 0xA5, 0xA5, 0x3F, 0xA4, 0x91, 0x0D, 0x3E, 0x45, 0xF3, 0x30, 0xBE,
    0xF9, 0x5C, 0x3C, 0x3F, 0x13, 0xE5, 0x05, 0xBF, 0xBA, 0xB1, 0xB6, 0xBE,
    0x2F, 0x8B, 0x1A, 0x3F, 0xD3, 0xB3, 0x5C, 0x3D, 0x59, 0xEA, 0x42, 0xBF,
    0x3D, 0x4A, 0x1E, 0x40, 0x7A, 0xF8, 0xEB, 0xBF, 0x4F, 0x08, 0x4F, 0x3E,
    0x29, 0xA6, 0xE2, 0x3E, 0xFC, 0xCD, 0x97, 0xBF, 0x58, 0x62, 0x8B, 0xBF,
    0xA5, 0xDF, 0x73, 0xBE, 0xEC, 0xEE, 0x80, 0xBF, 0x23, 0x5C, 0x6C, 0xBF,
    0xC0, 0x3B, 0x28, 0xBF, 0xF6, 0xB6, 0xF0, 0xBE, 0x2C, 0x4B, 0x20, 0xBD,
    0x54, 0x5B, 0x52, 0x3E, 0x27, 0x9C, 0x61, 0xBF, 0x91, 0x5A, 0xA2, 0x3F,
    0xB2, 0x8E, 0xA1, 0xBE, 0x01, 0x7B, 0x10, 0xBE, 0xCE, 0xED, 0x89, 0xBE,
    0xB7, 0x33, 0xF8, 0x3E, 0x08, 0xAC, 0x6C, 0xBE, 0x02, 0x0C, 0x8D, 0xBF,
    0xDB, 0x2A, 0x1C, 0xBF, 0x23, 0x4B, 0xF5, 0xBF, 0x24, 0xCD, 0x84, 0x3D,
    0xFF, 0x9F, 0x24, 0x40, 0x0F, 0xB3, 0x7E, 0x3F, 0x45, 0xB2, 0x18, 0x40,
    0xB5, 0xEA, 0x22, 0xBD, 0x9F, 0xA3, 0x20, 0x3F, 0x70, 0x87, 0xC0, 0x3E,
    0x80, 0x28, 0x38, 0x3F, 0x1D, 0xBD, 0x1D, 0xBF, 0xB9, 0x34, 0x30, 0x3F,
    0x49, 0xAF, 0xC5, 0x3D, 0xA0, 0xFB, 0xDE, 0x3B, 0x5C, 0x26, 0x8B, 0x3E,
    0x09, 0xBA, 0xDE, 0x3D, 0x14, 0x35, 0x41, 0x3F, 0xDE, 0x49, 0x97, 0x3F,
    0xA5, 0x57, 0x4B, 0xBF, 0xB6, 0xAF, 0x56, 0x3E, 0x78, 0x83, 0x4F, 0x3F,
    0x7F, 0xE2, 0xED, 0xBE, 0xAE, 0xC6, 0xA9, 0x3F, 0x55, 0x0E, 0x2C, 0xBF,
    0xB6, 0xC1, 0xFA, 0xBE, 0x69, 0x62, 0xF2, 0x3E, 0x66, 0x37, 0x83, 0x3F,
    0xB0, 0x48, 0x86, 0xBF, 0x98, 0x86, 0x98, 0x3E, 0x04, 0x24, 0xC4, 0x3F,
    0x1A, 0x4B, 0x43, 0x3E, 0x46, 0xE5, 0x6B, 0x3F, 0xF3, 0x2A, 0x6C, 0xBF,
    0xAC, 0x26, 0xA0, 0xBE, 0x8B, 0xD9, 0xB7, 0xBE, 0x9D, 0x87, 0x20, 0xBE,
    0x50, 0x7D, 0x31, 0xBE, 0x19, 0x1B, 0xB7, 0xBE, 0x95, 0xA6, 0x3D, 0x3E,
    0xCB, 0x73, 0x87, 0x3F, 0x00, 0x3D, 0x85, 0xBE, 0xFA, 0x52, 0x14, 0xC0,
    0x04, 0xDA, 0x45, 0x3F, 0x21, 0xE1, 0x35, 0xBF, 0x29, 0x6D, 0x8F, 0xBF,
    0xBF, 0x78, 0x50, 0x3F, 0xC9, 0x47, 0xB3, 0x3F, 0xFD, 0xE1, 0x61, 0x3F,
    0x85, 0x09, 0x50, 0xBE, 0xFB, 0x92, 0xAC, 0x3E, 0x4A, 0xCA, 0x7A, 0xBE,
    0xF8, 0xE1, 0x0B, 0x3F, 0x8C, 0x30, 0x99, 0x3F, 0x7C, 0x33, 0x14, 0xBF,
    0xC1, 0x0D, 0xAE, 0xBF, 0x6E, 0x46, 0xBE, 0xBF, 0x3F, 0x1D, 0x87, 0x3F,
    0xD6, 0x73, 0x5C, 0xBE, 0x20, 0x0C, 0x0A, 0x3E, 0xB5, 0x89, 0xF3, 0x3D,
    0xB0, 0x93, 0x89, 0x3E, 0xAD, 0x27, 0x14, 0x3F, 0xF5, 0xF8, 0x61, 0x3F,
    0x66, 0xF0, 0xDB, 0xBE, 0x6D, 0x68, 0x7D, 0x3E, 0xB7, 0x5E, 0x8A, 0xBF,
    0x9A, 0x78, 0x95, 0x3F, 0x8B, 0xCA, 0xD8, 0x3D, 0x7F, 0x1F, 0x1A, 0xBF,
    0x8C, 0x39, 0x46, 0x3F, 0x9A, 0x5F, 0xED, 0xBE, 0xDF, 0xCF, 0xB4, 0xBF,
    0x8C, 0xEC, 0xCC, 0x3E, 0x9C, 0x66, 0x58, 0xBF, 0xDD, 0xF5, 0x0A, 0x3F,
    0x65, 0x81, 0x30, 0xBF, 0xBB, 0x2B, 0x94, 0x3E, 0xAA, 0x3B, 0xED, 0xBE,
    0x37, 0x7E, 0x70, 0xBD, 0xE0, 0xC6, 0xBB, 0xBD, 0x54, 0xB8, 0x14, 0x3F,
    0x31, 0xFF, 0xE9, 0x3B, 0xFB, 0x93, 0x63, 0xBC, 0xE9, 0x50, 0x6A, 0x3F,
    0x94, 0x8A, 0x16, 0x3F, 0xFE, 0x16, 0x33, 0x3D, 0xD0, 0x51, 0x22, 0xBF,
    0xD9, 0x72, 0xBC, 0x3E, 0x19, 0xE9, 0xDA, 0xBF, 0x2B, 0x59, 0xF8, 0x3E,
    0x81, 0x31, 0x42, 0xBD, 0x75, 0x40, 0x3A, 0x3F, 0xE4, 0xB3, 0x58, 0x3E,
    0x5C, 0x33, 0x3F, 0xBF, 0x03, 0xE5, 0x8C, 0x3E, 0x2A, 0x2A, 0x32, 0x3D,
    0x4C, 0xF4, 0xA0, 0xBE, 0xC8, 0x13, 0x95, 0xBF, 0xBF, 0xC1, 0xEB, 0xBC,
    0xC1, 0xBC, 0x0F, 0x3F, 0x56, 0xA6, 0x84, 0xBF, 0x7E, 0x40, 0x20, 0xBF,
    0x04, 0xB0, 0x36, 0x3F, 0x7D, 0xC9, 0x5B, 0x3F, 0x5F, 0x7C, 0x6D, 0x3F,
    0x7A, 0x21, 0x8F, 0x3E, 0x7D, 0x1A, 0xD9, 0xBE, 0x9A, 0xC3, 0x67, 0x3F,
    0xCE, 0x36, 0xC6, 0xBD, 0xA0, 0x7E, 0xCA, 0xBD, 0x25, 0xD1, 0x1D, 0x3F,
    0x9F, 0x1A, 0x85, 0xBF, 0x90, 0xBE, 0xD8, 0xBE, 0x76, 0x67, 0x91, 0x3F,
    0x72, 0xBD, 0x4D, 0xBF, 0xA1, 0x2D, 0x8A, 0xBF, 0xA8, 0xF9, 0xBC, 0xBE,
    0xB6, 0xEE, 0x60, 0xBE, 0x74, 0x13, 0xDC, 0x3E, 0x1F, 0x24, 0x9E, 0xBE,
    0xE4, 0x18, 0x55, 0x3C, 0x84, 0x62, 0x8B, 0xBF, 0x31, 0x0C, 0x80, 0x3F,
    0x18, 0x6C, 0xFC, 0x3E, 0xCF, 0x04, 0x12, 0xBF, 0x26, 0x6E, 0xC3, 0xBE,
    0x61, 0x2D, 0x6B, 0xBE, 0x89, 0x2E, 0xF0, 0xBF, 0x53, 0xA3, 0xDA, 0x3E,
    0x82, 0xF6, 0xA8, 0xBE, 0x61, 0x54, 0x87, 0xBF, 0xD4, 0x3C, 0xBE, 0x3C,
    0x48, 0xE8, 0xAE, 0xBF, 0x0B, 0xA6, 0xF5, 0x3E, 0x18, 0x43, 0x73, 0xBE,
    0xAC, 0x7A, 0xAA, 0x3E, 0x39, 0xC3, 0x6A, 0xBF, 0xFE, 0xF1, 0x10, 0x3F,
    0x22, 0xB3, 0x2A, 0x3D, 0x2C, 0x03, 0x7B, 0x3F, 0x66, 0xA2, 0x74, 0x3E,
    0xD9, 0x61, 0x1A, 0x3E, 0xF5, 0x68, 0x34, 0x3F, 0x3F, 0xD3, 0x2D, 0xBC,
    0x8D, 0xE8, 0xFE, 0xBE, 0x8D, 0x2C, 0x1D, 0x3E, 0x58, 0x07, 0xF4, 0x3F,
    0x33, 0x0E, 0x89, 0xBF, 0x43, 0xE8, 0x22, 0x40, 0xF8, 0xDA, 0x5B, 0x3D,
    0x7C, 0x7F, 0x32, 0xBF, 0x16, 0x07, 0xE3, 0xBE, 0xDC, 0x39, 0xDD, 0x3D,
    0x2E, 0x65, 0x25, 0x3F, 0x8B, 0xF8, 0xC0, 0x3E, 0x53, 0x21, 0xE2, 0xBE,
    0xB8, 0xE8, 0xDC, 0x3F, 0x6D, 0x02, 0x31, 0x3F, 0xE9, 0x30, 0x99, 0x3F,
    0x4E, 0x81, 0x55, 0xBF, 0xBA, 0x51, 0x0A, 0xBF, 0xE1, 0xF5, 0xB9, 0x3E,
    0x23, 0x65, 0x77, 0xBE, 0x3B, 0x33, 0xE2, 0x3D, 0x21, 0x90, 0x6E, 0x3F,
    0xA5, 0xD1, 0x28, 0xBE, 0x75, 0x9D, 0x8D, 0x3F, 0x8B, 0x46, 0x59, 0xBE,
    0x76, 0x66, 0xC2, 0xBD, 0x4D, 0xFD, 0x3C, 0x3F, 0x72, 0xEB, 0xCC, 0xBE,
    0xDE, 0x50, 0x0B, 0x3F, 0x2B, 0xA8, 0x46, 0xBF, 0x68, 0x4A, 0x16, 0xBF,
    0xC9, 0x61, 0x8A, 0x3F, 0xFE, 0x98, 0x6F, 0xBE, 0xFE, 0x50, 0x43, 0x3F,
    0xD3, 0xE1, 0x10, 0x3F, 0x5D, 0xA5, 0x1D, 0x3F, 0x8E, 0x99, 0x82, 0x3F,
    0xD0, 0x58, 0xA7, 0xBF, 0x2F, 0xE4, 0xC6, 0x3E, 0x1F, 0x11, 0xD5, 0x3E,
    0x64, 0xEE, 0x33, 0x3E, 0x79, 0xB3, 0xB8, 0x3E, 0x5E, 0x26, 0x34, 0x3F,
    0xE0, 0xE3, 0xB1, 0xBE, 0xD7, 0x07, 0xEB, 0xBF, 0x1D, 0x2E, 0x0B, 0xBF,
    0x51, 0x79, 0x2F, 0x3F, 0x6B, 0xEB, 0xB3, 0xBE, 0xB4, 0x19, 0x73, 0xBF,
    0x53, 0x63, 0x8D, 0xBF, 0xDE, 0xA7, 0x9C, 0x3E, 0x1C, 0x2B, 0x82, 0xBF,
    0x94, 0xCD, 0xF6, 0xBE, 0xFA, 0x1D, 0xC1, 0xBF, 0x69, 0x8F, 0xCC, 0x3C,
    0xF5, 0x1D, 0xA1, 0x3F, 0xA0, 0xD4, 0x2E, 0x3F, 0x45, 0x26, 0x08, 0xBF,
    0x55, 0x9A, 0xA3, 0xBE, 0x8D, 0x0D, 0x3C, 0xBF, 0x3E, 0xD0, 0x94, 0xBF,
    0x96, 0x3D, 0xDC, 0x3E, 0x11, 0xBF, 0x61, 0xBF, 0x74, 0xB0, 0x7C, 0x3D,
    0x0C, 0x17, 0x34, 0xBF, 0xB5, 0xE9, 0x96, 0xBF, 0xB0, 0xD0, 0x57, 0xBF,
    0xE9, 0xD9, 0xBC, 0xBE, 0x19, 0xE7, 0x62, 0xBE, 0x4F, 0x3F, 0x73, 0xBE,
    0xBA, 0x3E, 0x96, 0x3F, 0x69, 0x42, 0x80, 0x3F, 0x7C, 0xAB, 0x5E, 0x3F,
    0xDD, 0x2E, 0x67, 0x3E, 0xDE, 0x1B, 0x14, 0x3F, 0xB9, 0x1A, 0xB9, 0x3E,
    0x1A, 0x15, 0xA2, 0xBF, 0xBA, 0x24, 0xF1, 0x3D, 0xA7, 0x08, 0x68, 0xBF,
    0x88, 0x64, 0xC6, 0xBF, 0x31, 0x17, 0x4E, 0xBF, 0x41, 0x22, 0xEB, 0x3D,
    0xEA, 0xBB, 0x4A, 0xBF, 0x53, 0xF9, 0xA1, 0xBE, 0x07, 0x69, 0x5D, 0xBF,
    0xAF, 0x02, 0x96, 0xBE, 0xF6, 0x49, 0x8A, 0xBE, 0xFF, 0x3E, 0x79, 0x3E,
    0xC8, 0x3E, 0x56, 0xBE, 0xF1, 0x58, 0x80, 0xBF, 0x35, 0xD7, 0xA8, 0x3F,
    0x93, 0xC1, 0xEC, 0x3E, 0x9D, 0x91, 0x23, 0x3F, 0x1E, 0x70, 0x34, 0xBF,
    0x81, 0x98, 0xE1, 0x3F, 0x5D, 0x45, 0x85, 0xBE, 0x75, 0x7E, 0x2B, 0x3D,
    0x92, 0xCF, 0xD9, 0xBD, 0x04, 0x64, 0xBD, 0x3E, 0x06, 0x25, 0x97, 0x3F,
    0xE3, 0x36, 0x85, 0x3E, 0x10, 0x8D, 0xDA, 0x3E, 0xC5, 0x91, 0x19, 0xC0,
    0x92, 0x94, 0x0E, 0x3F, 0x26, 0xD7, 0x12, 0xBF, 0x90, 0xA5, 0xDD, 0x3F,
    0x80, 0xEC, 0x1F, 0x3F, 0x1C, 0xBE, 0xA8, 0x3C, 0xE6, 0x1A, 0x5D, 0x3E,
    0x5C, 0x19, 0x86, 0x3D, 0x8D, 0x58, 0xB0, 0x3F, 0x71, 0xB3, 0x32, 0x3F,
    0xF1, 0x46, 0x3C, 0xBD, 0xAB, 0x2A, 0xBB, 0xBF, 0x40, 0x7C, 0x9F, 0xBD,
    0x1B, 0x00, 0xBB, 0x3F, 0xB8, 0x98, 0xA0, 0x3E, 0xE3, 0x15, 0xD4, 0xBE,
    0xA0, 0x63, 0x95, 0x3B, 0x4C, 0x60, 0xF2, 0xBD, 0xB1, 0x19, 0x8E, 0xBF,
    0x48, 0xC0, 0x16, 0xBF, 0xAB, 0xFA, 0x0C, 0x3E, 0x55, 0x50, 0x35, 0xBF,
    0xAA, 0x2C, 0x7E, 0xBF, 0x53, 0x80, 0x87, 0xBE, 0x68, 0xAE, 0xF0, 0xBD,
    0x3C, 0x1E, 0xF5, 0x3D, 0x2C, 0x54, 0x84, 0x3E, 0x24, 0x63, 0xB2, 0xBF,
    0x65, 0x9C, 0x74, 0x3E, 0x05, 0x83, 0x8D, 0xBE, 0x10, 0x2D, 0x89, 0x3E,
    0xC4, 0xA7, 0x35, 0x3F, 0xC5, 0xE1, 0x4E, 0xBF, 0x67, 0xC3, 0x78, 0x3E,
    0x66, 0xE5, 0x3B, 0x3E, 0x98, 0x8B, 0xBA, 0x3E, 0x64, 0xC1, 0xE2, 0xBF,
    0xC1, 0x91, 0x0A, 0x3F, 0x66, 0x60, 0xCD, 0xBE, 0x02, 0x80, 0x5D, 0x3E,
    0x72, 0xBD, 0x85, 0x3E, 0x73, 0xDA, 0x8C, 0xBE, 0x01, 0x36, 0x98, 0xBE,
    0xFE, 0x0E, 0x99, 0xBE, 0x3B, 0x94, 0x56, 0x3E, 0xCF, 0x72, 0x6B, 0x3F,
    0xA4, 0xB7, 0xB5, 0xBE, 0x62, 0x9A, 0x43, 0x3F, 0xD2, 0x21, 0x40, 0xBF,
    0xF2, 0x16, 0x6D, 0xBE, 0xCD, 0x8D, 0x96, 0xBF, 0x3E, 0x01, 0xA8, 0x3E,
    0x18, 0xE8, 0x32, 0x3F, 0x72, 0x98, 0x28, 0xBF, 0xF3, 0x73, 0x93, 0xBE,
    0xFA, 0xDB, 0x9A, 0xBF, 0x29, 0x73, 0xCB, 0xBE, 0xE5, 0x62, 0x8B, 0xBC,
    0xFF, 0xEB, 0xD9, 0xBD, 0xB6, 0x84, 0x82, 0xBD, 0xA0, 0x51, 0x89, 0x3F,
    0x4D, 0xED, 0x98, 0xBF, 0x2A, 0x85, 0xB5, 0x3F, 0xD1, 0x40, 0xC6, 0x3D,
    0x6F, 0xC1, 0x2E, 0xBE, 0x26, 0x29, 0xF7, 0x3E, 0x05, 0x67, 0xF9, 0x3E,
    0x39, 0xE4, 0x14, 0xBF, 0x1D, 0x65, 0x45, 0x3E, 0xEE, 0x54, 0x08, 0xBF,
    0x53, 0x1C, 0x57, 0xBF, 0x42, 0x31, 0x60, 0x3F, 0xAB, 0x50, 0x8B, 0x3F,
    0x00, 0x81, 0x67, 0xBF, 0x84, 0x65, 0xAA, 0xBE, 0x99, 0xD2, 0xCE, 0x3E,
    0x1F, 0xC2, 0x40, 0xBF, 0x91, 0xD6, 0xBA, 0xBE, 0x5E, 0xB6, 0x39, 0x3F,
    0x79, 0x26, 0x9A, 0x3F, 0x83, 0x97, 0xB5, 0x3E, 0x5E, 0xD6, 0x35, 0xBF,
    0x1A, 0xA0, 0x60, 0xBF, 0x10, 0x98, 0x62, 0xBF, 0xCE, 0x0A, 0x76, 0x3E,
    0x25, 0x6D, 0x3F, 0x3F, 0x2B, 0xA0, 0x0A, 0xBF, 0xDD, 0xBC, 0x43, 0x3E,
    0x5D, 0x28, 0x38, 0x3F, 0x04, 0x0B, 0x9F, 0x3F, 0xF4, 0x09, 0x3C, 0xBF,
    0xBE, 0xF3, 0xDE, 0xBE, 0x0E, 0xC2, 0xC2, 0xBE, 0x94, 0xE6, 0x14, 0x3F,
    0x22, 0x8F, 0xA1, 0x3B, 0x4D, 0x25, 0x8A, 0xBE, 0xB5, 0x15, 0x9A, 0xBE,
    0xC8, 0xEB, 0x9F, 0x3C, 0xCC, 0x5C, 0x10, 0x3F, 0x83, 0x25, 0x48, 0xBF,
    0x66, 0xA8, 0xAC, 0x3E, 0xA2, 0x48, 0x6E, 0x3D, 0x3E, 0x5B, 0xB3, 0xBE,
    0x6A, 0xF7, 0x14, 0x40, 0xAA, 0xF1, 0x96, 0x3E, 0x2F, 0x15, 0x66, 0xBE,
    0x61, 0xF1, 0x7D, 0xBF, 0x99, 0xA9, 0x9E, 0xBF, 0x66, 0x43, 0x8E, 0xBE,
    0x29, 0xCB, 0x6E, 0x3F, 0x15, 0x09, 0x84, 0xBF, 0x94, 0xB4, 0x8D, 0x3E,
    0xD1, 0x8A, 0x9C, 0xBD, 0xFA, 0xF1, 0x85, 0x3F, 0xBB, 0x27, 0x0C, 0xBE,
    0x3A, 0xB5, 0x01, 0x3F, 0xC3, 0xC8, 0x59, 0x3F, 0x4C, 0x2C, 0x3D, 0xBF,
    0x8D, 0xA1, 0xAA, 0xBF, 0x69, 0x92, 0xF7, 0xBE, 0x77, 0xCF, 0x42, 0x3D,
    0xEC, 0x06, 0x3F, 0x3F, 0xA0, 0x66, 0xA9, 0xBE, 0x34, 0xFC, 0xC1, 0x3D,
    0x17, 0xAC, 0x9E, 0xBF, 0xEE, 0xA9, 0x32, 0x3E, 0xD7, 0xF1, 0x69, 0xBF,
    0x36, 0xE1, 0x14, 0x3F, 0xD0, 0x13, 0x82, 0x3D, 0x35, 0x12, 0x28, 0x3F,
    0x58, 0xEA, 0xC5, 0xBE, 0x7A, 0x6D, 0x1F, 0x3E, 0x9A, 0xC5, 0x1F, 0xBD,
    0xF4, 0x19, 0x15, 0x3F, 0xC0, 0x84, 0x12, 0xC0, 0xA9, 0xB6, 0x94, 0xBF,
    0xBF, 0xE5, 0x3F, 0x3E, 0x58, 0x6D, 0x7E, 0x3E, 0x59, 0x8F, 0x09, 0xBF,
    0x21, 0x32, 0xDD, 0xBE, 0x1C, 0xFF, 0x7B, 0x3F, 0x4D, 0xFE, 0xA6, 0x3D,
    0xF8, 0x06, 0xB8, 0x3E, 0x79, 0x0F, 0x6A, 0x3F, 0x7F, 0xE0, 0xEB, 0x3F,
    0xD3, 0xDE, 0x83, 0xBE, 0xA7, 0xA5, 0x62, 0x3F, 0x11, 0x66, 0x07, 0xBF,
    0x6D, 0xC6, 0x9E, 0xBB, 0xBA, 0xD2, 0x05, 0x3F, 0xBE, 0xA8, 0x66, 0xBF,
    0x7B, 0xC3, 0xD7, 0x3E, 0x9B, 0x7C, 0x81, 0x3F, 0xB7, 0x7E, 0x47, 0xBF,
    0x54, 0x30, 0x20, 0xBF, 0x32, 0x4C, 0xBB, 0xBF, 0xFD, 0x4E, 0xB8, 0xBF,
    0x2A, 0xEF, 0x34, 0xBE, 0xE7, 0x6F, 0x4F, 0x3F, 0xDB, 0x01, 0x38, 0xBE,
    0xCD, 0x77, 0x57, 0x3F, 0x32, 0xB0, 0x65, 0x3E, 0x4D, 0xB6, 0xE9, 0xBE,
    0x2D, 0x3F, 0x4F, 0xBF, 0x73, 0xD2, 0x30, 0x3F, 0xB4, 0x78, 0xB8, 0x3E,
    0x4E, 0x91, 0xA0, 0x3F, 0xBE, 0xA1, 0x83, 0x3F, 0x36, 0x78, 0xD0, 0xBE,
    0x69, 0xF7, 0xC5, 0xBF, 0xA0, 0x43, 0x75, 0xBF, 0x29, 0x4E, 0x00, 0xBE,
    0x20, 0x8A, 0xA5, 0xBD, 0x0B, 0x9C, 0xB4, 0x3E, 0x14, 0x06, 0x1E, 0x3F,
    0xA2, 0x8E, 0x93, 0x3E, 0xD5, 0xB1, 0x71, 0xBD, 0xDB, 0x53, 0x97, 0xBF,
    0x50, 0xE5, 0x61, 0x3D, 0x5C, 0xE6, 0x7A, 0xBF, 0xD9, 0xBE, 0x9E, 0xBE,
    0x49, 0xD1, 0x90, 0x3F, 0x0E, 0x5A, 0x28, 0xBE, 0x01, 0xD3, 0x3B, 0x3F,
    0x8B, 0x37, 0x37, 0xBF, 0xBF, 0xBC, 0x06, 0xC0, 0x93, 0x99, 0x5C, 0xBF,
    0xD7, 0x26, 0x01, 0x3E, 0x41, 0x03, 0x32, 0x3F, 0xCD, 0x21, 0xA3, 0x3F,
    0x08, 0xAE, 0x09, 0x3F, 0x3C, 0xB6, 0x96, 0xBD, 0xB8, 0xA0, 0x5F, 0x3F,
    0x49, 0x91, 0xB4, 0x3E, 0x7E, 0xD9, 0x64, 0x3E, 0x46, 0x93, 0xA0, 0x3E,
    0x21, 0xBC, 0x80, 0xBE, 0x65, 0x50, 0x4C, 0x3E, 0x6A, 0xB1, 0xE4, 0x3E,
    0xAB, 0xDD, 0x13, 0xBF, 0x18, 0x34, 0x9E, 0xBF, 0x01, 0xC1, 0xB8, 0x3F,
    0x7E, 0xCB, 0x24, 0x3E, 0x7B, 0x06, 0xA5, 0xBE, 0x10, 0x11, 0x38, 0x3F,
    0x42, 0x70, 0x75, 0xBF, 0x9B, 0xA4, 0xC2, 0x3E, 0xF3, 0x62, 0x52, 0x3F,
    0x0C, 0x29, 0x25, 0xBE, 0x9B, 0x40, 0xCB, 0xBF, 0xD1, 0x47, 0x4D, 0x3F,
    0x51, 0xA1, 0xDE, 0xBE, 0x21, 0xE7, 0x58, 0xBF, 0x36, 0x3F, 0xB3, 0xBD,
    0xEF, 0xC1, 0x3A, 0x3E, 0x76, 0x4F, 0x80, 0x3E, 0xE3, 0x01, 0x9C, 0x3E,
    0xB7, 0xB2, 0x92, 0xBF, 0x61, 0x18, 0x89, 0x3F, 0x76, 0x49, 0x8E, 0xBE,
    0xB1, 0x2F, 0x9D, 0xBE, 0x04, 0xC8, 0xAE, 0xBE, 0x01, 0xA7, 0xBE, 0xBF,
    0x5F, 0x78, 0x1E, 0x40, 0x1F, 0x77, 0xF2, 0xBE, 0x22, 0xBA, 0xCF, 0x3C,
    0x3B, 0x4E, 0xA7, 0x3F, 0xE6, 0x5C, 0x0C, 0xBD, 0xBA, 0x88, 0x84, 0x3F,
    0xB5, 0xE1, 0xB4, 0x3F, 0x8D, 0x9C, 0x91, 0xBE, 0x3F, 0xE5, 0x25, 0xBF,
    0xA1, 0x83, 0xAA, 0xBE, 0x33, 0x80, 0xA8, 0xBE, 0xCD, 0x4F, 0x6B, 0x3D,
    0x3F, 0xF2, 0x23, 0x3F, 0xEC, 0x43, 0x94, 0xBF, 0xAE, 0xF5, 0x8D, 0x3F,
    0xBD, 0x92, 0x77, 0xBD, 0x67, 0x6F, 0x9B, 0x3F, 0x36, 0x2D, 0x7D, 0x3E,
    0x90, 0x14, 0xF2, 0xBD, 0x2B, 0x34, 0xD2, 0x3F, 0x42, 0xC2, 0x96, 0xBF,
    0xD0, 0x9D, 0x82, 0xBF, 0x3A, 0xC2, 0x98, 0x3E, 0x07, 0x17, 0x96, 0xBE,
    0x1C, 0x40, 0x43, 0x3F, 0x6D, 0xE5, 0x32, 0x3F, 0x12, 0xBD, 0x36, 0xBF,
    0x2E, 0x9B, 0x24, 0xBF, 0xF0, 0xBC, 0x0A, 0xBE, 0x65, 0x6A, 0xD8, 0x3E,
    0x05, 0x97, 0x82, 0x3D, 0x80, 0x7F, 0x9A, 0x3D, 0x13, 0x91, 0x4B, 0xBE,
    0x40, 0x56, 0x01, 0xBF, 0x37, 0x08, 0x5C, 0xBE, 0x7E, 0xEC, 0x5E, 0x3F,
    0xB9, 0x07, 0xE6, 0xBE, 0x29, 0x21, 0x1C, 0xBF, 0xCF, 0xB6, 0x42, 0xBF,
    0x54, 0xC7, 0xC0, 0xBF, 0xBA, 0x4B, 0xB7, 0x3E, 0xEC, 0xAE, 0xD3, 0x3E,
    0x37, 0x45, 0xB8, 0x3E, 0x85, 0x16, 0xA6, 0xBF, 0xE9, 0xD1, 0x89, 0xBD,
    0x61, 0xFD, 0xB2, 0xBD, 0xA1, 0x68, 0x13, 0xBE, 0x74, 0x82, 0x3D, 0x3F,
    0xD2, 0x81, 0x9B, 0xBF, 0x03, 0xAB, 0x01, 0x3F, 0xF9, 0xFA, 0x60, 0xBE,
    0x62, 0x8A, 0x90, 0xBD, 0x0E, 0x14, 0x60, 0xBE, 0xE2, 0xED, 0xED, 0x3F,
    0x8B, 0x0A, 0x7B, 0x3E, 0x98, 0x37, 0x6B, 0x3E, 0x4C, 0xC4, 0x0A, 0xBD,
    0xC6, 0xF8, 0x39, 0x3F, 0x48, 0xFE, 0xC8, 0xBE, 0xFA, 0xBC, 0xB0, 0xBE,
    0xD8, 0xD2, 0x82, 0x3E, 0x06, 0x48, 0x5F, 0x3F, 0x83, 0xE9, 0xAF, 0xBF,
    0x07, 0x47, 0x0B, 0x40, 0x22, 0x48, 0xBE, 0xBE, 0xDB, 0xBE, 0x1E, 0x3F,
    0x77, 0x58, 0x30, 0xBF, 0xB8, 0xC9, 0x8D, 0x3F, 0xFF, 0xC9, 0xF3, 0xBF,
    0x0E, 0xB5, 0x69, 0xBF, 0xAB, 0xEC, 0x07, 0xBF, 0x8A, 0x35, 0x3D, 0x3E,
    0xC2, 0xB6, 0x95, 0x3E, 0x17, 0x03, 0x44, 0xBF, 0x0C, 0xE3, 0x09, 0x3F,
    0xE6, 0x1B, 0x86, 0x3F, 0x8C, 0xCB, 0x8E, 0xBF, 0x3B, 0xE6, 0x47, 0x3F,
    0x28, 0xBF, 0x7A, 0x3F, 0x1B, 0xB1, 0xED, 0xBF, 0x89, 0x19, 0xA7, 0x3E,
    0xC9, 0x1C, 0x44, 0x3F, 0xDC, 0xE1, 0x2A, 0xBF, 0x2B, 0xCE, 0xCC, 0x3E,
    0x38, 0xEF, 0xEB, 0x3E, 0xC7, 0x4C, 0x0E, 0xBF, 0x9A, 0x1A, 0x58, 0x3E,
    0x2B, 0x32, 0x17, 0xBF, 0x8A, 0x43, 0xF2, 0x3F, 0x36, 0x15, 0xA8, 0x3E,
    0x46, 0x21, 0xD9, 0xBE, 0x64, 0x97, 0x18, 0x3F, 0xD6, 0xED, 0x94, 0x3D,
    0x14, 0x51, 0x83, 0x3F, 0xA2, 0x60, 0x0F, 0x3F, 0xC5, 0x69, 0x2F, 0x3E,
    0x58, 0x03, 0x61, 0x3F, 0x49, 0x3D, 0xCE, 0x3D, 0xDD, 0xEE, 0x55, 0xBF,
    0x39, 0x8F, 0xB5, 0x3F, 0xE3, 0xED, 0x54, 0xBF, 0x92, 0x77, 0x98, 0xBF,
    0x69, 0x37, 0xE2, 0x3F, 0x49, 0x5D, 0x6C, 0xBE, 0x4A, 0xE7, 0x46, 0x3F,
    0x25, 0x10, 0x86, 0xBE, 0x32, 0xA1, 0xB2, 0xBE, 0xAE, 0x0E, 0xB6, 0xBE,
    0x2B, 0xA5, 0xD4, 0xBF, 0xC2, 0x90, 0x17, 0xBE, 0x36, 0xFB, 0x2E, 0x3F,
    0x50, 0x99, 0x35, 0xBE, 0xF4, 0xD0, 0x45, 0x3F, 0x8D, 0x70, 0x9F, 0x3F,
    0x0E, 0x2A, 0x88, 0x3E, 0x92, 0x04, 0xBB, 0x3E, 0xA8, 0xD6, 0x77, 0x3F,
    0xD1, 0x32, 0x81, 0x3F, 0xC4, 0xE2, 0x46, 0xBF, 0x7A, 0xE7, 0xA0, 0x3E,
    0x2D, 0x2B, 0xD1, 0xBE, 0x4C, 0xFC, 0xAC, 0x3E, 0x71, 0x08, 0x67, 0xBD,
    0x50, 0x9C, 0x83, 0xBF, 0x76, 0xC2, 0xAC, 0xBF, 0x4B, 0x5F, 0x10, 0x3F,
    0x7C, 0xA5, 0xF2, 0xBD, 0x74, 0x17, 0xFA, 0xBE, 0x05, 0x96, 0x27, 0x3E,
    0xB6, 0x1B, 0x34, 0xBE, 0x46, 0xFD, 0xFF, 0xFF, 0x04, 0x00, 0x00, 0x00,
    0x00, 0x02, 0x00, 0x00, 0x24, 0x2D, 0x9F, 0x3E, 0x66, 0xFD, 0x05, 0x3E,
    0x07, 0xDB, 0xD7, 0xBD, 0xBB, 0xE3, 0xE4, 0x3D, 0xB9, 0x7F, 0x72, 0x3F,
    0xA2, 0x7C, 0xF2, 0xBE, 0x3D, 0x51, 0xE4, 0x3E, 0xF6, 0xBE, 0x96, 0xBF,
    0xFC, 0x85, 0xFE, 0xBE, 0x23, 0xDF, 0x03, 0x3D, 0x8A, 0x72, 0xEE, 0xBE,
    0xB6, 0x57, 0x03, 0xBF, 0xA4, 0x39, 0xAC, 0x3E, 0xCE, 0x96, 0xD6, 0x3E,
    0x0C, 0x86, 0x80, 0xBF, 0xCE, 0xBA, 0xAF, 0xBE, 0x79, 0xA5, 0xAB, 0x3E,
    0x32, 0x38, 0xD0, 0xBC, 0x55, 0xE5, 0xE0, 0x3F, 0x43, 0x85, 0xC7, 0xBF,
    0xE0, 0x78, 0x03, 0x3F, 0x4D, 0x3D, 0x99, 0x3F, 0xB8, 0x4E, 0x7D, 0xBE,
    0x4F, 0xCE, 0x9A, 0xBE, 0x26, 0xCB, 0x03, 0xBF, 0x8E, 0xAC, 0xD6, 0x3D,
    0x92, 0xFD, 0x68, 0xBF, 0x70, 0x77, 0x91, 0x3E, 0x44, 0x27, 0x65, 0x3E,
    0x42, 0x0D, 0xF7, 0x3E, 0xCC, 0x40, 0xDE, 0xBF, 0x08, 0x17, 0xA0, 0x3E,
    0x73, 0xAC, 0x1F, 0xBF, 0xFD, 0x32, 0x22, 0xBF, 0x7F, 0xE1, 0x0C, 0x3F,
    0x3B, 0xA9, 0xAC, 0xBE, 0x39, 0xBC, 0xA1, 0xBF, 0x6F, 0x22, 0x36, 0x3E,
    0x90, 0x6A, 0xEA, 0x3E, 0x69, 0xAE, 0xBA, 0xBE, 0x17, 0x06, 0x77, 0x3D,
    0xAA, 0xB8, 0x74, 0x3E, 0xCA, 0xC8, 0x8C, 0xBF, 0x79, 0x05, 0xF6, 0x3E,
    0xBA, 0x9E, 0x9D, 0xBE, 0xB5, 0xB9, 0x7D, 0xBF, 0xAA, 0xBA, 0x0D, 0x3E,
    0x2A, 0x94, 0x99, 0xBF, 0x5C, 0xAA, 0x34, 0x3F, 0x8A, 0xE2, 0x27, 0xBF,
    0x39, 0x89, 0x17, 0x3F, 0xB1, 0x56, 0xF0, 0x3E, 0xFD, 0x95, 0x27, 0xBE,
    0xAC, 0x9D, 0x68, 0x3E, 0xAF, 0x4C, 0x6E, 0x3E, 0xE8, 0xA5, 0xEA, 0xBE,
    0xC5, 0x5E, 0x87, 0xBE, 0x13, 0x8E, 0x31, 0x3F, 0x93, 0xDD, 0x9E, 0xBE,
    0x3B, 0xBC, 0x66, 0x3D, 0x15, 0x60, 0x68, 0xBE, 0x70, 0x4B, 0xC5, 0xBF,
    0x84, 0x0F, 0x2F, 0x3E, 0x6A, 0x85, 0xD5, 0x3E, 0x56, 0x7C, 0x10, 0x3D,
    0xC5, 0x6C, 0x58, 0x3E, 0x95, 0xE9, 0x20, 0xBF, 0xAE, 0xD7, 0x11, 0xBF,
    0x3B, 0xFC, 0x08, 0xBF, 0x23, 0x6E, 0x3C, 0xBF, 0x82, 0x30, 0x83, 0xBF,
    0x73, 0x61, 0xE7, 0xBE, 0x60, 0x50, 0x82, 0x3F, 0xDF, 0x27, 0x09, 0x3F,
    0xF8, 0x73, 0xE8, 0xBE, 0x9C, 0x92, 0xB4, 0x3E, 0x16, 0xE1, 0x8F, 0xBF,
    0x4B, 0xBE, 0xF6, 0xBD, 0x47, 0x21, 0x90, 0xBF, 0x03, 0xAF, 0xC6, 0xBE,
    0x67, 0xF0, 0x99, 0xBE, 0x3F, 0x99, 0x97, 0x3F, 0x7E, 0xE9, 0x25, 0xBE,
    0x7D, 0x83, 0x90, 0x3F, 0xD0, 0xA0, 0xB8, 0x3E, 0xBC, 0x36, 0xD1, 0xBE,
    0x9D, 0xF6, 0x48, 0xBF, 0xDA, 0x3E, 0xE3, 0xBF, 0xCD, 0xF0, 0x3B, 0x3C,
    0xAE, 0x36, 0xD0, 0x3D, 0x5E, 0xEA, 0x31, 0xBE, 0xD6, 0x5E, 0x0B, 0x3E,
    0xFB, 0xF5, 0x62, 0xBF, 0x41, 0x63, 0xA2, 0x3E, 0x91, 0x22, 0x8A, 0xBE,
    0x58, 0xA9, 0xCE, 0xBF, 0x51, 0x19, 0x2D, 0xBF, 0xED, 0x25, 0x8E, 0x3E,
    0x6E, 0xC1, 0xDC, 0x3D, 0xC8, 0xBB, 0x2E, 0xBF, 0x6B, 0xBC, 0xF3, 0xBE,
    0x05, 0xD8, 0xE6, 0xBE, 0xDF, 0xF9, 0xA6, 0xBF, 0xE9, 0x3B, 0x71, 0xBF,
    0x2D, 0x14, 0x8E, 0xBF, 0xBA, 0x84, 0xA0, 0x3E, 0xFF, 0xF5, 0x6F, 0xBE,
    0x74, 0x8F, 0xE9, 0x3C, 0x71, 0x89, 0xC0, 0x3E, 0x15, 0x54, 0xBC, 0x3E,
    0xA1, 0x09, 0x04, 0xC0, 0x9F, 0x13, 0xEC, 0xBE, 0x4D, 0x6F, 0x44, 0xBF,
    0x05, 0x14, 0x6D, 0xBF, 0x37, 0x0D, 0xEB, 0xBE, 0x6E, 0x80, 0xF2, 0x3E,
    0x4D, 0x4C, 0x35, 0x3E, 0x1E, 0x00, 0xF4, 0xBC, 0x55, 0x6D, 0x24, 0x3F,
    0x06, 0xC7, 0x3F, 0xBE, 0x43, 0xAC, 0x6D, 0x3F, 0x5F, 0xBA, 0x15, 0xBF,
    0xB4, 0x63, 0xB0, 0xBF, 0xB4, 0xC8, 0x98, 0xBF, 0x7D, 0xC1, 0x80, 0x3E,
    0x61, 0xE8, 0x31, 0xBE, 0xED, 0x98, 0x8A, 0xBF, 0x2A, 0xB0, 0x5B, 0xBF,
    0x52, 0xFF, 0xFF, 0xFF, 0x04, 0x00, 0x00, 0x00, 0x10, 0x00, 0x00, 0x00,
    0xA4, 0x8B, 0xA0, 0x3F, 0x73, 0xA2, 0x14, 0x3F, 0xB4, 0xE7, 0xF3, 0x3E,
    0x1C, 0x7F, 0x9F, 0xBF, 0xC8, 0xFB, 0xFF, 0xFF, 0xCC, 0xFB, 0xFF, 0xFF,
    0x0F, 0x00, 0x00, 0x00, 0x4D, 0x4C, 0x49, 0x52, 0x20, 0x43, 0x6F, 0x6E,
    0x76, 0x65, 0x72, 0x74, 0x65, 0x64, 0x2E, 0x00, 0x01, 0x00, 0x00, 0x00,
    0x14, 0x00, 0x00, 0x00, 0x00, 0x00, 0x0E, 0x00, 0x18, 0x00, 0x14, 0x00,
    0x10, 0x00, 0x0C, 0x00, 0x08, 0x00, 0x04, 0x00, 0x0E, 0x00, 0x00, 0x00,
    0x14, 0x00, 0x00, 0x00, 0x1C, 0x00, 0x00, 0x00, 0xEC, 0x00, 0x00, 0x00,
    0xF0, 0x00, 0x00, 0x00, 0xF4, 0x00, 0x00, 0x00, 0x04, 0x00, 0x00, 0x00,
    0x6D, 0x61, 0x69, 0x6E, 0x00, 0x00, 0x00, 0x00, 0x03, 0x00, 0x00, 0x00,
    0x94, 0x00, 0x00, 0x00, 0x50, 0x00, 0x00, 0x00, 0x14, 0x00, 0x00, 0x00,
    0x00, 0x00, 0x0E, 0x00, 0x1A, 0x00, 0x14, 0x00, 0x10, 0x00, 0x0C, 0x00,
    0x0B, 0x00, 0x04, 0x00, 0x0E, 0x00, 0x00, 0x00, 0x1C, 0x00, 0x00, 0x00,
    0x00, 0x00, 0x00, 0x09, 0x1C, 0x00, 0x00, 0x00, 0x20, 0x00, 0x00, 0x00,
    0x01, 0x00, 0x00, 0x00, 0x00, 0x00, 0x06, 0x00, 0x08, 0x00, 0x04, 0x00,
    0x06, 0x00, 0x00, 0x00, 0x00, 0x00, 0x80, 0x3F, 0x01, 0x00, 0x00, 0x00,
    0x07, 0x00, 0x00, 0x00, 0x01, 0x00, 0x00, 0x00, 0x06, 0x00, 0x00, 0x00,
    0xCE, 0xFF, 0xFF, 0xFF, 0x10, 0x00, 0x00, 0x00, 0x00, 0x00, 0x00, 0x08,
    0x0C, 0x00, 0x00, 0x00, 0x10, 0x00, 0x00, 0x00, 0x8C, 0xFC, 0xFF, 0xFF,
    0x01, 0x00, 0x00, 0x00, 0x06, 0x00, 0x00, 0x00, 0x03, 0x00, 0x00, 0x00,
    0x05, 0x00, 0x00, 0x00, 0x04, 0x00, 0x00, 0x00, 0x01, 0x00, 0x00, 0x00,
    0x00, 0x00, 0x0E, 0x00, 0x16, 0x00, 0x00, 0x00, 0x10, 0x00, 0x0C, 0x00,
    0x0B, 0x00, 0x04, 0x00, 0x0E, 0x00, 0x00, 0x00, 0x18, 0x00, 0x00, 0x00,
    0x00, 0x00, 0x00, 0x08, 0x18, 0x00, 0x00, 0x00, 0x1C, 0x00, 0x00, 0x00,
    0x00, 0x00, 0x06, 0x00, 0x08, 0x00, 0x07, 0x00, 0x06, 0x00, 0x00, 0x00,
    0x00, 0x00, 0x00, 0x01, 0x01, 0x00, 0x00, 0x00, 0x05, 0x00, 0x00, 0x00,
    0x03, 0x00, 0x00, 0x00, 0x00, 0x00, 0x00, 0x00, 0x03, 0x00, 0x00, 0x00,
    0x02, 0x00, 0x00, 0x00, 0x01, 0x00, 0x00, 0x00, 0x07, 0x00, 0x00, 0x00,
    0x01, 0x00, 0x00, 0x00, 0x00, 0x00, 0x00, 0x00, 0x08, 0x00, 0x00, 0x00,
    0xD0, 0x02, 0x00, 0x00, 0x60, 0x02, 0x00, 0x00, 0xF4, 0x01, 0x00, 0x00,
    0xAC, 0x01, 0x00, 0x00, 0x60, 0x01, 0x00, 0x00, 0xD8, 0x00, 0x00, 0x00,
    0x60, 0x00, 0x00, 0x00, 0x04, 0x00, 0x00, 0x00, 0x66, 0xFD, 0xFF, 0xFF,
    0x00, 0x00, 0x00, 0x01, 0x14, 0x00, 0x00, 0x00, 0x1C, 0x00, 0x00, 0x00,
    0x1C, 0x00, 0x00, 0x00, 0x08, 0x00, 0x00, 0x00, 0x34, 0x00, 0x00, 0x00,
    0x02, 0x00, 0x00, 0x00, 0xFF, 0xFF, 0xFF, 0xFF, 0x04, 0x00, 0x00, 0x00,
