//
// Created by ZONT_ on 10/25/2024.
//

#ifndef MODEL_HPP
#define MODEL_HPP

unsigned char model_bytes[21732] = {
  0x1c, 0x00, 0x00, 0x00, 0x54, 0x46, 0x4c, 0x33, 0x14, 0x00, 0x20, 0x00,
  0x1c, 0x00, 0x18, 0x00, 0x14, 0x00, 0x10, 0x00, 0x0c, 0x00, 0x00, 0x00,
  0x08, 0x00, 0x04, 0x00, 0x14, 0x00, 0x00, 0x00, 0x1c, 0x00, 0x00, 0x00,
  0x94, 0x00, 0x00, 0x00, 0xec, 0x00, 0x00, 0x00, 0x1c, 0x50, 0x00, 0x00,
  0x2c, 0x50, 0x00, 0x00, 0x80, 0x54, 0x00, 0x00, 0x03, 0x00, 0x00, 0x00,
  0x01, 0x00, 0x00, 0x00, 0x10, 0x00, 0x00, 0x00, 0x00, 0x00, 0x0a, 0x00,
  0x10, 0x00, 0x0c, 0x00, 0x08, 0x00, 0x04, 0x00, 0x0a, 0x00, 0x00, 0x00,
  0x0c, 0x00, 0x00, 0x00, 0x1c, 0x00, 0x00, 0x00, 0x3c, 0x00, 0x00, 0x00,
  0x0f, 0x00, 0x00, 0x00, 0x73, 0x65, 0x72, 0x76, 0x69, 0x6e, 0x67, 0x5f,
  0x64, 0x65, 0x66, 0x61, 0x75, 0x6c, 0x74, 0x00, 0x01, 0x00, 0x00, 0x00,
  0x04, 0x00, 0x00, 0x00, 0x94, 0xff, 0xff, 0xff, 0x07, 0x00, 0x00, 0x00,
  0x04, 0x00, 0x00, 0x00, 0x08, 0x00, 0x00, 0x00, 0x6f, 0x75, 0x74, 0x70,
  0x75, 0x74, 0x5f, 0x30, 0x00, 0x00, 0x00, 0x00, 0x01, 0x00, 0x00, 0x00,
  0x04, 0x00, 0x00, 0x00, 0xce, 0xaf, 0xff, 0xff, 0x04, 0x00, 0x00, 0x00,
  0x0b, 0x00, 0x00, 0x00, 0x69, 0x6e, 0x70, 0x75, 0x74, 0x5f, 0x6c, 0x61,
  0x79, 0x65, 0x72, 0x00, 0x02, 0x00, 0x00, 0x00, 0x34, 0x00, 0x00, 0x00,
  0x04, 0x00, 0x00, 0x00, 0xdc, 0xff, 0xff, 0xff, 0x0a, 0x00, 0x00, 0x00,
  0x04, 0x00, 0x00, 0x00, 0x13, 0x00, 0x00, 0x00, 0x43, 0x4f, 0x4e, 0x56,
  0x45, 0x52, 0x53, 0x49, 0x4f, 0x4e, 0x5f, 0x4d, 0x45, 0x54, 0x41, 0x44,
  0x41, 0x54, 0x41, 0x00, 0x08, 0x00, 0x0c, 0x00, 0x08, 0x00, 0x04, 0x00,
  0x08, 0x00, 0x00, 0x00, 0x09, 0x00, 0x00, 0x00, 0x04, 0x00, 0x00, 0x00,
  0x13, 0x00, 0x00, 0x00, 0x6d, 0x69, 0x6e, 0x5f, 0x72, 0x75, 0x6e, 0x74,
  0x69, 0x6d, 0x65, 0x5f, 0x76, 0x65, 0x72, 0x73, 0x69, 0x6f, 0x6e, 0x00,
  0x0b, 0x00, 0x00, 0x00, 0x2c, 0x4f, 0x00, 0x00, 0x24, 0x4f, 0x00, 0x00,
  0x14, 0x33, 0x00, 0x00, 0xcc, 0x32, 0x00, 0x00, 0xbc, 0x30, 0x00, 0x00,
  0xac, 0x00, 0x00, 0x00, 0xa4, 0x00, 0x00, 0x00, 0x9c, 0x00, 0x00, 0x00,
  0x94, 0x00, 0x00, 0x00, 0x74, 0x00, 0x00, 0x00, 0x04, 0x00, 0x00, 0x00,
  0x72, 0xb0, 0xff, 0xff, 0x04, 0x00, 0x00, 0x00, 0x60, 0x00, 0x00, 0x00,
  0x10, 0x00, 0x00, 0x00, 0x00, 0x00, 0x00, 0x00, 0x08, 0x00, 0x0e, 0x00,
  0x08, 0x00, 0x04, 0x00, 0x08, 0x00, 0x00, 0x00, 0x10, 0x00, 0x00, 0x00,
  0x24, 0x00, 0x00, 0x00, 0x00, 0x00, 0x06, 0x00, 0x08, 0x00, 0x04, 0x00,
  0x06, 0x00, 0x00, 0x00, 0x04, 0x00, 0x00, 0x00, 0x00, 0x00, 0x00, 0x00,
  0x0c, 0x00, 0x18, 0x00, 0x14, 0x00, 0x10, 0x00, 0x0c, 0x00, 0x04, 0x00,
  0x0c, 0x00, 0x00, 0x00, 0x81, 0x53, 0x22, 0xdb, 0xb6, 0xbd, 0xca, 0x7f,
  0x02, 0x00, 0x00, 0x00, 0x02, 0x00, 0x00, 0x00, 0x04, 0x00, 0x00, 0x00,
  0x06, 0x00, 0x00, 0x00, 0x32, 0x2e, 0x31, 0x37, 0x2e, 0x30, 0x00, 0x00,
  0xde, 0xb0, 0xff, 0xff, 0x04, 0x00, 0x00, 0x00, 0x10, 0x00, 0x00, 0x00,
  0x31, 0x2e, 0x35, 0x2e, 0x30, 0x00, 0x00, 0x00, 0x00, 0x00, 0x00, 0x00,
  0x00, 0x00, 0x00, 0x00, 0x50, 0xad, 0xff, 0xff, 0x54, 0xad, 0xff, 0xff,
  0x58, 0xad, 0xff, 0xff, 0x06, 0xb1, 0xff, 0xff, 0x04, 0x00, 0x00, 0x00,
  0x00, 0x30, 0x00, 0x00, 0xd2, 0x6b, 0x81, 0xbd, 0xbc, 0xb2, 0xa2, 0x3d,
  0xc2, 0x2f, 0x2f, 0xbf, 0x2b, 0x5c, 0x2b, 0x3f, 0xf9, 0xf0, 0x35, 0x3e,
  0xa7, 0x95, 0x03, 0x3e, 0xdd, 0x35, 0x3d, 0x3e, 0x1c, 0x98, 0x0c, 0xbe,
  0x6a, 0x55, 0x5a, 0x3f, 0x74, 0xde, 0x1e, 0x3f, 0xa2, 0xe1, 0x91, 0x3e,
  0xe4, 0xeb, 0xba, 0xbf, 0xbe, 0xce, 0x9e, 0x3e, 0x20, 0x1a, 0x37, 0xbf,
  0x18, 0x69, 0x6c, 0x3f, 0x0f, 0xc2, 0x77, 0xbf, 0xec, 0xc7, 0x51, 0xbe,
  0xde, 0x81, 0xe7, 0xbe, 0xe8, 0xc7, 0xb5, 0xbf, 0x41, 0x46, 0xb3, 0x3e,
  0xba, 0x8e, 0x02, 0xbd, 0x38, 0x2d, 0xdf, 0xbe, 0x89, 0xf6, 0xc0, 0x3e,
  0x88, 0xd6, 0x78, 0x3e, 0x45, 0x1a, 0x39, 0x3d, 0x28, 0x84, 0x38, 0xbd,
  0x59, 0xa8, 0x6e, 0xbf, 0x32, 0xbf, 0xf9, 0xbe, 0xf7, 0xf6, 0xcb, 0x3d,
  0x10, 0xd5, 0x0d, 0x3f, 0x3f, 0x41, 0x5f, 0x3f, 0x33, 0xd4, 0x27, 0xbf,
  0x24, 0x64, 0x7c, 0xbd, 0x8f, 0x2c, 0x7f, 0xbf, 0x00, 0xc0, 0x3b, 0xbf,
  0xf6, 0x2f, 0x93, 0xbe, 0xe2, 0x92, 0x83, 0x3f, 0x16, 0x41, 0xdf, 0x3e,
  0xcd, 0x24, 0x76, 0x3e, 0x9c, 0x72, 0xc9, 0xbe, 0x33, 0xed, 0x40, 0x3f,
  0x9c, 0x97, 0x65, 0x3d, 0x0b, 0x34, 0x1c, 0xbf, 0xde, 0x59, 0x8e, 0x3f,
  0x46, 0x91, 0xeb, 0xbc, 0x78, 0xa3, 0x83, 0x3e, 0x98, 0xd0, 0xaa, 0x3f,
  0xf4, 0x46, 0xeb, 0xbd, 0x9a, 0x8f, 0x84, 0xbf, 0x68, 0x17, 0x46, 0x3e,
  0xbc, 0x17, 0x34, 0xbf, 0x5a, 0x3c, 0x36, 0xbd, 0xe7, 0x5c, 0x13, 0xbf,
  0xbb, 0xfd, 0x01, 0x3e, 0xc2, 0x25, 0xe4, 0xbd, 0x6f, 0x71, 0xab, 0x3e,
  0xf1, 0x11, 0xae, 0x3f, 0x64, 0x2b, 0x32, 0xbf, 0x3c, 0xea, 0x6f, 0xbf,
  0xb7, 0xe7, 0xaf, 0x3e, 0x9f, 0x9a, 0x7a, 0xbd, 0x37, 0xa1, 0x35, 0xbf,
  0x42, 0xfe, 0xed, 0x3e, 0xf9, 0xff, 0xae, 0x3e, 0x7b, 0xd1, 0x84, 0x3e,
  0x06, 0xd4, 0x82, 0x3f, 0x5f, 0xd7, 0x83, 0xbf, 0x27, 0x04, 0x42, 0x3f,
  0x33, 0xba, 0x8b, 0xbe, 0x7d, 0xcf, 0x44, 0xbd, 0xde, 0x60, 0x45, 0x3f,
  0xd0, 0x86, 0x27, 0xbf, 0x37, 0x13, 0xf3, 0xbe, 0x4c, 0xff, 0x6c, 0xbf,
  0xda, 0xdf, 0xb4, 0x3f, 0x3f, 0x90, 0xca, 0x3e, 0x85, 0xc9, 0x05, 0xbf,
  0x59, 0x41, 0x23, 0x3d, 0xc4, 0x9f, 0x43, 0x3c, 0x22, 0x3c, 0xa5, 0x3f,
  0xa3, 0x5e, 0x82, 0x3f, 0x57, 0x80, 0x04, 0x3f, 0x79, 0x6a, 0xa1, 0xbf,
  0xde, 0x1e, 0x05, 0x3f, 0x41, 0x79, 0x92, 0xbf, 0xae, 0xbe, 0x19, 0x3f,
  0x03, 0x56, 0x83, 0xbe, 0xeb, 0xdf, 0xd1, 0x3e, 0xa6, 0x6b, 0xb2, 0xbf,
  0x89, 0x95, 0x97, 0xbf, 0x0a, 0x24, 0x1b, 0xbf, 0x42, 0x0b, 0x83, 0xbd,
  0x71, 0x9f, 0x7b, 0xbe, 0x0d, 0x91, 0x18, 0xbe, 0x30, 0x98, 0x14, 0xbf,
  0x52, 0x76, 0x9c, 0x3e, 0xa8, 0x04, 0xec, 0x3e, 0x2c, 0x31, 0x72, 0xbe,
  0x97, 0xbe, 0x06, 0x3f, 0x87, 0xc9, 0xa3, 0x3e, 0x66, 0xa7, 0x55, 0xbe,
  0x0b, 0xf2, 0x0e, 0xbf, 0x75, 0xfe, 0x45, 0x3f, 0x6e, 0x72, 0x78, 0xbf,
  0x5c, 0x9b, 0x89, 0x3d, 0x2c, 0xb6, 0xa9, 0xbf, 0x05, 0x83, 0x94, 0x3e,
  0xdd, 0x33, 0x97, 0x3f, 0x15, 0x8c, 0x87, 0xbf, 0xac, 0x14, 0x99, 0x3f,
  0xaf, 0xba, 0x42, 0xbf, 0x09, 0xb5, 0x83, 0x3d, 0x85, 0x34, 0x0f, 0xbf,
  0x00, 0xcf, 0x05, 0x3f, 0x22, 0xe7, 0x2a, 0xbe, 0x2e, 0x23, 0x04, 0x3f,
  0x0a, 0x3a, 0x4e, 0xbf, 0x33, 0xbd, 0x28, 0xbe, 0x71, 0x45, 0x6f, 0xbe,
  0xc7, 0xc5, 0xce, 0x3d, 0x3b, 0x61, 0x8e, 0xbf, 0xb0, 0x19, 0x38, 0xbe,
  0x63, 0xbf, 0xce, 0x3e, 0x9b, 0x43, 0xef, 0x3e, 0x16, 0x9f, 0xb5, 0xbe,
  0x27, 0x71, 0x6a, 0x3d, 0x7b, 0xd9, 0xc4, 0xbb, 0x1c, 0x51, 0x4b, 0x3f,
  0xdf, 0x8c, 0xa9, 0xbe, 0x51, 0x52, 0x5c, 0xbf, 0x2c, 0x17, 0xcf, 0x3e,
  0x1f, 0xbd, 0x8a, 0x3f, 0x89, 0x80, 0x98, 0xba, 0xdb, 0x2f, 0x21, 0xbf,
  0xf7, 0xdc, 0x07, 0xbf, 0xfd, 0xe0, 0x56, 0x3f, 0x54, 0xea, 0x60, 0xbe,
  0x3e, 0xc3, 0x87, 0x3e, 0xdc, 0xf7, 0xa2, 0x3d, 0xbf, 0x22, 0x8a, 0xbe,
  0xb2, 0x9f, 0xf0, 0x3f, 0xc1, 0x0b, 0xfa, 0x3e, 0x32, 0x37, 0x04, 0x3f,
  0x68, 0x87, 0x91, 0xbe, 0x5d, 0x3c, 0x3d, 0xbc, 0xaf, 0x82, 0x82, 0x3e,
  0x75, 0xee, 0x31, 0x3f, 0x0d, 0x99, 0x6d, 0x3f, 0x39, 0x49, 0xe9, 0xbf,
  0xad, 0xb9, 0x0c, 0x3f, 0x92, 0x28, 0x11, 0xbf, 0x17, 0xa1, 0x26, 0x3e,
  0x86, 0x75, 0x09, 0x3f, 0x51, 0xf3, 0x09, 0x3f, 0x71, 0x14, 0x9a, 0xbf,
  0xe7, 0x5d, 0x5d, 0x3e, 0x58, 0x0c, 0xce, 0xbe, 0x97, 0x43, 0x8a, 0xbe,
  0x67, 0x4f, 0xd0, 0x3e, 0x33, 0x94, 0xb6, 0x3e, 0x8a, 0x3e, 0x49, 0x3e,
  0xab, 0x00, 0x4c, 0xbf, 0xa3, 0xcb, 0x7f, 0x3f, 0x0f, 0xfc, 0x04, 0xbf,
  0x05, 0xd6, 0xa9, 0x3e, 0xcc, 0x98, 0x61, 0xbf, 0x71, 0x51, 0xc6, 0x3e,
  0xca, 0x74, 0xb6, 0xbe, 0x63, 0x4f, 0xa1, 0xbf, 0x79, 0x3c, 0x03, 0xbf,
  0x8a, 0xbd, 0x5f, 0x3e, 0xdc, 0x70, 0x73, 0x3e, 0x05, 0x52, 0x54, 0xbf,
  0xea, 0xd7, 0x17, 0xbf, 0xfb, 0xce, 0xa3, 0x3f, 0x1a, 0xd3, 0x00, 0xbf,
  0x97, 0x4f, 0x8e, 0x3f, 0x61, 0x9d, 0xbc, 0xbe, 0x34, 0xc3, 0x88, 0x3e,
  0xdc, 0xb2, 0x91, 0x3f, 0x5f, 0xf6, 0x15, 0xbe, 0xdc, 0x66, 0x9c, 0x3f,
  0x4c, 0xfc, 0x79, 0x3f, 0x4e, 0x8e, 0x2b, 0xbf, 0x38, 0x01, 0x96, 0x3e,
  0x8c, 0xc9, 0xf7, 0x3e, 0x78, 0x92, 0xb5, 0x3e, 0xa7, 0xaf, 0xcf, 0xbe,
  0x7a, 0x46, 0xc4, 0xbe, 0xdf, 0xc9, 0x8b, 0x3e, 0x52, 0x2b, 0xb5, 0x3e,
  0x9a, 0x08, 0xea, 0xbe, 0x8b, 0xf7, 0x91, 0x3f, 0x1f, 0x3c, 0xa5, 0x3d,
  0x6c, 0xc9, 0x88, 0xbf, 0x4b, 0xcf, 0x53, 0xbf, 0x90, 0x80, 0x4a, 0x3e,
  0x26, 0x58, 0xb4, 0x3f, 0x4a, 0xd3, 0x90, 0xbe, 0xbb, 0xd8, 0x06, 0x3f,
  0xc9, 0xc9, 0x9d, 0xbf, 0x92, 0xfb, 0x8e, 0x3f, 0x09, 0xbf, 0x43, 0xbe,
  0xbd, 0xd3, 0x06, 0xbf, 0x11, 0x14, 0x4f, 0xbe, 0xb2, 0x39, 0x00, 0x3e,
  0xe9, 0x8a, 0xf2, 0x3e, 0x40, 0x3c, 0xcc, 0x3c, 0x3d, 0xee, 0x11, 0xbe,
  0x83, 0x75, 0xa3, 0x3e, 0xf1, 0x22, 0x2c, 0xbf, 0x0f, 0xc2, 0x2a, 0x3f,
  0x50, 0x4f, 0xce, 0x3e, 0x2d, 0x8d, 0x70, 0xbf, 0x24, 0x32, 0x11, 0xbe,
  0xa8, 0xfe, 0x93, 0xbe, 0x98, 0xbe, 0xf2, 0xbf, 0xad, 0x42, 0x28, 0xbf,
  0xee, 0x71, 0xc2, 0xbd, 0x33, 0x56, 0x14, 0x3f, 0x3f, 0x91, 0x14, 0x3f,
  0xbb, 0x74, 0x67, 0xbe, 0x8e, 0xac, 0x08, 0x3d, 0x38, 0xa9, 0x59, 0xbf,
  0xcb, 0x39, 0x5b, 0x3f, 0xfe, 0x62, 0x5f, 0xbf, 0x84, 0xf7, 0x2f, 0xbe,
  0xe6, 0x9a, 0x6e, 0xbf, 0x05, 0x11, 0xcc, 0xbe, 0x04, 0x10, 0x52, 0x3d,
  0xeb, 0x01, 0x2a, 0xbe, 0x05, 0xd3, 0xa6, 0xbd, 0x4a, 0xd1, 0xee, 0x3e,
  0x16, 0xc4, 0x30, 0x3f, 0x9c, 0x17, 0x9b, 0xbd, 0xcd, 0x45, 0x6e, 0xbd,
  0x43, 0xf7, 0xd5, 0x3f, 0xb6, 0x5e, 0x16, 0x3e, 0x97, 0x1d, 0xa9, 0xbe,
  0xc8, 0xd5, 0x38, 0xbe, 0xb8, 0x3f, 0x41, 0x3f, 0xff, 0x1e, 0xf8, 0xbe,
  0x7b, 0x14, 0x85, 0x3d, 0xee, 0xe0, 0xdf, 0x3c, 0xa4, 0xa5, 0xc8, 0x3f,
  0x31, 0x6c, 0x60, 0x3f, 0xb1, 0xa1, 0x0f, 0x3e, 0xb9, 0x7f, 0x93, 0xbe,
  0x4c, 0x6e, 0xa6, 0xbd, 0x94, 0x84, 0x3c, 0x3e, 0xf2, 0x45, 0x57, 0xbd,
  0x07, 0xde, 0xc7, 0x3c, 0x9f, 0x16, 0x00, 0xbf, 0x03, 0x0b, 0xc1, 0x3c,
  0x8e, 0x71, 0x8a, 0xbd, 0x9e, 0x13, 0x8f, 0xbf, 0x6a, 0x41, 0x14, 0xbf,
  0x15, 0x2c, 0x15, 0xbf, 0x1c, 0x8b, 0x17, 0xbe, 0x17, 0x66, 0x74, 0x3c,
  0x0b, 0xc0, 0xfc, 0xbe, 0x87, 0x20, 0x9e, 0x3e, 0xd0, 0xb0, 0x92, 0xbf,
  0xec, 0xd1, 0x0f, 0x3f, 0x8b, 0x5c, 0x03, 0x3f, 0x53, 0x35, 0x18, 0xbe,
  0x1d, 0x34, 0x57, 0xbf, 0xf3, 0x06, 0x3b, 0x3f, 0x72, 0x04, 0x52, 0x3e,
  0x0e, 0x55, 0xa1, 0xbe, 0x9b, 0xdd, 0x95, 0x3e, 0xba, 0x75, 0x9a, 0xbf,
  0xbb, 0x22, 0x1f, 0x3d, 0x4c, 0x10, 0xab, 0x3e, 0xba, 0xc4, 0xe2, 0x3e,
  0xf1, 0x42, 0xb1, 0x3e, 0xb9, 0xb5, 0x49, 0xbf, 0x44, 0xd5, 0xbe, 0xbd,
  0x32, 0x19, 0xab, 0x3f, 0xff, 0xcd, 0x7c, 0x3e, 0x78, 0x04, 0xc7, 0xbd,
  0x90, 0x8d, 0x8a, 0xbf, 0x5f, 0x16, 0xcf, 0x3e, 0xc9, 0xc1, 0x68, 0xbe,
  0xd6, 0x5b, 0x8d, 0x3f, 0x8e, 0x9d, 0x23, 0xbe, 0x03, 0xbd, 0xb7, 0x3d,
  0x3e, 0xe8, 0x4a, 0xbf, 0x8d, 0x5d, 0xb3, 0x3d, 0x03, 0x6d, 0x86, 0x3f,
  0x04, 0xbd, 0x66, 0x3e, 0xc0, 0x84, 0x90, 0xbf, 0xa6, 0xc5, 0x24, 0x3e,
  0xca, 0x47, 0x15, 0xbf, 0x34, 0xdc, 0x73, 0xbb, 0x30, 0x92, 0xc3, 0x3f,
  0xce, 0x7f, 0xcf, 0x3e, 0xdb, 0x0f, 0x01, 0x3f, 0x85, 0x18, 0x71, 0x3f,
  0x5a, 0x74, 0x02, 0x3f, 0xdf, 0xb7, 0x0b, 0x3f, 0xf4, 0x94, 0xff, 0x3e,
  0x41, 0x77, 0x32, 0x3f, 0xcd, 0xc9, 0x68, 0xbf, 0xec, 0xa9, 0x0e, 0x3f,
  0xd9, 0x8f, 0x4b, 0xbf, 0xe8, 0xdb, 0x85, 0xbe, 0x13, 0xd2, 0x2b, 0xbf,
  0x5e, 0x5b, 0xb2, 0x3e, 0xa8, 0xb2, 0x6c, 0xbe, 0xa6, 0xe3, 0xb4, 0xbc,
  0x86, 0x40, 0xda, 0x3c, 0x0b, 0x41, 0xdc, 0xbc, 0x1b, 0x95, 0x2f, 0xbf,
  0x99, 0x9e, 0x8f, 0x3e, 0xf6, 0x9f, 0x13, 0x3f, 0xee, 0xe6, 0x6b, 0xbe,
  0xc7, 0x6d, 0x54, 0xbe, 0x41, 0x89, 0x9d, 0xbe, 0x6a, 0x4f, 0x3b, 0xbf,
  0x15, 0xb5, 0xa9, 0xbe, 0x7f, 0x48, 0x9b, 0x3e, 0xec, 0x14, 0x80, 0x3e,
  0x70, 0x89, 0xba, 0xbf, 0xd2, 0x16, 0x15, 0x3f, 0x79, 0xc4, 0x04, 0x3f,
  0xd0, 0xd6, 0xff, 0xbd, 0x06, 0x2b, 0x48, 0xbe, 0x8c, 0x10, 0x7b, 0xbf,
  0x3c, 0x53, 0xe6, 0xbd, 0xee, 0x86, 0xb4, 0xbe, 0xc8, 0x04, 0xe2, 0x3e,
  0x4a, 0x96, 0xb7, 0xbf, 0xfb, 0xa7, 0xba, 0x3c, 0xcb, 0x93, 0x5c, 0x3f,
  0x90, 0xe0, 0xf6, 0xbe, 0x16, 0x72, 0x10, 0xbf, 0x6a, 0x77, 0x88, 0x3e,
  0x46, 0x22, 0x08, 0x3f, 0x7b, 0x7b, 0x17, 0xbe, 0xa1, 0x57, 0xef, 0x3d,
  0x62, 0x8f, 0x02, 0x3f, 0x15, 0xbe, 0xec, 0x3d, 0x4a, 0xe7, 0x30, 0xbf,
  0x0d, 0xf8, 0x86, 0x3d, 0x4b, 0x61, 0x99, 0xbf, 0x55, 0x63, 0x46, 0x3f,
  0xed, 0x84, 0x2a, 0xbf, 0x5e, 0x80, 0x0c, 0x3f, 0xe5, 0x50, 0x83, 0xbf,
  0xd3, 0x49, 0x9c, 0xbd, 0x21, 0xea, 0x05, 0xbf, 0x5a, 0x88, 0xa2, 0x3d,
  0xcd, 0x96, 0x99, 0x3e, 0x30, 0xb0, 0x73, 0x3f, 0x30, 0x8e, 0x92, 0x3d,
  0x1e, 0xce, 0xdb, 0xbe, 0x48, 0xa4, 0x11, 0x3f, 0x91, 0xe5, 0x37, 0x3f,
  0x8f, 0x66, 0x84, 0xbd, 0xaf, 0xc9, 0x65, 0xbf, 0xa4, 0x70, 0x5e, 0xbd,
  0xbc, 0x28, 0x99, 0x3e, 0x61, 0xdc, 0x41, 0xbf, 0x3f, 0x33, 0xfa, 0xbe,
  0xdb, 0xe1, 0x40, 0x3b, 0x97, 0x5a, 0xa6, 0xbf, 0xb7, 0xf3, 0x80, 0xbd,
  0xaa, 0x86, 0x30, 0x3c, 0xab, 0xed, 0x26, 0x3e, 0x7e, 0xb4, 0x46, 0xbf,
  0x1f, 0x2e, 0x27, 0x3c, 0x0a, 0x6a, 0x91, 0xbe, 0x7e, 0x50, 0x81, 0x3f,
  0x0e, 0x17, 0x3e, 0xbf, 0x07, 0x95, 0x85, 0xbe, 0xcf, 0xcc, 0x6e, 0x3e,
  0x7e, 0x94, 0x11, 0x40, 0x69, 0x04, 0x4e, 0x3f, 0x52, 0x4e, 0x24, 0xbc,
  0x80, 0x17, 0x85, 0x3e, 0x62, 0xaf, 0xfc, 0xbd, 0xf0, 0xe5, 0xa1, 0xbe,
  0x99, 0x72, 0xce, 0xbe, 0x98, 0xe6, 0xcc, 0xbe, 0x5e, 0x49, 0x5c, 0x3f,
  0xcf, 0x48, 0x64, 0xbe, 0x4b, 0xce, 0x76, 0xbf, 0x90, 0x88, 0x3d, 0xbf,
  0x42, 0xbe, 0x6f, 0x3f, 0x49, 0xd0, 0x72, 0xbf, 0xc8, 0x63, 0x5b, 0xbe,
  0x4f, 0xe0, 0x01, 0x3f, 0x86, 0x6e, 0x14, 0x3e, 0x9e, 0xd2, 0x30, 0x3e,
  0x23, 0xca, 0xd6, 0xbe, 0x2e, 0xfc, 0x8a, 0xbe, 0x0f, 0x21, 0xc2, 0x3f,
  0x8e, 0xf9, 0x0b, 0xbe, 0x15, 0xb1, 0x01, 0xbf, 0x10, 0x96, 0x4b, 0x3f,
  0x06, 0x8f, 0x7b, 0x3f, 0xe3, 0x29, 0x72, 0x3f, 0x25, 0xf8, 0xce, 0x3e,
  0xa4, 0xd9, 0x00, 0xbf, 0x8a, 0x27, 0x20, 0x3f, 0x9d, 0x23, 0x92, 0xbf,
  0x44, 0xaa, 0xcf, 0xbe, 0xd0, 0xc2, 0xc4, 0x3d, 0x09, 0x2b, 0x49, 0x3e,
  0x89, 0xbe, 0x4f, 0x3f, 0x6b, 0x7a, 0x02, 0xbf, 0x99, 0x9b, 0x09, 0xbf,
  0xd0, 0xb9, 0xad, 0xbd, 0xa5, 0x27, 0xbc, 0xbe, 0xab, 0x47, 0x10, 0xbf,
  0x43, 0xa5, 0x6a, 0x3f, 0x36, 0xfc, 0xfb, 0x3e, 0x58, 0x4f, 0x1b, 0x3f,
  0x06, 0x70, 0x0e, 0xbf, 0xc4, 0x00, 0x25, 0x3f, 0x5f, 0x15, 0xff, 0xbe,
  0x36, 0x0c, 0xd1, 0xbe, 0xc9, 0x21, 0x70, 0x3f, 0x6f, 0x3c, 0x85, 0x3c,
  0x37, 0x07, 0x6b, 0xbf, 0x1c, 0xe0, 0x11, 0x3f, 0x6f, 0x79, 0x0a, 0xbf,
  0x5d, 0x85, 0xab, 0x3e, 0xe5, 0x72, 0x9d, 0x3e, 0x37, 0x7b, 0x84, 0x3e,
  0xe9, 0x55, 0x92, 0x3f, 0x81, 0xc6, 0x94, 0xbe, 0xb0, 0x53, 0x9c, 0xbe,
  0xff, 0x5d, 0x31, 0x3f, 0x21, 0x0c, 0x58, 0x3f, 0x27, 0x0d, 0x56, 0xbe,
  0xff, 0xb6, 0xfc, 0xbe, 0x78, 0x47, 0x8d, 0x3f, 0xf6, 0xf4, 0xde, 0xbe,
  0x32, 0x7a, 0x02, 0x3e, 0x6f, 0xaf, 0x1e, 0xbf, 0x63, 0x64, 0xac, 0x3e,
  0x0d, 0x33, 0x49, 0xbe, 0x4d, 0x62, 0xbd, 0xbc, 0x0d, 0xc4, 0x47, 0xbf,
  0xf8, 0x04, 0xab, 0x3e, 0x2c, 0xc2, 0x80, 0xbe, 0xb1, 0xe9, 0x16, 0x3f,
  0x43, 0x47, 0x29, 0x3d, 0x64, 0x45, 0xdd, 0xbb, 0xba, 0xe1, 0xba, 0xbc,
  0x19, 0xf8, 0x8f, 0x3f, 0x2d, 0xa5, 0x4b, 0x3f, 0x54, 0xae, 0x59, 0x3f,
  0x8c, 0x5c, 0x79, 0xbf, 0xbe, 0x29, 0x95, 0xbd, 0x3a, 0x06, 0x11, 0xbf,
  0x43, 0x69, 0xb9, 0x3d, 0x45, 0x0a, 0x08, 0x40, 0x33, 0xd6, 0x83, 0xbf,
  0xdf, 0x23, 0x8c, 0x3f, 0x78, 0x83, 0x08, 0x3f, 0x58, 0x13, 0xf4, 0xb6,
  0x08, 0x1a, 0xb7, 0xbd, 0xc8, 0x05, 0xf7, 0x3d, 0x0a, 0x81, 0x1b, 0x3f,
  0x79, 0xc9, 0xb5, 0x3e, 0xb5, 0x3f, 0xd7, 0x3e, 0x29, 0x57, 0xe0, 0x3e,
  0x18, 0x15, 0x06, 0xbc, 0x66, 0x2e, 0x24, 0xbf, 0xb7, 0x83, 0x36, 0x3f,
  0xe5, 0x1a, 0x90, 0xbe, 0x97, 0x60, 0x34, 0x3f, 0xb6, 0x4b, 0x2d, 0xbf,
  0xe3, 0x41, 0x33, 0xbe, 0x4b, 0x4e, 0x77, 0xbd, 0xd7, 0x88, 0xac, 0xbf,
  0x5b, 0x60, 0x4b, 0xbe, 0x4c, 0x62, 0x60, 0xbe, 0x83, 0x02, 0x5a, 0xbe,
  0x66, 0x94, 0x2f, 0xbe, 0xdf, 0x17, 0x40, 0xbe, 0x12, 0x60, 0x02, 0x40,
  0x28, 0x1e, 0x8c, 0xbe, 0x9b, 0xb3, 0x3b, 0x3e, 0xaf, 0xe9, 0x85, 0x3e,
  0xe0, 0x0e, 0x3a, 0xbf, 0x5f, 0x68, 0xa9, 0x3e, 0x1c, 0xd6, 0xcb, 0xbe,
  0x00, 0x7a, 0x45, 0xbf, 0x05, 0x93, 0x7e, 0x3e, 0xae, 0x2b, 0x63, 0x3f,
  0xfe, 0x12, 0x86, 0xbf, 0x20, 0xd8, 0xea, 0xbe, 0x1e, 0x36, 0x82, 0xbf,
  0x69, 0x53, 0x35, 0xbe, 0xf9, 0xa6, 0x44, 0xbe, 0x5b, 0xf7, 0x70, 0x3e,
  0x1c, 0x90, 0x69, 0x3d, 0x41, 0xc1, 0xdb, 0x3d, 0x02, 0x66, 0x77, 0xbf,
  0x62, 0xe4, 0x39, 0xbd, 0x79, 0x9d, 0x1f, 0xbe, 0xa0, 0xc7, 0x86, 0x3f,
  0xcb, 0x38, 0xb8, 0x3e, 0x36, 0x5e, 0x27, 0x3f, 0xc9, 0x15, 0x91, 0xbe,
  0x4f, 0x59, 0x9f, 0xbf, 0x71, 0x2b, 0x1a, 0xbf, 0x9d, 0x71, 0x9a, 0xbf,
  0x48, 0x2a, 0xa1, 0xbd, 0xc3, 0x4f, 0x44, 0x3f, 0xbe, 0xdc, 0x4d, 0x3f,
  0xf1, 0x1a, 0xa9, 0x3e, 0xa7, 0x72, 0xaf, 0xbe, 0x12, 0x00, 0x00, 0xbf,
  0xc2, 0xa9, 0xc0, 0x3e, 0x16, 0x21, 0xe3, 0x3d, 0xdc, 0x27, 0xaa, 0xbe,
  0x5b, 0x4c, 0x8c, 0x3e, 0x62, 0x23, 0x24, 0x3f, 0x14, 0x20, 0x2e, 0x3f,
  0x0b, 0xfb, 0x5d, 0xbf, 0xfb, 0x1e, 0x9f, 0xbd, 0xf6, 0x5b, 0x32, 0x3f,
  0x1c, 0xb2, 0x9d, 0xbd, 0x0b, 0x1b, 0xa0, 0xbe, 0x17, 0xe9, 0x49, 0x3f,
  0x99, 0x68, 0xa0, 0xbe, 0xe4, 0x48, 0x1a, 0xbf, 0xa5, 0xd5, 0x3b, 0xbe,
  0x24, 0x49, 0x11, 0xbf, 0x00, 0xbd, 0xac, 0x3e, 0x44, 0x46, 0x7b, 0x3d,
  0xfd, 0x51, 0x0c, 0x40, 0xa5, 0xd3, 0xa7, 0xbe, 0x00, 0xd2, 0xc9, 0x3e,
  0x19, 0xa9, 0xe9, 0xbc, 0xa1, 0xf8, 0x5f, 0x3d, 0x4a, 0x82, 0xda, 0x3e,
  0xd6, 0x82, 0x0b, 0xbe, 0x73, 0xd9, 0x73, 0x3e, 0x2a, 0x77, 0xc1, 0xbe,
  0x80, 0x22, 0x36, 0xbf, 0x85, 0x5c, 0xf9, 0xbc, 0x0b, 0x86, 0x3a, 0x3f,
  0xb3, 0x42, 0x2d, 0xbf, 0x30, 0x10, 0x22, 0xbe, 0xab, 0x4a, 0x83, 0xbf,
  0x00, 0x69, 0x15, 0x3f, 0xd2, 0x59, 0xdb, 0x3e, 0x2a, 0xfb, 0xc8, 0x3e,
  0x9d, 0x59, 0xd2, 0xbe, 0x60, 0x07, 0x34, 0xbf, 0x19, 0x9c, 0xd1, 0xbe,
  0xbc, 0xac, 0x42, 0xbf, 0x68, 0x2d, 0xf2, 0x3e, 0xf7, 0x52, 0x1e, 0x3f,
  0x7a, 0x9d, 0xbb, 0xbe, 0x75, 0x6a, 0x66, 0xbe, 0xc4, 0x1c, 0x7c, 0xbf,
  0x87, 0xfe, 0x82, 0x3e, 0x2e, 0xf1, 0x77, 0xbf, 0x3a, 0x30, 0x35, 0xbf,
  0x12, 0x25, 0x22, 0x3f, 0x73, 0x73, 0x2f, 0xbe, 0x08, 0xa9, 0xd9, 0x3e,
  0xe8, 0xcd, 0x1f, 0x3d, 0x2a, 0x41, 0xa7, 0xbf, 0x4d, 0xc5, 0x5a, 0x3e,
  0x7d, 0xbb, 0x15, 0xbf, 0x04, 0x1b, 0x50, 0xbf, 0xf4, 0xfd, 0xdd, 0x3d,
  0xcb, 0xfb, 0x24, 0x3d, 0xa5, 0xaf, 0x98, 0x3f, 0xef, 0xbf, 0xa9, 0xbd,
  0x0e, 0x71, 0x9f, 0xbe, 0xb8, 0xdb, 0x62, 0x3f, 0x8c, 0xda, 0x2b, 0xbe,
  0x0e, 0xe6, 0x24, 0xbf, 0x0e, 0x25, 0x3e, 0xbf, 0x0f, 0xfa, 0x0f, 0xbd,
  0x29, 0xd0, 0x2f, 0x3f, 0x90, 0x32, 0x3f, 0x3e, 0xbb, 0xad, 0x70, 0x3e,
  0x51, 0x3a, 0xdf, 0xbe, 0x28, 0xc1, 0x83, 0x3e, 0x0f, 0x96, 0x3f, 0xbe,
  0x8c, 0x9c, 0xda, 0xbe, 0xb4, 0x77, 0x66, 0xbf, 0x8d, 0x22, 0x26, 0x3e,
  0x20, 0xa6, 0x5d, 0x3f, 0x8d, 0x6b, 0x1a, 0x3f, 0x3f, 0x2a, 0xd6, 0x3e,
  0x9b, 0xe7, 0x2f, 0xbe, 0xb5, 0xd2, 0x7e, 0x3e, 0x6b, 0xe0, 0x43, 0xbf,
  0xcf, 0x21, 0x8b, 0x3f, 0xc0, 0xdd, 0x08, 0x3f, 0xa8, 0x03, 0x5f, 0x3f,
  0xd2, 0x00, 0x64, 0xbf, 0xe0, 0x30, 0x09, 0xbf, 0x13, 0x64, 0x92, 0xbf,
  0x38, 0x7b, 0xe1, 0xbe, 0x18, 0x29, 0x42, 0x3f, 0x6b, 0xe7, 0xe3, 0xbe,
  0x27, 0xbd, 0x13, 0x3f, 0xd6, 0xfe, 0x00, 0x3f, 0x4b, 0xe8, 0x24, 0xbe,
  0xa9, 0x14, 0x54, 0x3f, 0xde, 0x19, 0x22, 0xbf, 0xb6, 0xdf, 0x05, 0xbf,
  0x75, 0x11, 0x6f, 0x3f, 0x62, 0x0c, 0xb3, 0xbd, 0xbf, 0x8f, 0x9a, 0x3e,
  0xed, 0x7a, 0x11, 0x3d, 0x47, 0xb4, 0xae, 0xbe, 0x4a, 0xe2, 0x36, 0x3f,
  0x4b, 0x46, 0x98, 0x3e, 0x6f, 0xb4, 0xb1, 0xbf, 0xab, 0xf7, 0x44, 0xbe,
  0xfa, 0x8b, 0xe7, 0xbe, 0xdd, 0xa9, 0x63, 0x3d, 0x40, 0x0e, 0x69, 0x3e,
  0xfc, 0x3a, 0x18, 0xbf, 0x39, 0x87, 0xa0, 0xbe, 0x54, 0xb9, 0xb1, 0xbd,
  0x0e, 0xdc, 0x87, 0xbe, 0x3a, 0xac, 0xb3, 0x3e, 0x2d, 0xce, 0xdc, 0xbe,
  0x7c, 0x54, 0x9a, 0xbe, 0xb7, 0x61, 0xa3, 0x3f, 0x0f, 0x8a, 0x7b, 0x3e,
  0xab, 0x24, 0x46, 0x3f, 0xcc, 0xca, 0xbe, 0xbe, 0xd7, 0x77, 0xc8, 0xbe,
  0x47, 0x53, 0xeb, 0x3e, 0x91, 0x16, 0x2f, 0x3f, 0x1f, 0x7f, 0x91, 0xbe,
  0xcc, 0x72, 0xf4, 0x3d, 0x76, 0xb4, 0x0f, 0x3f, 0x9a, 0x15, 0xbe, 0xbf,
  0xbb, 0x60, 0x3d, 0x3e, 0x50, 0xcc, 0x98, 0x3e, 0xcb, 0xa8, 0xc7, 0x3e,
  0xda, 0xe5, 0x8e, 0x3f, 0x64, 0x66, 0xcc, 0xbe, 0x9d, 0xda, 0x10, 0xbf,
  0x3a, 0xe5, 0x10, 0x3f, 0xe1, 0x26, 0x3c, 0x3d, 0x38, 0x63, 0x46, 0xbe,
  0x3a, 0x34, 0x1c, 0x3f, 0xf7, 0x38, 0xac, 0x3e, 0x3c, 0xb0, 0x91, 0x3f,
  0x45, 0xda, 0x55, 0xbf, 0x81, 0x78, 0x1d, 0xbf, 0x6c, 0x5e, 0x34, 0xbe,
  0xb2, 0x14, 0xcb, 0x3f, 0xb5, 0x30, 0xb1, 0xbe, 0x24, 0xd7, 0x28, 0xbe,
  0xd6, 0xf6, 0x61, 0xbe, 0x32, 0x0e, 0x30, 0x3f, 0xf5, 0x2c, 0x8b, 0xbf,
  0xb2, 0xbd, 0x02, 0xbf, 0xf3, 0x8b, 0xa2, 0x3e, 0x84, 0xa8, 0x29, 0x3b,
  0xe1, 0xfd, 0x97, 0x3f, 0xae, 0xe8, 0x14, 0xbf, 0x4c, 0xd9, 0xe6, 0x3e,
  0xc7, 0x0f, 0x91, 0xbf, 0xa1, 0x81, 0x9d, 0xbe, 0xe9, 0x57, 0x8c, 0xbf,
  0xcf, 0x1d, 0x6d, 0xbe, 0x76, 0x3d, 0xce, 0x3f, 0x33, 0xc4, 0x34, 0xbd,
  0xc6, 0x8d, 0xe2, 0xbe, 0xc8, 0x11, 0xed, 0x3e, 0x3a, 0x65, 0xc6, 0x3e,
  0x39, 0x20, 0x99, 0xbf, 0x58, 0x0a, 0xe4, 0x3e, 0xa2, 0x42, 0x2b, 0x3f,
  0x07, 0x42, 0x58, 0x3f, 0x8a, 0x9f, 0x5d, 0xbf, 0x50, 0xfd, 0xef, 0xbc,
  0xa4, 0x3a, 0x5b, 0xbe, 0x25, 0xce, 0x7b, 0x3f, 0x47, 0x4b, 0x20, 0x3f,
  0x4b, 0x3d, 0x72, 0xbf, 0x1f, 0xdb, 0xc2, 0x3e, 0x49, 0x74, 0x83, 0xbf,
  0x25, 0x33, 0xed, 0x3d, 0x9f, 0x79, 0xbf, 0x3e, 0xd7, 0xa9, 0xd0, 0x3d,
  0x60, 0xf7, 0x9c, 0xbe, 0xfc, 0xe8, 0x82, 0x3d, 0xb5, 0xba, 0xe2, 0x3d,
  0x2c, 0x01, 0x58, 0xbf, 0xa3, 0x55, 0x5c, 0x3f, 0xd5, 0x89, 0x01, 0xbf,
  0x54, 0xd0, 0xd0, 0xbe, 0x60, 0x3b, 0x88, 0x3d, 0x4e, 0xc5, 0x02, 0x3f,
  0x45, 0xfd, 0x21, 0xbf, 0x3e, 0x1d, 0x46, 0xbf, 0x07, 0xec, 0xe9, 0x3d,
  0x0e, 0x69, 0x52, 0x3f, 0x56, 0x10, 0xcb, 0x3e, 0x89, 0x3a, 0x70, 0xbe,
  0x28, 0x51, 0x6d, 0x3c, 0x64, 0xc9, 0x46, 0xbf, 0xbd, 0xa9, 0x2b, 0x3f,
  0x9e, 0xd5, 0xda, 0xbe, 0x32, 0xd8, 0x66, 0x3e, 0x9a, 0xbc, 0x09, 0xbf,
  0x22, 0x4e, 0x99, 0x3f, 0xa2, 0x64, 0xf1, 0x3e, 0xaa, 0xb9, 0xa0, 0xbf,
  0x3a, 0x26, 0x7c, 0x3f, 0xc7, 0xe7, 0x40, 0xbf, 0x2c, 0xa4, 0x4a, 0xbe,
  0xc8, 0xcf, 0x82, 0x3f, 0x54, 0xe5, 0x09, 0xbe, 0x6e, 0x3f, 0x8f, 0x3e,
  0xef, 0xb1, 0x14, 0x3f, 0x81, 0x78, 0x0e, 0x3f, 0x56, 0xa9, 0x77, 0xbf,
  0xb4, 0xf8, 0xb2, 0xbe, 0x33, 0x30, 0x98, 0x3f, 0xb2, 0x77, 0xf4, 0xbd,
  0xb7, 0x3d, 0x8a, 0x3f, 0x48, 0x72, 0x94, 0x3e, 0x81, 0x73, 0xa9, 0x3e,
  0xcb, 0x90, 0xa1, 0x3d, 0x14, 0xd7, 0xe9, 0xbe, 0x78, 0xc6, 0x25, 0x3e,
  0x6c, 0x00, 0x12, 0x3f, 0x5a, 0x70, 0x46, 0xbf, 0xe5, 0xcd, 0x53, 0xbe,
  0xe2, 0x93, 0x5a, 0xbf, 0xbf, 0xff, 0x64, 0xbf, 0x9b, 0x18, 0xe9, 0x3e,
  0x57, 0x02, 0x61, 0xbe, 0xf4, 0x33, 0x8f, 0xbf, 0xc5, 0x49, 0xeb, 0x3e,
  0x81, 0x9b, 0xa0, 0xbe, 0xd1, 0xa3, 0xab, 0xbd, 0x10, 0x1b, 0xf4, 0xbe,
  0x67, 0xb1, 0xdc, 0x3e, 0xca, 0xf1, 0x1c, 0x3f, 0x98, 0xa7, 0x78, 0xbf,
  0x6a, 0x19, 0x17, 0xbe, 0x52, 0x6b, 0xa3, 0x3e, 0x55, 0xbd, 0x67, 0x3f,
  0xc7, 0xa5, 0xda, 0x3e, 0x36, 0x49, 0x1a, 0xbf, 0x95, 0xa8, 0x46, 0x3f,
  0xe3, 0xe8, 0x1a, 0x3f, 0x6c, 0xfe, 0x22, 0x3f, 0xe2, 0xd1, 0x65, 0x3e,
  0xd5, 0xdf, 0x83, 0xbf, 0xbf, 0xd8, 0x41, 0xbe, 0x82, 0xb4, 0x85, 0xbe,
  0x43, 0x9a, 0x86, 0xbf, 0xd7, 0x0f, 0x0d, 0x3f, 0x1b, 0x2b, 0x33, 0x3e,
  0x1b, 0xcb, 0x8a, 0xbd, 0xa3, 0x0a, 0x31, 0x3e, 0x4c, 0xaf, 0xdb, 0xbe,
  0xb3, 0xfb, 0xa6, 0xbf, 0x53, 0xb2, 0x0e, 0x3f, 0xaa, 0xeb, 0x81, 0x3f,
  0x8f, 0x40, 0x18, 0xbf, 0xd8, 0xf3, 0xf7, 0x3d, 0xad, 0xe1, 0x47, 0x3f,
  0x31, 0x4a, 0x8b, 0xbd, 0x27, 0x45, 0x26, 0xbf, 0xe5, 0x00, 0xcb, 0x3e,
  0x6f, 0x89, 0x7f, 0xbf, 0xd9, 0x62, 0x9f, 0x3e, 0x4e, 0xb2, 0x3c, 0xbf,
  0x2d, 0x20, 0x2b, 0xbd, 0xe4, 0x8e, 0x96, 0x3e, 0xb0, 0xb8, 0xae, 0xbf,
  0xd7, 0x3f, 0xc7, 0xbe, 0x73, 0xd1, 0x94, 0xbe, 0xf7, 0x2d, 0x81, 0x3e,
  0x56, 0x92, 0xa5, 0xbe, 0xd1, 0x76, 0xf6, 0x3e, 0xd6, 0xc7, 0xb7, 0xbf,
  0xd0, 0x22, 0x1b, 0x3f, 0xee, 0x00, 0xb1, 0x3e, 0x58, 0x86, 0x87, 0xbc,
  0xbb, 0xe7, 0xa7, 0xbf, 0x20, 0xfd, 0x19, 0xbe, 0xb9, 0xf2, 0x34, 0x3f,
  0x2f, 0xeb, 0x3f, 0x3e, 0x48, 0x37, 0x79, 0xbf, 0x74, 0x01, 0x61, 0x3f,
  0x6a, 0xcb, 0x81, 0xbd, 0xe9, 0xc5, 0x78, 0xbe, 0xe0, 0x35, 0x51, 0x3d,
  0x65, 0xdb, 0x5a, 0xbe, 0x4e, 0x1a, 0xae, 0x3e, 0x0f, 0xf2, 0x0d, 0x3e,
  0xc9, 0x8a, 0x55, 0x3d, 0x98, 0xea, 0x96, 0xbe, 0x77, 0x0a, 0x30, 0x3f,
  0xe3, 0x9d, 0xa5, 0xbf, 0x72, 0x8a, 0xab, 0xbc, 0x28, 0x02, 0x95, 0x3f,
  0x2a, 0xc3, 0x5d, 0x3f, 0x6e, 0x67, 0x46, 0x3f, 0x5d, 0xe1, 0xd2, 0x3e,
  0xce, 0xbf, 0x2f, 0x3f, 0x80, 0x53, 0x9f, 0x3e, 0x2b, 0xe7, 0xf9, 0x3e,
  0x34, 0xcf, 0x23, 0xbf, 0x8c, 0xa4, 0x8c, 0xbf, 0x34, 0x8f, 0x3a, 0x3e,
  0x4f, 0xb1, 0x89, 0x3f, 0xb3, 0xec, 0x91, 0xbf, 0x97, 0x91, 0x15, 0x3f,
  0x1a, 0x9b, 0x80, 0xbf, 0xed, 0x02, 0x9d, 0x3f, 0x99, 0x7e, 0xc5, 0xbe,
  0x56, 0x0b, 0xb8, 0x3e, 0xd6, 0xb9, 0x79, 0xbe, 0x6d, 0x56, 0x32, 0xbf,
  0x1d, 0x38, 0x23, 0x3f, 0x62, 0x4f, 0xee, 0x3b, 0x17, 0x82, 0xb8, 0xbe,
  0xdb, 0xe2, 0xd8, 0xbe, 0x20, 0x37, 0xb0, 0xbd, 0x67, 0x16, 0x04, 0xbf,
  0xb8, 0xd1, 0xdb, 0xbb, 0xe6, 0xf2, 0x06, 0xbf, 0x57, 0x1c, 0x57, 0x3e,
  0x63, 0xff, 0xcd, 0xbe, 0xd2, 0xf5, 0xa6, 0x3c, 0xde, 0x8c, 0xea, 0x3e,
  0x7c, 0x41, 0xd1, 0xbd, 0x06, 0x6c, 0x35, 0xbf, 0x0a, 0xc6, 0x8b, 0xbf,
  0xe1, 0x63, 0xbc, 0x3e, 0x0a, 0xa0, 0x14, 0x3d, 0x8f, 0x10, 0x4e, 0xbf,
  0x95, 0xff, 0xf9, 0x3e, 0xf3, 0x1f, 0xc2, 0xbd, 0x0c, 0x6b, 0x91, 0x3f,
  0x16, 0x5f, 0x09, 0x3e, 0x2e, 0xb6, 0xaa, 0xbe, 0xd1, 0x9e, 0xa8, 0xbe,
  0x48, 0xd9, 0xf7, 0x3e, 0x06, 0x5f, 0x8d, 0x3b, 0x26, 0x69, 0x55, 0x3f,
  0xcf, 0x78, 0xff, 0xbe, 0xff, 0xa2, 0x3a, 0x3f, 0xc9, 0xd0, 0x41, 0x3f,
  0xce, 0xe7, 0x05, 0xbd, 0x0a, 0x67, 0xba, 0xbe, 0xb5, 0x48, 0x93, 0xbe,
  0x7a, 0xaf, 0x12, 0xbf, 0xfe, 0xda, 0xbf, 0x3e, 0xd0, 0x85, 0x06, 0x3f,
  0xbd, 0x13, 0x9e, 0xbf, 0x76, 0x9f, 0xc8, 0x3f, 0x07, 0x27, 0x43, 0xbe,
  0x90, 0xe3, 0xec, 0x3e, 0x01, 0x2d, 0x68, 0xbe, 0x2b, 0x5e, 0xe9, 0x3e,
  0x81, 0x51, 0xf7, 0x3e, 0xb0, 0x80, 0xae, 0xbf, 0xf1, 0x9f, 0xd8, 0x3e,
  0xd8, 0xd0, 0xca, 0xbd, 0x92, 0xe4, 0x8c, 0x3e, 0x41, 0x6d, 0x04, 0xbd,
  0xdf, 0x52, 0x0f, 0xbf, 0x6a, 0xbe, 0x74, 0x3e, 0x60, 0x18, 0x89, 0x3f,
  0xb8, 0x1d, 0xea, 0xbe, 0x7c, 0x83, 0x92, 0xbf, 0x18, 0x4b, 0x33, 0x3f,
  0x8c, 0xf0, 0x0c, 0xbf, 0xc6, 0x2d, 0x59, 0x3e, 0x1f, 0x34, 0x2f, 0x3f,
  0x61, 0x8e, 0xbc, 0x3e, 0xf2, 0xf2, 0x85, 0xbb, 0x41, 0x7f, 0x1a, 0x3f,
  0x75, 0xfd, 0x79, 0x3d, 0xc1, 0x1b, 0xfd, 0xbd, 0x29, 0xc9, 0x72, 0x3e,
  0x9f, 0x08, 0xf3, 0x3e, 0xc2, 0xaf, 0x41, 0x3f, 0x07, 0xf1, 0x60, 0xbe,
  0xd9, 0x54, 0xfe, 0xbe, 0x10, 0x1b, 0x93, 0xbf, 0xe1, 0x05, 0x06, 0x3e,
  0x1c, 0x3d, 0x83, 0x3f, 0x5f, 0xcd, 0xd5, 0x3e, 0xdf, 0x66, 0xb3, 0xbf,
  0xfb, 0x6e, 0xc5, 0xbe, 0x76, 0x6f, 0x8d, 0xbf, 0x3b, 0x95, 0xe0, 0xbe,
  0x98, 0xfe, 0x8c, 0x3f, 0x74, 0x6c, 0x07, 0x3e, 0xf9, 0x1b, 0x94, 0xbe,
  0xcc, 0x3b, 0xfd, 0xbd, 0x43, 0x07, 0x21, 0xbf, 0xfc, 0x34, 0x04, 0x3f,
  0x2c, 0x36, 0x6a, 0xbe, 0x7a, 0x9e, 0x6b, 0x3f, 0x90, 0xcb, 0x92, 0x3f,
  0x37, 0x87, 0x04, 0x3f, 0xce, 0xa5, 0x7c, 0x3e, 0x92, 0x78, 0xc0, 0xbf,
  0x70, 0xc0, 0xcf, 0x3d, 0x1b, 0x73, 0xc6, 0x3c, 0x9b, 0x75, 0x89, 0x3e,
  0x1a, 0x12, 0xf4, 0x3e, 0x47, 0x6c, 0x2a, 0xbb, 0x13, 0x45, 0x94, 0x3f,
  0x48, 0x6f, 0xe2, 0x3e, 0xe7, 0x75, 0x4f, 0x3f, 0xd7, 0x47, 0xda, 0xbe,
  0xdb, 0x3d, 0x1f, 0xbe, 0x86, 0x36, 0x8f, 0xbf, 0x41, 0xad, 0x0d, 0x3e,
  0x97, 0x7a, 0xf1, 0xbc, 0x91, 0x1c, 0x35, 0x3e, 0xef, 0xcd, 0x35, 0xbf,
  0x11, 0x16, 0x89, 0xbd, 0x46, 0xd8, 0x00, 0x3d, 0xfe, 0xf5, 0x98, 0x3e,
  0xdd, 0xfc, 0x71, 0xbf, 0x84, 0xe4, 0xd2, 0x3e, 0xa0, 0x27, 0x9d, 0x3e,
  0x3a, 0x0f, 0x11, 0xbf, 0xe0, 0xa1, 0xe4, 0xbf, 0x4a, 0x61, 0xbb, 0x3e,
  0xca, 0x87, 0x1b, 0x3f, 0x9b, 0xe6, 0x18, 0x3f, 0xd9, 0xf4, 0xfb, 0xbd,
  0x61, 0x00, 0x66, 0xbf, 0x69, 0x77, 0x11, 0xbe, 0x87, 0x8f, 0x4f, 0x3e,
  0x4b, 0x90, 0x08, 0x3e, 0x2d, 0x05, 0x0d, 0xbf, 0xb3, 0xf6, 0xef, 0x3c,
  0x72, 0x6e, 0x08, 0xbf, 0x16, 0xe4, 0xb7, 0x3f, 0x1e, 0x9a, 0x92, 0xbe,
  0x7a, 0x1f, 0x09, 0x3e, 0x52, 0x06, 0x41, 0xbe, 0xb8, 0xf9, 0x92, 0xbf,
  0x90, 0xa7, 0xe5, 0x3e, 0xae, 0xd8, 0x16, 0x3e, 0x55, 0x5c, 0x11, 0x3e,
  0x2d, 0x6e, 0xc9, 0xbe, 0xfa, 0x95, 0xcd, 0x3d, 0xce, 0xb0, 0x80, 0xbe,
  0x44, 0xcb, 0x5c, 0x3f, 0x0a, 0x8d, 0xb7, 0x3f, 0x27, 0xd2, 0xc4, 0xbf,
  0x03, 0x24, 0x86, 0xbd, 0x8e, 0x70, 0x46, 0xbc, 0x96, 0x0e, 0xb9, 0x3e,
  0x40, 0x9b, 0x2f, 0xbe, 0x34, 0x44, 0x62, 0x3f, 0xc7, 0x6b, 0x54, 0xbf,
  0x05, 0x34, 0xb2, 0x3e, 0xc3, 0x3d, 0xad, 0xbf, 0xfe, 0x0b, 0x47, 0xbf,
  0xaf, 0x8e, 0x16, 0x3f, 0x20, 0xc3, 0xaf, 0x3e, 0x34, 0x37, 0x49, 0xbf,
  0x1c, 0x49, 0xe5, 0xbe, 0x70, 0x1e, 0x27, 0x3f, 0x78, 0x30, 0x86, 0xbf,
  0x43, 0x2f, 0x96, 0xbe, 0x60, 0x2d, 0xf5, 0x3e, 0x1f, 0xef, 0x4d, 0xbf,
  0x44, 0x93, 0xd5, 0x3f, 0x2c, 0x61, 0x89, 0xbe, 0xfa, 0x94, 0x1a, 0x3f,
  0x98, 0x16, 0x0f, 0x3f, 0xbd, 0x54, 0xd5, 0x3d, 0x01, 0x3c, 0x1b, 0xbf,
  0x65, 0x8c, 0x77, 0xbf, 0x4c, 0x0e, 0xf6, 0x3d, 0x6c, 0xad, 0x12, 0xbd,
  0xd6, 0xd3, 0x4b, 0x3f, 0x04, 0x3a, 0x7c, 0x3e, 0xff, 0x88, 0x57, 0x3f,
  0x9a, 0x93, 0xc4, 0x3d, 0x94, 0x8a, 0x83, 0x3f, 0x46, 0xde, 0xf5, 0xbd,
  0xe4, 0xde, 0xe8, 0x3e, 0x3d, 0xeb, 0x67, 0x3f, 0x29, 0x36, 0xe3, 0x3e,
  0x9b, 0xc8, 0x21, 0xbf, 0xef, 0xae, 0xf3, 0x3e, 0x7e, 0xde, 0x82, 0xbf,
  0x81, 0x52, 0xa8, 0xbb, 0x80, 0xd2, 0xee, 0xbe, 0x9d, 0x20, 0xa5, 0xbd,
  0xdb, 0xe3, 0x45, 0xbf, 0x0c, 0x46, 0x18, 0x3f, 0xaf, 0x24, 0x49, 0x3f,
  0xb3, 0xde, 0x87, 0x3d, 0x6c, 0xd6, 0x8e, 0x3e, 0x93, 0xd8, 0x46, 0x3f,
  0x73, 0xf5, 0x95, 0x3e, 0x60, 0xcd, 0x59, 0x3d, 0x58, 0x1d, 0x8f, 0xbf,
  0x11, 0x99, 0x88, 0xbe, 0xfd, 0xe3, 0xe2, 0x3f, 0x6b, 0xf5, 0xc5, 0xbe,
  0x26, 0x78, 0xa6, 0xbd, 0xe0, 0xff, 0x98, 0xbf, 0xb7, 0x90, 0x37, 0xbf,
  0xb9, 0x88, 0x09, 0xbe, 0x87, 0x27, 0x31, 0xbf, 0xb4, 0x29, 0x66, 0x3f,
  0xb9, 0xd5, 0x36, 0xbf, 0xd7, 0x5c, 0x8c, 0xbf, 0xce, 0xcf, 0x1d, 0x3f,
  0xf2, 0x82, 0x53, 0xbf, 0xa4, 0x97, 0x91, 0x3e, 0x56, 0xd4, 0x41, 0x3f,
  0x9c, 0x91, 0x20, 0x3f, 0x83, 0xfb, 0xa3, 0x3e, 0xfa, 0x7e, 0xca, 0xbe,
  0x2f, 0xc0, 0x6a, 0x3f, 0xa2, 0x2d, 0x04, 0xbf, 0x0d, 0xe3, 0x2b, 0x3f,
  0x71, 0xe2, 0x4a, 0xbe, 0x95, 0xeb, 0xb5, 0xbe, 0x4a, 0x96, 0xe6, 0xbe,
  0xb9, 0xe5, 0x9e, 0x3f, 0x72, 0xf2, 0x44, 0x3f, 0xe9, 0xf3, 0x01, 0xbf,
  0x43, 0x29, 0x85, 0xbf, 0xf1, 0x9e, 0x4a, 0xbd, 0x70, 0xc5, 0x5a, 0x3f,
  0xb5, 0x0a, 0x84, 0x3f, 0x1d, 0x6c, 0x62, 0xbf, 0x73, 0xcc, 0x96, 0xbe,
  0x58, 0x31, 0xc1, 0xbf, 0x16, 0xb6, 0x6f, 0x3e, 0x64, 0x12, 0x0d, 0xbf,
  0x80, 0x56, 0xbb, 0xbe, 0xdf, 0x75, 0x1f, 0x3f, 0x2c, 0xa5, 0x48, 0xbe,
  0xd6, 0x3c, 0x29, 0x3f, 0x1d, 0x47, 0xd5, 0xbd, 0x4e, 0x98, 0x5b, 0x3e,
  0x32, 0x94, 0x97, 0xbe, 0xd8, 0x9f, 0x15, 0xbf, 0x01, 0x14, 0xb6, 0xbe,
  0xf9, 0x57, 0xa4, 0x3f, 0x86, 0x37, 0x5f, 0xbf, 0x35, 0x7a, 0xc3, 0x3e,
  0x91, 0x62, 0xb1, 0x3e, 0x88, 0x75, 0xcc, 0xbe, 0x37, 0x6a, 0x79, 0xbf,
  0xfb, 0xed, 0x94, 0x3f, 0x81, 0x94, 0xde, 0x3e, 0xa0, 0xfd, 0x1e, 0x3f,
  0x76, 0x1f, 0x27, 0x3e, 0xf2, 0x0e, 0x97, 0x3e, 0x0b, 0x8a, 0xeb, 0xbe,
  0xe9, 0xf2, 0x57, 0xbf, 0x5e, 0xda, 0x81, 0x3d, 0xad, 0x8c, 0x5d, 0xbf,
  0xa4, 0xf5, 0x95, 0xbd, 0xa4, 0x18, 0x59, 0x3d, 0x4e, 0x5f, 0xf2, 0x3e,
  0xd4, 0x04, 0x41, 0xbe, 0xdb, 0x47, 0xe1, 0x3e, 0xc9, 0xd2, 0x54, 0x3e,
  0x9d, 0x91, 0x43, 0xbf, 0x91, 0x75, 0x8e, 0xbf, 0x08, 0x6d, 0x57, 0xbf,
  0xc7, 0x2c, 0x3e, 0xbf, 0xc3, 0xa2, 0x87, 0x3f, 0x61, 0xb4, 0x8b, 0xbe,
  0x41, 0x42, 0x82, 0x3e, 0x79, 0x8d, 0xc5, 0x3e, 0x9d, 0x60, 0x10, 0xbf,
  0x21, 0xca, 0x11, 0xbf, 0x6d, 0xe7, 0x08, 0x3d, 0x6d, 0x25, 0xc6, 0xbf,
  0x30, 0xcc, 0x64, 0xbf, 0x7c, 0x2f, 0x89, 0x3f, 0x47, 0xd2, 0x7d, 0x3f,
  0x11, 0x5b, 0xce, 0x3d, 0xf7, 0x22, 0x22, 0x3f, 0x58, 0x8a, 0xda, 0xbe,
  0x86, 0xed, 0x13, 0xbc, 0x43, 0x8f, 0x59, 0xbe, 0x4e, 0x69, 0xd2, 0xbe,
  0x75, 0xad, 0x26, 0xbf, 0xa9, 0xd5, 0x04, 0xbe, 0x5f, 0xc4, 0x4f, 0xbf,
  0x33, 0xb0, 0x61, 0xbf, 0x65, 0xf3, 0xcf, 0xbe, 0x92, 0xf8, 0x37, 0x3f,
  0x75, 0x02, 0x60, 0x3e, 0xf9, 0x2c, 0x78, 0x3f, 0xe2, 0x4b, 0x7a, 0xbe,
  0xac, 0xbf, 0xcb, 0xbe, 0x77, 0x5a, 0x63, 0x3d, 0x6c, 0x61, 0x80, 0xbe,
  0xe4, 0xcb, 0x91, 0x3e, 0x63, 0xee, 0xa7, 0xbe, 0x04, 0x44, 0x88, 0x3f,
  0x7a, 0x7a, 0x98, 0x3d, 0x9f, 0xeb, 0x26, 0x3e, 0x91, 0xea, 0xfb, 0x3e,
  0x8b, 0x65, 0x22, 0xc0, 0xa2, 0xe3, 0x8b, 0xbe, 0x79, 0x79, 0x13, 0x3f,
  0xb7, 0x40, 0x0b, 0x3f, 0x3f, 0x90, 0x8f, 0xbe, 0x26, 0xe1, 0xf2, 0x3c,
  0x89, 0xf6, 0x87, 0x3b, 0xd8, 0x19, 0x34, 0xbf, 0x99, 0x46, 0x8a, 0xbf,
  0x8f, 0xaa, 0xba, 0xbe, 0x55, 0x53, 0x04, 0x3f, 0x46, 0x1b, 0x50, 0x3f,
  0x01, 0x0c, 0x61, 0x3e, 0xc5, 0x85, 0x39, 0xbe, 0xcd, 0x00, 0x12, 0x3f,
  0xba, 0xad, 0x78, 0xbf, 0x2a, 0x86, 0x34, 0x3e, 0x45, 0xe0, 0x20, 0x3f,
  0xab, 0x9d, 0x23, 0x3c, 0xdf, 0x39, 0x91, 0x3d, 0x46, 0xe4, 0x69, 0xbf,
  0x64, 0xaf, 0xbe, 0xbd, 0xa5, 0x51, 0x74, 0xbe, 0x89, 0xc8, 0xe9, 0x3e,
  0x37, 0x00, 0xbb, 0x3f, 0x55, 0xde, 0xec, 0xbe, 0x4a, 0xdf, 0x36, 0xbf,
  0x61, 0x01, 0xda, 0xbd, 0x13, 0xc3, 0x11, 0x3f, 0x59, 0x83, 0x99, 0xbd,
  0x10, 0x79, 0xc1, 0x3e, 0x10, 0x4f, 0x6c, 0x3e, 0xc8, 0x62, 0x62, 0x3f,
  0x0d, 0x18, 0x4d, 0xbf, 0x1b, 0xc5, 0x83, 0x3e, 0xe0, 0x04, 0x78, 0xbd,
  0x5b, 0x69, 0x09, 0xc0, 0x39, 0x03, 0x10, 0x3e, 0xb2, 0x0d, 0x1c, 0xbe,
  0x8e, 0xea, 0xc9, 0xbe, 0xaa, 0x51, 0x31, 0x3d, 0x5f, 0x6a, 0x45, 0x3e,
  0x32, 0xb9, 0x72, 0xbe, 0xec, 0x51, 0xbc, 0x3e, 0xd0, 0x4c, 0x13, 0xbf,
  0xef, 0x5d, 0x5f, 0xbe, 0x5f, 0xe7, 0x3c, 0x3f, 0x5b, 0xd4, 0x91, 0x3f,
  0x59, 0xfc, 0x7d, 0x3e, 0xbd, 0xfb, 0x39, 0xbf, 0x5d, 0xfc, 0x73, 0x3f,
  0x7e, 0xfc, 0x6f, 0xbe, 0xd7, 0x13, 0x34, 0x3d, 0x0a, 0x5c, 0xa0, 0x3e,
  0xa3, 0x9d, 0x7e, 0x3e, 0xf5, 0x23, 0xdd, 0xbd, 0x6a, 0x2a, 0xc7, 0x3e,
  0xa1, 0x67, 0x32, 0xbf, 0x0f, 0xbe, 0x32, 0x3f, 0x03, 0x5e, 0xf3, 0xbd,
  0xb7, 0x89, 0x15, 0xbe, 0xba, 0xb2, 0x16, 0xbf, 0xf0, 0xb5, 0x76, 0xbe,
  0x67, 0xb6, 0x1f, 0xbf, 0xec, 0x32, 0x9d, 0xbf, 0xb2, 0xdb, 0x2b, 0x3f,
  0x04, 0xb3, 0xf5, 0x3e, 0x8e, 0x89, 0x28, 0x3e, 0x54, 0x0e, 0xd5, 0xbe,
  0x2d, 0xc8, 0x99, 0xbe, 0xba, 0x8c, 0x47, 0x3f, 0xdd, 0xd5, 0xaf, 0xbe,
  0x29, 0x7b, 0x0d, 0x3f, 0x9b, 0x44, 0xd8, 0x3f, 0x22, 0x22, 0xe6, 0x3e,
  0x29, 0x8f, 0x4c, 0xbf, 0x40, 0xa0, 0xd3, 0x3c, 0x2e, 0x1b, 0x4c, 0x3e,
  0xd0, 0x24, 0x1e, 0xbf, 0x9f, 0xab, 0x9b, 0xbe, 0x01, 0x45, 0x26, 0x3f,
  0xde, 0xc9, 0x3b, 0xbf, 0xe5, 0x2f, 0x30, 0xbf, 0xf0, 0xe2, 0x02, 0x3f,
  0x0d, 0x9f, 0x0c, 0x40, 0xea, 0x64, 0x8e, 0xbf, 0x50, 0xca, 0xde, 0xbe,
  0x75, 0xf1, 0xaa, 0xbe, 0xce, 0xd5, 0x43, 0xbe, 0x01, 0xde, 0x8b, 0xbe,
  0xf2, 0xca, 0x8e, 0xbf, 0x36, 0xa1, 0x05, 0x3f, 0x30, 0xf3, 0x00, 0xbd,
  0x36, 0x98, 0x14, 0x3f, 0x15, 0xbb, 0x84, 0xbf, 0x61, 0x24, 0x5f, 0x3e,
  0xa8, 0xe4, 0xc4, 0xbc, 0x93, 0xe5, 0xcc, 0x3e, 0x3d, 0xe9, 0x6d, 0x3f,
  0xa2, 0xf3, 0x12, 0xbf, 0xde, 0x42, 0x36, 0xbe, 0x84, 0x0f, 0x62, 0x3e,
  0x7e, 0xd7, 0x3f, 0xbf, 0x45, 0xde, 0x07, 0xbe, 0x32, 0xc9, 0xcf, 0x3d,
  0x07, 0x49, 0x91, 0x3d, 0x23, 0x16, 0x11, 0xbf, 0xb9, 0x7f, 0x80, 0xbf,
  0x4c, 0x19, 0x32, 0xbf, 0x59, 0xe2, 0xa4, 0xbf, 0x37, 0x69, 0xa5, 0x3d,
  0x5b, 0x7b, 0xd8, 0x3e, 0xd8, 0xd1, 0x82, 0x3f, 0x35, 0x0e, 0x38, 0xbf,
  0x41, 0x36, 0x17, 0x3f, 0xd0, 0x96, 0xf4, 0xbc, 0x87, 0x98, 0xb7, 0xbf,
  0x3a, 0x2d, 0x4e, 0xbd, 0x17, 0xc3, 0x3b, 0x3f, 0x54, 0xc3, 0xdf, 0xbe,
  0x27, 0x56, 0x76, 0x3f, 0xd6, 0x6e, 0xe6, 0xbe, 0x73, 0x7d, 0xa7, 0xbe,
  0xbe, 0xf1, 0x10, 0xbf, 0x3e, 0xaf, 0x7b, 0x3e, 0x47, 0x39, 0x99, 0xbe,
  0xca, 0xff, 0x68, 0x3f, 0xf0, 0x1d, 0x70, 0xbe, 0xd2, 0xbf, 0x58, 0x3f,
  0xed, 0xf2, 0xcf, 0x3e, 0x32, 0x08, 0x8f, 0x3b, 0xdb, 0xcb, 0x4b, 0x3e,
  0x2c, 0x2b, 0xa3, 0xbe, 0x6c, 0xe1, 0x20, 0xbe, 0x9f, 0x97, 0x9f, 0x3c,
  0xd4, 0x08, 0x80, 0xbf, 0xc9, 0x10, 0xb6, 0x3f, 0xe6, 0xa1, 0xde, 0xbe,
  0xa9, 0x69, 0x93, 0xbe, 0xe6, 0x4b, 0x85, 0x3f, 0x1e, 0x83, 0x1d, 0xbf,
  0xfb, 0x65, 0x0d, 0x3f, 0x4f, 0x04, 0x0a, 0xbd, 0xa9, 0xd1, 0xf1, 0x3c,
  0x9b, 0x88, 0xf7, 0x3d, 0x72, 0x60, 0xfc, 0x3e, 0xe4, 0x09, 0xbf, 0xbd,
  0x10, 0x6f, 0xbc, 0xbf, 0x2c, 0x4b, 0x81, 0xbe, 0x9f, 0xf7, 0x4a, 0xbd,
  0x55, 0xd9, 0x18, 0x3f, 0x38, 0xea, 0xde, 0xbd, 0xcc, 0xed, 0xbc, 0x3e,
  0x73, 0x69, 0xbd, 0xbe, 0x20, 0xcf, 0x7b, 0x3d, 0x81, 0xdf, 0x89, 0x3e,
  0x56, 0x27, 0x4f, 0xbf, 0x81, 0x06, 0xaf, 0x3f, 0x11, 0x2a, 0x38, 0xbf,
  0x3a, 0x38, 0x26, 0x3f, 0x11, 0xe2, 0x71, 0x3e, 0x14, 0xaa, 0x0f, 0x3e,
  0x07, 0xe4, 0x38, 0xbf, 0xc6, 0xab, 0xaf, 0x3e, 0xbb, 0x15, 0x64, 0x3f,
  0xba, 0x31, 0xcc, 0xbd, 0xde, 0xe3, 0xec, 0xbe, 0x76, 0x95, 0x23, 0x3f,
  0x16, 0x31, 0x2f, 0xbe, 0x0a, 0x5b, 0x2d, 0xbf, 0x4b, 0xfe, 0x18, 0x3f,
  0x74, 0x5e, 0xe2, 0x3d, 0x5f, 0xa1, 0xfe, 0x3e, 0x52, 0xf7, 0x2e, 0xbf,
  0x5d, 0x21, 0x2f, 0xbf, 0xb9, 0x1b, 0x03, 0xbf, 0xff, 0xe0, 0x34, 0x3f,
  0x14, 0x32, 0xaa, 0x3b, 0x13, 0xbd, 0xed, 0xbe, 0x9b, 0xac, 0x8b, 0xbf,
  0x12, 0xe8, 0xa6, 0x3c, 0x5e, 0x84, 0xb2, 0x3a, 0xa2, 0x07, 0x7c, 0x3f,
  0xf7, 0xa7, 0xe5, 0x3d, 0xa5, 0x6c, 0x7f, 0x3f, 0x6a, 0xc4, 0x07, 0xbf,
  0x8f, 0x57, 0x1e, 0xbf, 0xe6, 0x63, 0x58, 0xbe, 0x85, 0x76, 0xbe, 0x3d,
  0x0c, 0x2e, 0x13, 0x3f, 0x8c, 0x7c, 0xca, 0xbf, 0xd8, 0xb5, 0x7c, 0xbe,
  0x38, 0x51, 0x47, 0xbf, 0xf6, 0xef, 0xe7, 0xbe, 0xe2, 0x7b, 0x1e, 0x3f,
  0x6f, 0x29, 0x94, 0xbf, 0xb7, 0x6e, 0x55, 0xbc, 0x35, 0x83, 0x25, 0xbf,
  0x92, 0xc3, 0x89, 0x3f, 0xca, 0xcf, 0xb1, 0xbf, 0xa6, 0x0a, 0xea, 0xbe,
  0xaf, 0x73, 0x1c, 0xc0, 0x73, 0x5f, 0xcb, 0x3e, 0xb1, 0x3d, 0x34, 0xbf,
  0xca, 0xc8, 0x2c, 0xbf, 0x24, 0x16, 0xa3, 0x3e, 0x0d, 0xab, 0x96, 0x3c,
  0x07, 0x5b, 0x6a, 0x3f, 0x58, 0xf5, 0x3c, 0xbf, 0xc2, 0x90, 0x1a, 0xbc,
  0xf4, 0x3d, 0x7e, 0xbe, 0x5e, 0xd8, 0x7e, 0x3a, 0x09, 0xdd, 0x91, 0x3f,
  0xfc, 0x14, 0x72, 0x3f, 0x80, 0xd4, 0x5c, 0x3e, 0x8a, 0x2f, 0x58, 0x3e,
  0x42, 0x66, 0x85, 0x3f, 0x11, 0xf1, 0x91, 0x3f, 0xc2, 0x1a, 0x11, 0x3f,
  0xd2, 0xee, 0xec, 0xbe, 0x17, 0x48, 0x07, 0x3f, 0x1b, 0x83, 0x6a, 0x3f,
  0xa4, 0xfb, 0x58, 0xbe, 0x87, 0x91, 0xb9, 0xbc, 0xaa, 0x6f, 0x69, 0xbf,
  0xab, 0xef, 0x23, 0xbf, 0x39, 0x3a, 0xc0, 0x3e, 0x56, 0xfe, 0xb6, 0x3f,
  0xcd, 0x02, 0xa0, 0xbe, 0x9c, 0xee, 0x8f, 0x3e, 0x3c, 0x55, 0x07, 0xbd,
  0xc7, 0xc7, 0x06, 0x3f, 0x07, 0xa0, 0x5f, 0xbf, 0xc6, 0x9a, 0xc4, 0xbd,
  0xa0, 0x85, 0x72, 0x3f, 0xa7, 0xe6, 0x0f, 0xbe, 0xd0, 0x7a, 0x17, 0xbf,
  0x3d, 0x53, 0x0a, 0xbf, 0xcf, 0x58, 0xc6, 0xbe, 0x58, 0x50, 0xc0, 0x3d,
  0x87, 0x6e, 0x08, 0x3f, 0xa2, 0xdf, 0x2d, 0x3d, 0x87, 0xc7, 0xa9, 0x3f,
  0xab, 0xa3, 0x5e, 0xbf, 0xc6, 0x66, 0xb4, 0x3c, 0x1f, 0xb8, 0xc3, 0xbe,
  0xc1, 0x56, 0x8e, 0x3f, 0x82, 0x3b, 0xf7, 0xbe, 0x2f, 0xb6, 0x19, 0x3e,
  0x59, 0xb1, 0x02, 0x3e, 0xc0, 0x78, 0xb4, 0x3a, 0x78, 0x4d, 0xd3, 0xbd,
  0x68, 0xe9, 0xa5, 0x3e, 0x9e, 0x8b, 0x6f, 0x3f, 0xa3, 0x37, 0xf6, 0xbe,
  0x43, 0x46, 0x4d, 0x3f, 0xf2, 0xbc, 0x5a, 0x3f, 0x6d, 0x76, 0xfb, 0xbe,
  0xa0, 0x02, 0x1e, 0xbf, 0x33, 0x8e, 0x8f, 0xbc, 0xf8, 0xaf, 0x8d, 0x3f,
  0x58, 0x93, 0x75, 0x3e, 0x4a, 0xba, 0x30, 0xbf, 0x87, 0xd8, 0xe0, 0x3f,
  0x9c, 0xf4, 0x7e, 0xbe, 0xec, 0x7e, 0x63, 0xbd, 0xff, 0x98, 0x00, 0x3e,
  0x73, 0xa5, 0x8d, 0xbe, 0x59, 0xfd, 0x50, 0x3f, 0x7f, 0x47, 0x82, 0xbe,
  0x4f, 0x43, 0xb4, 0x3d, 0xa5, 0xfb, 0xe8, 0x3e, 0xe2, 0x7f, 0x8e, 0xbf,
  0x05, 0xd9, 0x76, 0x3f, 0x4b, 0x53, 0x9f, 0xbe, 0xb7, 0xf4, 0x6a, 0x3f,
  0x3c, 0xaf, 0xb1, 0xbe, 0xf4, 0x73, 0xdc, 0x3d, 0xe3, 0x29, 0x27, 0xbf,
  0x6c, 0xbb, 0x2f, 0xbf, 0x42, 0x95, 0x70, 0x3f, 0xc4, 0xa0, 0xfa, 0x3e,
  0xb2, 0x64, 0xc0, 0x3e, 0x23, 0x76, 0x7d, 0xbf, 0x55, 0xfb, 0x8f, 0xbe,
  0x16, 0x66, 0x75, 0x3e, 0x5c, 0x35, 0xbb, 0x3e, 0xe0, 0xfb, 0x5a, 0x3f,
  0xeb, 0xda, 0x01, 0x3b, 0x59, 0x88, 0xbb, 0xbf, 0xc8, 0xfc, 0x00, 0x3f,
  0x26, 0xb6, 0x86, 0x3e, 0x1c, 0x15, 0x27, 0x3f, 0x63, 0x98, 0x22, 0xbe,
  0x62, 0xfa, 0xca, 0x3e, 0x10, 0x02, 0x48, 0xbf, 0xa7, 0x15, 0x5a, 0x3f,
  0x45, 0x1d, 0x16, 0x3f, 0xe6, 0x8f, 0x8c, 0xbf, 0x24, 0xa8, 0x86, 0x3e,
  0xad, 0x4e, 0x92, 0xbe, 0x74, 0x8f, 0x1c, 0xbf, 0x43, 0xbb, 0x6b, 0xbe,
  0xc4, 0xd2, 0xc6, 0xbe, 0x76, 0x7b, 0x83, 0x3f, 0x3b, 0xa2, 0xc7, 0xbc,
  0xec, 0x57, 0x48, 0x3f, 0x90, 0xd6, 0xd0, 0x3e, 0x8c, 0x24, 0x8b, 0x3f,
  0xde, 0xa0, 0x04, 0x3f, 0x04, 0xf8, 0x14, 0x3f, 0xe3, 0xc9, 0x7d, 0xbe,
  0x03, 0x80, 0x21, 0xbf, 0x8b, 0xca, 0x8c, 0x3d, 0x74, 0x66, 0xf6, 0xbd,
  0x1d, 0xae, 0xd6, 0xbe, 0x27, 0xc2, 0x57, 0x3f, 0x72, 0x8e, 0xf3, 0xbd,
  0xfc, 0x00, 0x9a, 0x3e, 0xaf, 0xb1, 0x1b, 0x3e, 0x99, 0xf4, 0x2a, 0xbf,
  0x02, 0xb2, 0x71, 0x3f, 0x74, 0x06, 0x11, 0xbe, 0xe1, 0xee, 0x0a, 0x3e,
  0x25, 0x39, 0x59, 0x3f, 0xf2, 0x0a, 0x70, 0x3f, 0x98, 0x3e, 0x10, 0x3f,
  0xef, 0x78, 0x97, 0xbe, 0x05, 0x81, 0x4d, 0xbf, 0x16, 0x4c, 0x23, 0x3d,
  0xc3, 0xae, 0x52, 0x3e, 0x2c, 0xf2, 0x47, 0x3e, 0xdf, 0x67, 0xe4, 0xbd,
  0xfe, 0x01, 0xe9, 0x3d, 0x18, 0x02, 0x80, 0xbf, 0xc3, 0xc0, 0x15, 0xbf,
  0x8b, 0xde, 0x99, 0x3f, 0x1f, 0x9d, 0x77, 0xbf, 0x5b, 0x95, 0xfe, 0x3e,
  0xa8, 0x67, 0xb0, 0xbe, 0x6f, 0xbe, 0xf3, 0x3d, 0xa5, 0xc1, 0x9e, 0xbf,
  0x7b, 0xd6, 0xce, 0xbe, 0xef, 0xed, 0x10, 0xbf, 0x51, 0x46, 0x56, 0xbf,
  0x70, 0x46, 0x94, 0x3f, 0xc2, 0x75, 0xa1, 0xbe, 0xa6, 0xc3, 0x31, 0xbf,
  0x5c, 0xca, 0x14, 0xc0, 0x31, 0x3f, 0x0d, 0x3f, 0x04, 0x2b, 0x78, 0x3f,
  0xf3, 0xf6, 0x80, 0xbf, 0x75, 0xf5, 0xa2, 0x3e, 0xe5, 0x18, 0xb7, 0x3e,
  0x97, 0x69, 0x1d, 0xbe, 0x39, 0x9b, 0x00, 0x3e, 0x52, 0x6d, 0x2d, 0xbf,
  0x2a, 0xf4, 0xb4, 0x3d, 0x88, 0x44, 0xe3, 0xbe, 0xba, 0xa9, 0x67, 0xbe,
  0xba, 0xd1, 0x09, 0x3e, 0x8a, 0x63, 0x95, 0xbd, 0xe6, 0xf8, 0x13, 0xbe,
  0x31, 0x60, 0x0f, 0x3f, 0x7b, 0x5c, 0x96, 0xbe, 0xff, 0x19, 0xfc, 0x3c,
  0x8f, 0xdc, 0x01, 0xbf, 0xb0, 0x37, 0x72, 0xbf, 0x44, 0xa7, 0xb6, 0xbd,
  0x09, 0x89, 0xca, 0x3f, 0xd5, 0x8c, 0x6d, 0xbe, 0x31, 0x3a, 0x37, 0x3e,
  0xab, 0xf7, 0x9d, 0x3d, 0x53, 0x94, 0xe5, 0x3e, 0xad, 0xa7, 0x46, 0x3e,
  0xe9, 0xba, 0xcb, 0x3e, 0xf2, 0xc9, 0x17, 0x3f, 0x00, 0x32, 0x14, 0x3f,
  0xda, 0xb5, 0x8b, 0x3d, 0x65, 0x94, 0xdd, 0x3c, 0x5c, 0x60, 0x99, 0xbf,
  0x1a, 0x53, 0x1b, 0xbe, 0x10, 0x18, 0x8c, 0xbe, 0x0f, 0x63, 0xd8, 0xbd,
  0xfc, 0x81, 0x8a, 0xbe, 0xfe, 0x87, 0xc8, 0x3e, 0xf7, 0x94, 0x87, 0xbf,
  0xc1, 0x98, 0xbf, 0x3e, 0x36, 0x83, 0x1e, 0x3f, 0x3b, 0xd6, 0xa2, 0xbd,
  0x42, 0x06, 0x87, 0xbf, 0x50, 0x54, 0x38, 0x3f, 0x5b, 0x6e, 0x05, 0x3f,
  0x0b, 0x45, 0xcf, 0x3c, 0x1f, 0x42, 0x57, 0x3f, 0xb8, 0x8c, 0x86, 0xbf,
  0xfb, 0xd1, 0x34, 0xbf, 0x65, 0x81, 0xf5, 0x3d, 0x58, 0x07, 0x7c, 0x3f,
  0x2c, 0x6f, 0x22, 0x3f, 0x7c, 0x37, 0xf4, 0x3e, 0x9b, 0xf7, 0x2a, 0xbe,
  0xcf, 0x92, 0x3b, 0x3f, 0xe7, 0x43, 0xaa, 0xbc, 0xc1, 0x7f, 0xbf, 0xbf,
  0x85, 0x8d, 0xe4, 0xbe, 0x0f, 0x56, 0x35, 0x3f, 0x4f, 0xce, 0x0f, 0xbe,
  0x34, 0x91, 0x4d, 0x3f, 0x71, 0x25, 0x59, 0x3d, 0xe0, 0x36, 0xb7, 0xbe,
  0xe8, 0x19, 0x34, 0xbf, 0x10, 0x38, 0x22, 0xbe, 0x0c, 0xbc, 0x19, 0x3e,
  0xfe, 0x34, 0x23, 0x3e, 0x6d, 0x6e, 0x28, 0x3f, 0x2f, 0x9c, 0xb2, 0xbe,
  0x4b, 0x98, 0xb0, 0xbf, 0xde, 0xf1, 0xdd, 0x3e, 0x12, 0x8b, 0xcc, 0xbd,
  0x94, 0x3c, 0xa4, 0xbd, 0x79, 0x69, 0x4b, 0x3f, 0xa0, 0x12, 0x81, 0x3f,
  0x59, 0x70, 0x52, 0x3e, 0x71, 0xff, 0x74, 0x3e, 0x05, 0x3d, 0xc8, 0x3e,
  0x32, 0x74, 0xa2, 0xbd, 0x93, 0x96, 0x09, 0x3f, 0xeb, 0xfd, 0xf2, 0x3e,
  0x6d, 0x71, 0xaa, 0xbf, 0x04, 0xef, 0x28, 0x3f, 0x41, 0x25, 0xb9, 0x3b,
  0x63, 0xf6, 0xa1, 0x3f, 0x65, 0xf4, 0x14, 0x3f, 0x94, 0xe1, 0x9d, 0x3e,
  0x1b, 0x7f, 0xe0, 0x3e, 0x97, 0x89, 0x6c, 0x3f, 0x7e, 0x2c, 0x82, 0x3e,
  0x9a, 0x23, 0x12, 0xbf, 0x1a, 0xc8, 0x14, 0x3d, 0x35, 0x4f, 0xe8, 0x3e,
  0xaa, 0xcc, 0x65, 0x3f, 0xbb, 0xde, 0x4a, 0xbf, 0x0d, 0x6f, 0xd9, 0x3e,
  0xd7, 0xc3, 0x02, 0x3f, 0x36, 0x5b, 0xa3, 0xbe, 0xa0, 0x60, 0x33, 0x3f,
  0x40, 0x07, 0x11, 0xbf, 0x5e, 0x8c, 0xa7, 0xbe, 0x3d, 0x6c, 0xc0, 0x3e,
  0x4f, 0x71, 0x48, 0x3e, 0x3a, 0x8b, 0xf7, 0x3e, 0xd4, 0xf8, 0x66, 0x3d,
  0x5e, 0x69, 0x59, 0xbd, 0x72, 0xea, 0x2f, 0xbf, 0x5b, 0x55, 0x9c, 0xbf,
  0x89, 0xdc, 0x61, 0xbf, 0x3a, 0xcc, 0x40, 0x3f, 0xfb, 0xe4, 0x80, 0x3f,
  0xae, 0x46, 0x0b, 0xbf, 0x95, 0x48, 0xac, 0xbe, 0x52, 0x2d, 0x45, 0xbe,
  0x44, 0x02, 0x01, 0x3f, 0x0a, 0xa6, 0x40, 0x3f, 0xc7, 0x9f, 0x92, 0x3f,
  0x09, 0x36, 0x94, 0xbf, 0x77, 0xc2, 0xe3, 0x3e, 0xb4, 0xfc, 0x15, 0xbe,
  0xe5, 0xc1, 0x02, 0xbf, 0x93, 0x72, 0x03, 0x3f, 0x0f, 0xfc, 0xb8, 0xbf,
  0xd8, 0x72, 0xa5, 0xbe, 0x3c, 0x19, 0xfe, 0xbe, 0x8c, 0xd6, 0x2b, 0xbf,
  0x9e, 0x74, 0xba, 0x3e, 0xc0, 0x63, 0xda, 0x3d, 0x60, 0xab, 0xc2, 0xbf,
  0x77, 0x04, 0x15, 0x40, 0x18, 0xe3, 0xbf, 0xbd, 0x0e, 0xd0, 0xc9, 0xbe,
  0x9a, 0x60, 0x0d, 0x3f, 0x01, 0xe8, 0x59, 0x3e, 0x6c, 0x93, 0xbf, 0x3e,
  0x59, 0x01, 0x7b, 0xbf, 0xf7, 0x7e, 0xa3, 0x3c, 0xd3, 0xfd, 0xd4, 0xbe,
  0x61, 0x1c, 0x02, 0x3f, 0x75, 0x89, 0x79, 0xbe, 0x03, 0x96, 0x44, 0xbf,
  0x1c, 0x9f, 0x84, 0x3f, 0x81, 0xb3, 0xb4, 0x3e, 0x05, 0x9c, 0x9d, 0x3f,
  0xcb, 0xc7, 0x81, 0x3c, 0x10, 0x21, 0xbf, 0x3e, 0x12, 0x4d, 0x38, 0x3f,
  0x70, 0x78, 0x61, 0xbf, 0xde, 0x0d, 0xe2, 0x3e, 0x1a, 0x91, 0x6f, 0x3e,
  0x31, 0x12, 0xa1, 0x3f, 0xd2, 0xc8, 0x83, 0x3e, 0x57, 0xe5, 0x5d, 0xbf,
  0xa8, 0xb1, 0x35, 0xbf, 0x1f, 0x50, 0xbd, 0x3e, 0xf8, 0x7e, 0xdb, 0xbe,
  0x79, 0x4b, 0x48, 0x3f, 0x45, 0xd2, 0x2b, 0xbf, 0xdd, 0x41, 0x46, 0xbf,
  0xf1, 0xa0, 0x2c, 0xbf, 0x96, 0xd9, 0x2f, 0xbe, 0xee, 0x8c, 0x1a, 0xbf,
  0x92, 0x7d, 0xfc, 0x3d, 0x45, 0x5a, 0x97, 0xbf, 0x8e, 0xd4, 0x5f, 0x3f,
  0x8b, 0xde, 0xab, 0x3d, 0x7d, 0x8d, 0xb1, 0x3f, 0xc5, 0x02, 0x52, 0xbf,
  0x2e, 0x3e, 0x8b, 0xbd, 0xb5, 0x27, 0x4a, 0x3e, 0x3e, 0x54, 0x3b, 0xbf,
  0xae, 0x68, 0xf8, 0xbc, 0xac, 0xd0, 0x07, 0xbf, 0xcf, 0x58, 0x1e, 0x3f,
  0x09, 0xad, 0xf7, 0xbe, 0xdb, 0x99, 0x19, 0x3b, 0x14, 0x5a, 0xee, 0x3e,
  0x62, 0x6e, 0x8c, 0x3e, 0xc2, 0x53, 0x2d, 0xbf, 0x65, 0x71, 0xd1, 0x3d,
  0x36, 0xe5, 0xd1, 0x3f, 0x37, 0x10, 0x47, 0x3f, 0x09, 0x75, 0x55, 0xbe,
  0x88, 0x42, 0x61, 0xbf, 0x11, 0xa0, 0x06, 0x3f, 0x7f, 0xca, 0xbc, 0xbe,
  0x4c, 0x02, 0x4a, 0xbf, 0xbd, 0x5b, 0xce, 0xbd, 0x4c, 0xfe, 0x25, 0xbf,
  0x85, 0x77, 0x94, 0xbc, 0xb0, 0x89, 0xc2, 0xbf, 0x41, 0x59, 0x49, 0x3f,
  0xd3, 0xfa, 0xaa, 0x3f, 0xa6, 0xfd, 0x7d, 0x3f, 0x8f, 0x3d, 0x33, 0xbf,
  0xa5, 0x0b, 0xad, 0x3e, 0xeb, 0xae, 0xd8, 0xbd, 0xfe, 0x3c, 0x04, 0x3f,
  0x2c, 0xb2, 0xa9, 0x3c, 0x8a, 0x3d, 0xa6, 0x3e, 0xfa, 0xc4, 0x1f, 0xbf,
  0xa1, 0x6d, 0x2c, 0x3f, 0x49, 0x28, 0x15, 0xbd, 0x32, 0xa5, 0x48, 0x3f,
  0xdb, 0xab, 0x48, 0xbf, 0x70, 0x6e, 0xd9, 0xbd, 0x7a, 0x84, 0x88, 0xbe,
  0x88, 0xe2, 0x17, 0xbe, 0xb8, 0x5e, 0x93, 0xbd, 0x75, 0x84, 0xa8, 0xbf,
  0xc3, 0x38, 0xff, 0x3e, 0x51, 0xb1, 0x53, 0xbf, 0xc0, 0x90, 0xb9, 0x3e,
  0x3d, 0xd3, 0x3a, 0x3d, 0x9b, 0xd2, 0x0e, 0x3f, 0xdd, 0xbd, 0x5c, 0xbd,
  0x4b, 0xb0, 0x75, 0xbf, 0x6d, 0xfb, 0xd1, 0xbd, 0x27, 0xc4, 0x85, 0xbf,
  0xfb, 0x1b, 0x49, 0xbe, 0xd9, 0xcf, 0xb1, 0x3f, 0x61, 0xf5, 0xff, 0xbd,
  0xca, 0xef, 0xe7, 0x3e, 0xdc, 0xb8, 0x2f, 0x3e, 0xb7, 0x38, 0x3e, 0xbe,
  0x36, 0x75, 0xc2, 0x3e, 0x34, 0xb2, 0x16, 0xbb, 0xeb, 0xb8, 0x8d, 0x3f,
  0x9f, 0xfd, 0x29, 0x3f, 0x2f, 0x91, 0x80, 0xbe, 0x6f, 0xf7, 0xc8, 0x3e,
  0x96, 0xf6, 0x0e, 0xbf, 0x3f, 0xc4, 0x60, 0x3f, 0x50, 0x0c, 0x15, 0x3f,
  0x46, 0x35, 0x0c, 0xbf, 0x8f, 0xd2, 0x1d, 0xbf, 0x34, 0x78, 0x9f, 0xbe,
  0xdc, 0xa5, 0x5e, 0x3f, 0x84, 0x93, 0xd9, 0x3e, 0xc6, 0x40, 0x67, 0x3f,
  0xf2, 0x0c, 0xca, 0xbe, 0x71, 0x63, 0x98, 0xbe, 0x89, 0x60, 0xbf, 0xbd,
  0x5d, 0x8a, 0xd6, 0xbd, 0x82, 0x0d, 0x11, 0xbe, 0xc0, 0xa2, 0x85, 0xbf,
  0xa6, 0x60, 0x8e, 0x3f, 0xe4, 0x73, 0xc2, 0xbe, 0x5a, 0x8b, 0x34, 0x3f,
  0xdd, 0xa0, 0x2d, 0xbd, 0x3e, 0xf1, 0xd5, 0xbe, 0x08, 0xd2, 0x49, 0xbe,
  0x80, 0xf2, 0x92, 0x3e, 0x3a, 0xae, 0x03, 0xbf, 0x9c, 0xde, 0x31, 0x3f,
  0x0b, 0x60, 0xa0, 0x3f, 0xc9, 0x79, 0xdc, 0xbe, 0xcd, 0x40, 0x29, 0xbf,
  0x8a, 0xb0, 0xac, 0xbe, 0x6d, 0x24, 0xeb, 0x3d, 0xd6, 0x37, 0x92, 0xbf,
  0x6a, 0xa1, 0x95, 0x3f, 0xe9, 0x71, 0x2e, 0xbe, 0x23, 0xa2, 0x42, 0x3c,
  0xd4, 0x9f, 0x8b, 0x3f, 0xe3, 0xaa, 0x00, 0xbf, 0x79, 0xe6, 0x14, 0xbf,
  0xbd, 0x77, 0x5b, 0x3e, 0xfa, 0x0a, 0x16, 0x3f, 0x53, 0x0e, 0x7f, 0x3f,
  0x7a, 0x88, 0x8b, 0xbf, 0x03, 0x6f, 0x5c, 0x3e, 0x12, 0x06, 0x59, 0x3f,
  0xe8, 0x49, 0xab, 0xbe, 0x4a, 0x1b, 0xe9, 0x3e, 0x4d, 0xc3, 0x33, 0xbf,
  0xa8, 0xff, 0x6e, 0xbf, 0x2a, 0x65, 0xd3, 0x3e, 0x91, 0xbb, 0xa2, 0x3f,
  0xb1, 0x6b, 0x75, 0x3f, 0x7f, 0xff, 0x13, 0xbf, 0x4f, 0xf5, 0x2f, 0xbe,
  0xd4, 0x8f, 0xd2, 0xbe, 0xd5, 0x3d, 0x8a, 0x3e, 0x7e, 0xfa, 0x23, 0x3f,
  0x40, 0xcf, 0xcb, 0xbd, 0x15, 0x73, 0x3f, 0xbf, 0x9d, 0x66, 0x64, 0x3f,
  0x1f, 0x43, 0x50, 0xbe, 0x7d, 0xd1, 0x88, 0x3e, 0x4b, 0xc4, 0x26, 0xbf,
  0xad, 0xa2, 0xf2, 0xbd, 0x90, 0x71, 0x12, 0xbf, 0x9d, 0x5e, 0x0e, 0xbf,
  0xe6, 0x3d, 0xc4, 0x3e, 0x91, 0x45, 0xb1, 0x3e, 0x9d, 0x15, 0xe5, 0x3e,
  0xd0, 0xca, 0x84, 0xbd, 0x65, 0x2e, 0x69, 0xbf, 0x09, 0x8b, 0xd0, 0xbe,
  0x0a, 0x73, 0x23, 0xbf, 0xab, 0x27, 0x57, 0xbf, 0x0b, 0x64, 0x49, 0x3f,
  0xe7, 0x8d, 0xf6, 0xbe, 0x02, 0x75, 0x87, 0x3f, 0xb0, 0x6b, 0x70, 0x3f,
  0x18, 0x30, 0x95, 0x3f, 0xf2, 0x18, 0x1e, 0xbf, 0x33, 0x0e, 0x87, 0x3e,
  0x83, 0x03, 0x0e, 0x3f, 0x99, 0x11, 0xaa, 0x3f, 0x66, 0x2c, 0x92, 0x3f,
  0xbc, 0xa0, 0x1c, 0xbe, 0x13, 0x21, 0x0b, 0x3d, 0xd4, 0x2b, 0xa6, 0xbf,
  0xb1, 0x65, 0x23, 0x3f, 0x9d, 0xb2, 0x74, 0x3e, 0x44, 0xc9, 0xfd, 0xbe,
  0x21, 0xef, 0x07, 0x3e, 0x13, 0xda, 0x38, 0xbf, 0xe1, 0x1e, 0x22, 0xbf,
  0x62, 0x93, 0x37, 0xbf, 0xf2, 0x60, 0x6d, 0xbf, 0x3c, 0xda, 0x8b, 0x3d,
  0xbb, 0xcc, 0x82, 0xbf, 0xff, 0x24, 0x02, 0x3f, 0x48, 0x3f, 0x32, 0x3f,
  0xc5, 0xf3, 0x5b, 0xbe, 0xd1, 0x5e, 0xff, 0x3d, 0x02, 0xb2, 0x45, 0x3e,
  0xd6, 0xe1, 0x13, 0x3f, 0x1c, 0xff, 0xa2, 0xbe, 0x58, 0x20, 0x0d, 0xbb,
  0x8f, 0xd3, 0xd8, 0x3e, 0xec, 0x1c, 0x71, 0xbf, 0xd7, 0x82, 0x6c, 0x3e,
  0x43, 0x42, 0x8a, 0xbe, 0x75, 0x28, 0x85, 0xbf, 0x97, 0xde, 0xb3, 0xbf,
  0xfa, 0xef, 0xd9, 0xbe, 0x2a, 0xe7, 0x1a, 0xbf, 0x4b, 0x95, 0x18, 0xbf,
  0x58, 0x31, 0xb0, 0xbf, 0xc1, 0x14, 0x74, 0x3e, 0xfc, 0x07, 0x56, 0x3e,
  0x42, 0x03, 0x77, 0x3e, 0xc8, 0xa8, 0x9f, 0x3f, 0x42, 0xa6, 0x90, 0xbf,
  0xef, 0xb3, 0x8c, 0x3f, 0xab, 0xd3, 0x03, 0x3e, 0xb9, 0x58, 0xec, 0xbd,
  0x0c, 0xbd, 0x3f, 0x3f, 0x41, 0x6f, 0x1c, 0x3e, 0x09, 0xdd, 0x29, 0x3f,
  0x07, 0xa8, 0xd5, 0x3d, 0x96, 0xe8, 0x5e, 0x3f, 0x24, 0xde, 0x8e, 0xbf,
  0xae, 0x27, 0xe0, 0x3d, 0xc5, 0x90, 0x85, 0x3f, 0xce, 0x5a, 0x27, 0xbf,
  0xe8, 0xb4, 0xf2, 0xbe, 0xfc, 0xd2, 0x5a, 0x3f, 0x25, 0x18, 0xa2, 0xbf,
  0x85, 0xd8, 0x6a, 0xba, 0x32, 0x05, 0x07, 0xbd, 0xec, 0x8e, 0x10, 0xbe,
  0x6b, 0x28, 0x75, 0xbe, 0xc6, 0xd2, 0xdf, 0x3d, 0x20, 0x8e, 0x68, 0xbf,
  0x72, 0x01, 0x25, 0x3f, 0xc1, 0x95, 0xb3, 0x3e, 0x7e, 0xb2, 0xbc, 0xbe,
  0x3e, 0x8e, 0x17, 0xbf, 0x99, 0x6b, 0x8f, 0x3f, 0xaa, 0x2e, 0x7b, 0x3f,
  0x86, 0xcf, 0xae, 0xbe, 0x3f, 0xf6, 0x6c, 0x3e, 0x4e, 0x49, 0x09, 0x3d,
  0x6e, 0x02, 0x7d, 0x3e, 0x90, 0xd0, 0x6d, 0x3f, 0x80, 0xaf, 0x72, 0xbe,
  0x2d, 0xca, 0x1f, 0xbe, 0x1a, 0x63, 0x9e, 0x3e, 0xb8, 0x65, 0xb8, 0xbe,
  0x6c, 0x6a, 0x01, 0xbf, 0x20, 0x0b, 0x6f, 0x3f, 0xb5, 0x63, 0x85, 0xbe,
  0x92, 0xd1, 0x9f, 0xbf, 0x6a, 0x00, 0xa5, 0x3e, 0xe6, 0x59, 0x07, 0xbe,
  0xf7, 0x05, 0xd0, 0xbe, 0x9c, 0xbb, 0x80, 0x3e, 0x0a, 0x2d, 0x97, 0x3e,
  0xdb, 0x68, 0x1e, 0x3e, 0x12, 0xa2, 0x3a, 0x3f, 0x4f, 0xe5, 0x46, 0xbf,
  0x4e, 0xc6, 0x82, 0x3f, 0x46, 0x4c, 0x50, 0x3f, 0xb9, 0x0f, 0x2d, 0xbd,
  0xc8, 0xda, 0x46, 0xbe, 0x8f, 0x12, 0x52, 0x3f, 0x86, 0x96, 0x3c, 0xbf,
  0xf9, 0xaa, 0x9c, 0xbe, 0x50, 0x16, 0x53, 0xbe, 0x5f, 0x96, 0x45, 0x3f,
  0xb0, 0x2e, 0x5d, 0xbf, 0xc9, 0xf3, 0x6c, 0x3d, 0x5d, 0x39, 0x5e, 0x3e,
  0xdc, 0x97, 0xd2, 0x3b, 0xf0, 0xe5, 0x4d, 0xbd, 0x99, 0x96, 0x65, 0xbe,
  0x16, 0x6b, 0x0e, 0xbe, 0x9e, 0x3e, 0xa4, 0x3e, 0xbf, 0x0d, 0x3e, 0x3f,
  0x58, 0x4f, 0x0c, 0xbf, 0xf3, 0xc3, 0x08, 0x3f, 0xe6, 0x41, 0x8d, 0xbf,
  0x9b, 0xe0, 0x78, 0x3e, 0xb2, 0xd5, 0x00, 0x3f, 0x99, 0x49, 0x2d, 0x3d,
  0x94, 0x3c, 0x3b, 0x3e, 0xa9, 0x03, 0xa2, 0xbf, 0x07, 0xae, 0x3d, 0x3e,
  0x9d, 0x5e, 0x8f, 0xbf, 0xc4, 0xcf, 0xc3, 0xbe, 0x48, 0x89, 0x5d, 0xbf,
  0x9e, 0xa4, 0x53, 0x3f, 0x48, 0x8f, 0xba, 0x3e, 0x1c, 0x71, 0x08, 0x3f,
  0xbd, 0xc7, 0xde, 0xbe, 0xb9, 0x03, 0x1a, 0xbf, 0xfb, 0x95, 0x14, 0xbf,
  0xc8, 0x3d, 0x71, 0x3f, 0x58, 0x5f, 0xd3, 0x3d, 0xc5, 0xcf, 0x87, 0xbf,
  0x53, 0xed, 0x45, 0x3f, 0xe2, 0x3c, 0x9d, 0xbf, 0xe6, 0x72, 0xbe, 0x3e,
  0xa4, 0x7c, 0x59, 0x3f, 0x45, 0xc4, 0x29, 0x3d, 0x0b, 0xf8, 0xf6, 0x3e,
  0x7b, 0x75, 0x85, 0x3d, 0x34, 0x0f, 0x8a, 0xbe, 0xe8, 0xc0, 0xd6, 0x3e,
  0x3f, 0x37, 0xa1, 0x3e, 0x24, 0x34, 0xbf, 0x3e, 0x1d, 0x07, 0x00, 0xbf,
  0xb6, 0xe6, 0x4b, 0xbf, 0x80, 0x28, 0x56, 0xbe, 0x0b, 0xa0, 0x47, 0xbf,
  0xc9, 0xd0, 0x3d, 0xbf, 0xdf, 0xb5, 0x9a, 0x3f, 0x6f, 0xc8, 0x20, 0x3f,
  0x5b, 0x55, 0x3c, 0xbe, 0x9a, 0x30, 0x1c, 0xbe, 0xa4, 0x95, 0x0e, 0x3f,
  0xcc, 0xe5, 0x81, 0xbe, 0xcf, 0x42, 0xbb, 0xbe, 0x3e, 0x77, 0x1b, 0x3f,
  0x4b, 0xc6, 0xd0, 0xbd, 0x42, 0xae, 0xae, 0xbf, 0xf3, 0x01, 0x47, 0x3e,
  0x77, 0x2a, 0xe9, 0x3e, 0xfe, 0xba, 0xe3, 0x3e, 0xc9, 0x96, 0x1d, 0x3f,
  0x19, 0xac, 0x96, 0x3e, 0x53, 0x25, 0xdb, 0xbe, 0xb6, 0x9e, 0xaf, 0xbf,
  0x00, 0xa2, 0xcf, 0xbb, 0x11, 0x06, 0xa8, 0xbd, 0xb4, 0xb3, 0xb8, 0xbe,
  0x15, 0xba, 0x0e, 0xbf, 0x28, 0x8c, 0x5f, 0x3e, 0x42, 0x6e, 0x65, 0x3f,
  0x40, 0xca, 0x33, 0xbf, 0x92, 0x8c, 0x7f, 0x3f, 0x72, 0xf8, 0x76, 0x3e,
  0xea, 0xda, 0x73, 0x3e, 0xa3, 0x70, 0xf6, 0x3d, 0x3b, 0xe9, 0xf1, 0x3e,
  0x4e, 0x4b, 0x5e, 0x3f, 0xb0, 0x90, 0xa3, 0xbd, 0x09, 0x1b, 0x9a, 0xbd,
  0xfa, 0x2d, 0x54, 0xbc, 0xea, 0x3f, 0x23, 0xbe, 0x39, 0x4c, 0x1c, 0x3f,
  0xf5, 0x1f, 0xdb, 0x3e, 0x19, 0xe4, 0x08, 0x3e, 0xce, 0x7b, 0xe8, 0xbc,
  0x76, 0x75, 0x65, 0xbf, 0xff, 0x12, 0x28, 0xbf, 0x02, 0x14, 0x7b, 0x3f,
  0xb3, 0x6f, 0xd3, 0x3d, 0x23, 0x76, 0x23, 0xbf, 0x0f, 0x94, 0xd2, 0xbf,
  0x0c, 0x20, 0xf4, 0x3d, 0xdd, 0x10, 0x37, 0x3e, 0xeb, 0xf8, 0x12, 0x3f,
  0x71, 0x53, 0x2d, 0xbf, 0xf9, 0xf1, 0x55, 0xbe, 0xca, 0x3e, 0x55, 0xbe,
  0x67, 0xff, 0x35, 0x3e, 0x13, 0xb8, 0x03, 0xbe, 0xf2, 0x97, 0x04, 0xbf,
  0xed, 0x41, 0xf1, 0xbc, 0xd7, 0x3e, 0xcd, 0xbf, 0xbe, 0x15, 0xc5, 0x3d,
  0xd3, 0x17, 0xca, 0x3e, 0x6d, 0xc9, 0x60, 0xbf, 0x5c, 0x5f, 0xec, 0xbe,
  0x2c, 0x09, 0x80, 0xbf, 0xa3, 0xc2, 0x9f, 0xbe, 0x52, 0x1f, 0x02, 0x3f,
  0x59, 0xf1, 0xc1, 0xbe, 0xf0, 0x6d, 0xcf, 0x3d, 0x17, 0x65, 0x72, 0xbf,
  0x5b, 0xd9, 0x0a, 0xbd, 0xe5, 0x2d, 0xe1, 0x3d, 0xf5, 0x56, 0x14, 0x3f,
  0x61, 0xe0, 0x5a, 0xbc, 0xb9, 0x46, 0x94, 0xbe, 0x93, 0xb8, 0x8b, 0xbe,
  0xbf, 0x36, 0xd2, 0x3f, 0x96, 0xf8, 0x94, 0xbd, 0xa2, 0x70, 0xcd, 0x3e,
  0xbc, 0xe8, 0xa4, 0x3f, 0x50, 0x45, 0x5e, 0x3f, 0xec, 0xbf, 0xed, 0x3d,
  0xc3, 0x8b, 0x91, 0x3e, 0xc6, 0xa6, 0x3b, 0x3f, 0x43, 0x84, 0x48, 0x3d,
  0x25, 0xa1, 0x94, 0x3c, 0x29, 0x20, 0x05, 0xbf, 0xf6, 0x04, 0xcb, 0xbd,
  0x67, 0x76, 0x09, 0x3f, 0xb0, 0x74, 0x54, 0x3f, 0x01, 0x50, 0x8a, 0x3d,
  0x3b, 0x81, 0x33, 0xbe, 0x35, 0x6b, 0xde, 0xbf, 0xf1, 0x78, 0xde, 0xbe,
  0x78, 0x1d, 0x9d, 0xbf, 0x73, 0x8a, 0x86, 0x3f, 0x7b, 0x47, 0xab, 0x3e,
  0xd1, 0x43, 0xda, 0xbe, 0x03, 0xa6, 0x12, 0xbe, 0x07, 0x8f, 0xa1, 0xbe,
  0xab, 0x12, 0xe5, 0x3d, 0x92, 0x05, 0x0d, 0xc0, 0x72, 0x20, 0x6b, 0x3f,
  0x97, 0x5c, 0x9d, 0xbf, 0x3e, 0xe5, 0xed, 0x3e, 0xc2, 0x7a, 0xac, 0xbe,
  0x42, 0x13, 0x68, 0xbe, 0xb9, 0x37, 0x35, 0xbe, 0xeb, 0xd8, 0x4d, 0xbf,
  0x1d, 0x9c, 0xd2, 0xbe, 0xf8, 0x68, 0x39, 0xbf, 0xca, 0xf4, 0x1e, 0xbe,
  0xa2, 0x7a, 0x1d, 0x3f, 0xe9, 0xda, 0x17, 0xbe, 0xd3, 0x47, 0x8c, 0x3f,
  0x6c, 0xf3, 0x90, 0xbe, 0xc7, 0x31, 0xb9, 0xbe, 0x30, 0x32, 0x0e, 0x3f,
  0x0c, 0x11, 0x81, 0x3d, 0xbc, 0xdf, 0x1a, 0xbe, 0x4b, 0xf8, 0x68, 0x3f,
  0x18, 0x6c, 0x4e, 0xbe, 0x1b, 0x39, 0xbb, 0xbf, 0x9a, 0x3a, 0x9b, 0x3e,
  0x1d, 0xac, 0x06, 0xbd, 0x4e, 0x8a, 0x47, 0x3c, 0x52, 0x55, 0x3e, 0xbf,
  0x73, 0xc1, 0x42, 0x3e, 0xac, 0x3c, 0x2d, 0x3e, 0xa4, 0x54, 0x4c, 0xbe,
  0x04, 0xcb, 0x2c, 0xbf, 0x5a, 0xd5, 0x9f, 0xbe, 0x90, 0xed, 0xbd, 0x3f,
  0x77, 0x0b, 0xef, 0xbc, 0x72, 0x4c, 0xde, 0xb9, 0x93, 0x6d, 0xc1, 0xbf,
  0x51, 0x90, 0xb7, 0xbd, 0x23, 0xca, 0x8b, 0x3e, 0x47, 0xa7, 0x4b, 0x3e,
  0x82, 0x5c, 0x3d, 0xbf, 0x65, 0x59, 0x03, 0x3f, 0xe4, 0xf1, 0x08, 0xbf,
  0x4a, 0x47, 0x09, 0x3f, 0x5b, 0xca, 0xa2, 0x3e, 0x63, 0x2c, 0xc4, 0xbd,
  0x42, 0x56, 0xa6, 0x3e, 0x94, 0x3e, 0x73, 0x3b, 0xe0, 0xe1, 0x22, 0x3f,
  0x60, 0xbd, 0x5e, 0x3e, 0x79, 0x20, 0x71, 0x3f, 0xd4, 0x3a, 0xe8, 0x3e,
  0xb5, 0x35, 0xd0, 0x3d, 0xb6, 0x68, 0x3e, 0xbf, 0xcd, 0x40, 0x5b, 0xbf,
  0x3f, 0x28, 0xff, 0x3e, 0x40, 0xc5, 0x74, 0xbd, 0x34, 0x94, 0xe0, 0x3d,
  0x9a, 0x09, 0x09, 0xbf, 0xec, 0x66, 0x23, 0x3f, 0xc3, 0xc4, 0x69, 0x3f,
  0xfe, 0x7c, 0x8a, 0xbf, 0xb7, 0xad, 0x8b, 0x3e, 0xb4, 0x1a, 0x0c, 0x3f,
  0xa8, 0x0f, 0x4f, 0x3e, 0x92, 0x7e, 0x0c, 0x3f, 0x1e, 0x1d, 0x27, 0x3f,
  0xdd, 0x7f, 0xf6, 0xbd, 0xd9, 0xf9, 0x47, 0xbe, 0x8c, 0xc7, 0x5a, 0xbf,
  0xc5, 0xf5, 0x62, 0xbf, 0xf2, 0xf9, 0xbf, 0xbe, 0x4d, 0xe2, 0x74, 0x3f,
  0x6d, 0xc4, 0xe3, 0x3b, 0xe6, 0x35, 0x22, 0x3f, 0x9c, 0xe3, 0xa7, 0x3f,
  0xb2, 0x74, 0x7c, 0x3f, 0xcd, 0xa4, 0x66, 0x3f, 0xa4, 0xe7, 0x2a, 0xbe,
  0x5a, 0x63, 0x9c, 0xbe, 0x69, 0x8a, 0x67, 0xbf, 0x81, 0xdc, 0x23, 0xbd,
  0x5d, 0x88, 0xdc, 0xbc, 0x99, 0x16, 0x22, 0xbf, 0x5b, 0x33, 0x2e, 0xbf,
  0x99, 0x45, 0x5e, 0xbf, 0x69, 0xc7, 0x69, 0x3c, 0xcb, 0xb9, 0x1a, 0xbf,
  0x69, 0x3a, 0xf8, 0x3e, 0x74, 0xcf, 0xb3, 0x3e, 0xf0, 0xd3, 0x5b, 0xbf,
  0x64, 0x9b, 0xb7, 0xbf, 0x00, 0x2e, 0x94, 0x3d, 0xce, 0x3d, 0x77, 0x3f,
  0xb8, 0x83, 0x11, 0x3f, 0xb5, 0xd5, 0x10, 0x3f, 0x2f, 0x33, 0x3d, 0xbd,
  0x0c, 0xa5, 0x8e, 0x3f, 0xc1, 0x20, 0x02, 0xbf, 0x09, 0xb6, 0x4c, 0xbe,
  0x2f, 0x0b, 0x2c, 0x3e, 0xd4, 0x33, 0x0a, 0x3f, 0x39, 0xaf, 0x3a, 0xbe,
  0xd0, 0xc0, 0xea, 0xbe, 0xbb, 0x1f, 0x71, 0x3e, 0x43, 0x17, 0xd3, 0xbe,
  0x87, 0x02, 0x98, 0x3e, 0xdb, 0xc7, 0x8f, 0x3d, 0x6c, 0x21, 0xac, 0x3e,
  0x20, 0x97, 0x1d, 0x3e, 0xbc, 0x98, 0x87, 0x3f, 0x90, 0x23, 0x23, 0xbe,
  0xf1, 0x22, 0xa8, 0x3e, 0x90, 0x2a, 0xe0, 0xbe, 0xf2, 0xe0, 0xbb, 0x3f,
  0x2c, 0xd6, 0xaa, 0xbe, 0x45, 0x36, 0x45, 0xbc, 0x0d, 0xf2, 0x8a, 0x3f,
  0xd4, 0x36, 0xe1, 0xbf, 0x01, 0xc0, 0x13, 0xbe, 0x7d, 0x4c, 0xce, 0xbe,
  0x14, 0x33, 0x71, 0xbe, 0xf4, 0x90, 0xb3, 0x3e, 0xac, 0xbe, 0x3c, 0xbf,
  0xfa, 0x6a, 0x20, 0x3f, 0xda, 0x1e, 0x49, 0xbf, 0x77, 0x03, 0xc5, 0x3f,
  0xac, 0x61, 0x63, 0xbe, 0xb7, 0xcc, 0x37, 0x3d, 0x87, 0x00, 0xfc, 0xbe,
  0x46, 0xcb, 0xac, 0x3e, 0x9e, 0xb4, 0x01, 0xbf, 0x4f, 0x8a, 0x7c, 0xbd,
  0x38, 0x78, 0xa2, 0xbf, 0x60, 0x7e, 0x38, 0xbe, 0x2d, 0x5a, 0x0a, 0xbf,
  0xa9, 0x41, 0xfb, 0x3d, 0xf2, 0x31, 0xe1, 0xbe, 0x52, 0x96, 0xa8, 0x3e,
  0x5e, 0x99, 0x1e, 0xbc, 0x11, 0x3b, 0x4e, 0xbe, 0x10, 0xa9, 0x78, 0x3f,
  0x40, 0xc1, 0x84, 0x3f, 0xc1, 0xcf, 0x82, 0x3f, 0x2d, 0xac, 0xdb, 0xbd,
  0x96, 0x2b, 0xbb, 0xbe, 0x36, 0xdb, 0x2a, 0xbf, 0x0d, 0x6a, 0xb2, 0xbf,
  0xea, 0x43, 0x34, 0x3e, 0xd1, 0x80, 0x76, 0xbe, 0x4b, 0x8b, 0x60, 0xbf,
  0x07, 0x26, 0x28, 0x3e, 0x8c, 0x31, 0x05, 0x3f, 0x71, 0x27, 0x2c, 0xbf,
  0x28, 0x3c, 0xfe, 0x3e, 0x77, 0x2e, 0xe0, 0x3d, 0x0e, 0x2b, 0x31, 0x3e,
  0xba, 0x25, 0x5a, 0xbf, 0x88, 0xdb, 0xda, 0x3d, 0x38, 0xef, 0xb8, 0x3e,
  0x8e, 0x96, 0xdb, 0xbe, 0x7d, 0xc9, 0x3a, 0x3f, 0xe9, 0x5a, 0x9a, 0x3e,
  0xc2, 0x6b, 0x67, 0xbe, 0xa2, 0x3b, 0xcb, 0x3f, 0x8c, 0x40, 0x07, 0xbf,
  0x5e, 0x18, 0x1f, 0x3f, 0xd9, 0x2e, 0xb3, 0x3e, 0x59, 0x3e, 0x30, 0xbe,
  0xce, 0x1d, 0x0b, 0x3e, 0xd2, 0x85, 0x94, 0x3e, 0xab, 0xef, 0xeb, 0x3d,
  0x6f, 0x96, 0xa6, 0x3f, 0xab, 0xb3, 0xb7, 0x3f, 0xf9, 0xa5, 0xf3, 0xbe,
  0xcc, 0x68, 0x21, 0xbe, 0xbc, 0x73, 0xc7, 0x3e, 0xd0, 0x53, 0x94, 0x3e,
  0x44, 0xdd, 0x34, 0x3e, 0x00, 0xb4, 0xd3, 0xbd, 0xb4, 0x38, 0xb8, 0xbe,
  0x85, 0x65, 0x16, 0xbf, 0x45, 0xf6, 0x06, 0xbf, 0xda, 0x65, 0x08, 0x3f,
  0xb8, 0x45, 0x37, 0xbf, 0xaf, 0x01, 0xb3, 0x3e, 0x86, 0x7f, 0x81, 0xbf,
  0x33, 0xd1, 0xcc, 0x3e, 0x3a, 0xf7, 0xc7, 0xbd, 0xed, 0xa7, 0x8c, 0xbe,
  0x44, 0x6f, 0xfe, 0x3e, 0xc0, 0x35, 0x7d, 0xbf, 0x91, 0x77, 0x4f, 0xbe,
  0x5f, 0xd8, 0x06, 0xc0, 0xf5, 0x37, 0x83, 0xbf, 0x30, 0x34, 0xb5, 0xbe,
  0x84, 0x46, 0xf3, 0xbe, 0x90, 0x86, 0xc2, 0xbe, 0x30, 0x7b, 0x3f, 0x3c,
  0xe8, 0x48, 0xfa, 0x3f, 0x7a, 0xc9, 0xb4, 0x3e, 0x1d, 0xa9, 0xb4, 0x3d,
  0x83, 0xb7, 0x83, 0x3f, 0x24, 0xcf, 0xb4, 0xbe, 0x16, 0xcc, 0xb6, 0xbe,
  0x16, 0xb4, 0x38, 0xbe, 0x76, 0xd1, 0x1d, 0xbf, 0x3d, 0x36, 0x4e, 0x3f,
  0xba, 0x54, 0x86, 0x3f, 0xff, 0xd8, 0x36, 0xbf, 0xb6, 0xf7, 0x4c, 0x3e,
  0xfd, 0x3b, 0x02, 0xc0, 0x7e, 0xab, 0x4c, 0xbe, 0xc7, 0xc5, 0xba, 0x3e,
  0xa5, 0xd7, 0xb4, 0x3e, 0x22, 0x1e, 0x17, 0x3f, 0x8f, 0x03, 0x7d, 0x3e,
  0xa5, 0xdc, 0x8b, 0xbf, 0xf9, 0x82, 0xb9, 0xbe, 0x37, 0xfd, 0x84, 0x3e,
  0x0f, 0x08, 0x19, 0xbf, 0xd5, 0x56, 0xad, 0xbf, 0x9d, 0x8d, 0x96, 0x3f,
  0x05, 0x03, 0x55, 0xbf, 0x5d, 0x1c, 0xb2, 0x3d, 0xcd, 0xa2, 0x4c, 0xbf,
  0x1d, 0xa7, 0x0a, 0xbf, 0xd7, 0xea, 0x97, 0xbe, 0x1b, 0x5e, 0xd3, 0xbe,
  0xf0, 0x5d, 0x06, 0xbe, 0xf9, 0x9a, 0x31, 0x3e, 0xbf, 0x01, 0xe1, 0xbe,
  0x16, 0xfa, 0x33, 0xbf, 0xe9, 0x04, 0x17, 0xbe, 0x83, 0x58, 0x8a, 0x3e,
  0x64, 0xd1, 0x9c, 0xbf, 0x60, 0xd7, 0x18, 0x3f, 0xd7, 0xc2, 0x9b, 0x3f,
  0x99, 0xba, 0xba, 0xbe, 0xf8, 0x90, 0x51, 0x3f, 0x0a, 0x7e, 0x96, 0x3f,
  0x07, 0x45, 0x29, 0x3e, 0xfa, 0x97, 0xbb, 0x3e, 0xc1, 0x34, 0x2e, 0xbf,
  0x17, 0x42, 0x48, 0x3f, 0xbe, 0x25, 0x28, 0x3f, 0x9c, 0xff, 0x2b, 0x3f,
  0xe3, 0xe6, 0xb0, 0x3f, 0xe1, 0xb6, 0xbe, 0x3f, 0x25, 0x36, 0x74, 0xbe,
  0x0d, 0x0d, 0x5e, 0xbf, 0xb3, 0x4d, 0x1e, 0xbe, 0x2e, 0x9b, 0x93, 0x3d,
  0xb8, 0x12, 0x36, 0x3f, 0x97, 0x52, 0x8c, 0x3e, 0xec, 0x4b, 0x71, 0x3e,
  0xa5, 0x88, 0x91, 0x3d, 0xa5, 0xef, 0xf2, 0xbe, 0xb4, 0x09, 0xea, 0xbe,
  0x82, 0xd8, 0x2a, 0xbf, 0x5c, 0xb8, 0x1d, 0xbe, 0x3d, 0x3b, 0xbb, 0xbe,
  0xdc, 0x6f, 0x2f, 0xbf, 0x4d, 0x29, 0xe0, 0x3e, 0x7c, 0xca, 0xdf, 0xbe,
  0x45, 0x16, 0xa1, 0xbe, 0x7e, 0xab, 0x4e, 0xbf, 0x2d, 0xe1, 0x7a, 0x3e,
  0xd7, 0x18, 0x1c, 0x3f, 0x89, 0x82, 0xef, 0x3e, 0x55, 0x86, 0xdb, 0xbd,
  0xf1, 0x6b, 0x58, 0xbf, 0xef, 0x55, 0xb7, 0x3e, 0xaa, 0x2d, 0x74, 0xbf,
  0x44, 0x28, 0x27, 0x3e, 0x69, 0xec, 0x99, 0xbd, 0x3c, 0x1c, 0xb6, 0x3e,
  0xd7, 0xd0, 0x8a, 0x3f, 0x84, 0xb4, 0xaa, 0xbe, 0xd4, 0xd7, 0x44, 0x3f,
  0x02, 0x4a, 0xc6, 0x3f, 0x75, 0xe3, 0x4e, 0x3f, 0xd4, 0xed, 0x3c, 0x3e,
  0x6f, 0xce, 0xa6, 0x3d, 0x45, 0x54, 0xcf, 0xbd, 0x61, 0xa7, 0x87, 0xbf,
  0x70, 0xfe, 0x18, 0x3f, 0x93, 0x56, 0x0b, 0xbe, 0x57, 0x4b, 0x05, 0x3f,
  0xc3, 0xa0, 0xed, 0xbe, 0x98, 0x8c, 0xe9, 0x3e, 0x1d, 0xb1, 0x67, 0x3e,
  0x2d, 0x1c, 0x79, 0xbd, 0xb5, 0xfe, 0x1e, 0xbf, 0x32, 0xda, 0x0e, 0x3f,
  0x16, 0xe5, 0x55, 0xbe, 0x01, 0xe0, 0xcd, 0xbe, 0xfd, 0x97, 0xae, 0xbe,
  0x32, 0xb6, 0xbd, 0xbf, 0x07, 0x77, 0x86, 0x3f, 0x29, 0xce, 0x1e, 0x3d,
  0xd0, 0x92, 0x16, 0x3e, 0xbf, 0x80, 0xbd, 0x3c, 0xbc, 0xa2, 0x6f, 0xbf,
  0x0a, 0xcb, 0x49, 0xbe, 0xc9, 0xf6, 0xbb, 0x3f, 0xbe, 0x59, 0x08, 0xbe,
  0x7c, 0xca, 0xc7, 0xbf, 0x83, 0x37, 0x18, 0xbf, 0xc9, 0xc3, 0x59, 0x3f,
  0x48, 0xf6, 0x0e, 0xbf, 0xbb, 0x82, 0xc5, 0x3e, 0x4b, 0xec, 0x77, 0x3f,
  0x17, 0x30, 0x7f, 0x3f, 0x09, 0xd0, 0xfc, 0x3e, 0xb5, 0x69, 0x71, 0xbf,
  0x6e, 0xec, 0xe6, 0x3f, 0xbd, 0xc9, 0xb2, 0x3d, 0x93, 0x45, 0x0e, 0xbf,
  0xcb, 0x19, 0x03, 0x3f, 0xa8, 0xb3, 0x0d, 0x3f, 0x04, 0x81, 0xe3, 0x3e,
  0xd1, 0xa0, 0x80, 0x3d, 0x56, 0x3a, 0x99, 0xbd, 0x3c, 0xd2, 0xd6, 0xbe,
  0x19, 0x50, 0x56, 0xbe, 0xb6, 0x14, 0xba, 0xbe, 0x88, 0x91, 0x02, 0xbd,
  0x78, 0xd2, 0xac, 0xbf, 0xe5, 0xdb, 0x22, 0x3e, 0x3d, 0x19, 0xab, 0x3e,
  0x49, 0xb1, 0xde, 0x3d, 0xd5, 0xd1, 0x84, 0x3f, 0xbe, 0x55, 0x8f, 0xbf,
  0xc5, 0xd5, 0x29, 0x3e, 0x26, 0x42, 0x2d, 0x3f, 0x05, 0xe2, 0x69, 0xbe,
  0x38, 0x27, 0x23, 0x3e, 0x4a, 0x32, 0x97, 0xbf, 0xb2, 0xc1, 0xbe, 0x3e,
  0x6b, 0x57, 0xb5, 0xbf, 0x18, 0x78, 0x31, 0x3f, 0x23, 0x89, 0xfb, 0x3e,
  0x06, 0xfd, 0x86, 0xbe, 0xc2, 0x92, 0x45, 0x3f, 0x67, 0x0b, 0xb0, 0xbe,
  0x75, 0xaf, 0x9d, 0xbf, 0x3c, 0x67, 0x27, 0xbf, 0x43, 0xc8, 0x4d, 0x3f,
  0x89, 0x5e, 0x50, 0xbf, 0x81, 0xcf, 0x43, 0x3d, 0x72, 0xa1, 0xd3, 0xbe,
  0xe9, 0xb0, 0x91, 0xbf, 0x35, 0x18, 0x41, 0x3f, 0x61, 0x64, 0xbe, 0x3e,
  0x2b, 0x41, 0x89, 0xbe, 0x46, 0xd3, 0x35, 0x3e, 0xd6, 0x4c, 0xc7, 0xbe,
  0x1a, 0x09, 0x1a, 0x3d, 0x9f, 0x68, 0x83, 0xbe, 0x8d, 0x5a, 0xc4, 0xbe,
  0x9d, 0x2f, 0x85, 0x3e, 0x14, 0x1f, 0x41, 0xbf, 0x0e, 0xf8, 0xfd, 0x3c,
  0x8a, 0x00, 0x8a, 0xbe, 0x30, 0x93, 0x53, 0x3e, 0x2d, 0xb7, 0x2e, 0xbf,
  0x09, 0x3a, 0x05, 0xbf, 0xcc, 0x56, 0x26, 0xbf, 0xa3, 0xc4, 0xc2, 0x3e,
  0xcc, 0xde, 0x04, 0xbc, 0xcc, 0x09, 0x8b, 0xbe, 0x4f, 0x50, 0x34, 0x3f,
  0x2a, 0xf9, 0x64, 0xbf, 0x55, 0x38, 0x9f, 0xbf, 0xac, 0xbb, 0x21, 0x3e,
  0x58, 0x0c, 0xa5, 0x3c, 0x81, 0x4d, 0x95, 0x3d, 0x52, 0x75, 0x74, 0xbf,
  0xbd, 0xdf, 0x0b, 0x3e, 0xf6, 0x56, 0xf1, 0x3d, 0x60, 0x39, 0x5e, 0x3f,
  0x64, 0xb4, 0xd6, 0x3e, 0x5d, 0x08, 0x92, 0xbf, 0x4e, 0x7d, 0x58, 0xbf,
  0xbf, 0xc9, 0x36, 0xbf, 0x57, 0x90, 0x0f, 0xbe, 0x17, 0xea, 0xd6, 0x3d,
  0x28, 0xa2, 0x90, 0xbd, 0x38, 0x9d, 0x25, 0xbd, 0xda, 0xe6, 0xef, 0xbe,
  0x31, 0xc3, 0x08, 0xbf, 0xea, 0xb1, 0x11, 0xbf, 0x6a, 0xcd, 0x1a, 0x3f,
  0xd4, 0xba, 0xed, 0xbe, 0x89, 0x00, 0x3c, 0x3f, 0x45, 0xfc, 0x93, 0xbd,
  0x41, 0x90, 0x1e, 0x3f, 0xae, 0x56, 0xe0, 0xbe, 0x0a, 0x23, 0x51, 0x3f,
  0xd4, 0xc8, 0x47, 0x3e, 0xea, 0xa7, 0x46, 0x3d, 0x86, 0x74, 0x14, 0x3d,
  0x5d, 0xf4, 0x11, 0x40, 0xfd, 0x79, 0x22, 0xbf, 0xec, 0x06, 0xc8, 0x3e,
  0x96, 0x54, 0x92, 0xbf, 0x03, 0xe3, 0x83, 0x3e, 0x2d, 0xfe, 0x44, 0x3e,
  0x5d, 0xc2, 0xa3, 0x3e, 0x16, 0x5f, 0x05, 0x3f, 0xfa, 0xdb, 0xe8, 0xbd,
  0xfc, 0x14, 0xa1, 0x3e, 0x36, 0xd1, 0x08, 0xbf, 0xa5, 0x7f, 0x19, 0x3f,
  0x87, 0x2e, 0xfe, 0xbe, 0xe2, 0x5d, 0x71, 0xbe, 0x67, 0xdc, 0xf3, 0xbf,
  0x64, 0x1f, 0x29, 0x3f, 0xf7, 0x7f, 0x04, 0xbf, 0x09, 0xb7, 0xf5, 0xbe,
  0x63, 0xb4, 0x9b, 0x3e, 0x5a, 0x61, 0xd2, 0xbe, 0xbb, 0xd3, 0xbc, 0xbe,
  0x54, 0x29, 0x3f, 0xbe, 0x8b, 0x81, 0x01, 0xbd, 0x6e, 0x6b, 0x8c, 0x3f,
  0x01, 0x2a, 0x31, 0x3f, 0x17, 0x60, 0xf9, 0xbe, 0xb7, 0xa0, 0x50, 0x3f,
  0x06, 0x49, 0xcb, 0x3d, 0x4f, 0xe4, 0xa5, 0x3e, 0x78, 0x9c, 0x36, 0xbf,
  0x85, 0x27, 0x84, 0x3f, 0x07, 0xeb, 0x59, 0xbe, 0x8f, 0x15, 0x46, 0xbf,
  0x1f, 0x9d, 0x89, 0x3f, 0xbf, 0x5b, 0x8c, 0x3f, 0x60, 0x0f, 0x22, 0xbf,
  0xd2, 0x1f, 0x1e, 0x3f, 0x19, 0xd8, 0xce, 0x3e, 0x6c, 0xa2, 0x32, 0xbf,
  0x37, 0xaf, 0x29, 0xbf, 0x22, 0xed, 0xc8, 0x3f, 0xe7, 0x06, 0xf6, 0xbe,
  0x56, 0x71, 0x1d, 0x3f, 0x19, 0x9b, 0x50, 0xbd, 0x83, 0x46, 0x42, 0x3f,
  0x09, 0x64, 0xf9, 0xbd, 0xa5, 0x3b, 0xd6, 0xbe, 0xd6, 0x92, 0x9e, 0x3e,
  0x0b, 0x5f, 0xab, 0xbf, 0x96, 0xb2, 0xf4, 0x3e, 0x33, 0x0c, 0xc7, 0xbe,
  0xe8, 0x00, 0x16, 0x3d, 0xfa, 0x41, 0xc1, 0xbe, 0x19, 0xf8, 0x52, 0x3f,
  0x82, 0x05, 0x79, 0x3f, 0xd6, 0x83, 0x2f, 0x3e, 0x57, 0x01, 0x31, 0x3d,
  0xb3, 0x1d, 0x1c, 0x3f, 0x85, 0x81, 0x17, 0x3f, 0x93, 0x9b, 0xd7, 0x3e,
  0x9b, 0x24, 0x64, 0x3e, 0x9c, 0xbd, 0x95, 0xbe, 0x47, 0xc5, 0x39, 0x3f,
  0x40, 0x65, 0x2d, 0x3e, 0x7c, 0xb1, 0x93, 0xbf, 0x12, 0x4b, 0x2e, 0x3f,
  0x93, 0x9b, 0x13, 0x3f, 0xde, 0x6a, 0x44, 0xbf, 0xa2, 0x01, 0x81, 0x3c,
  0x47, 0xce, 0x9c, 0xbd, 0x29, 0xf2, 0x9e, 0x3e, 0xb4, 0x3f, 0xce, 0xbe,
  0x92, 0x35, 0x10, 0xbe, 0xb6, 0x6f, 0x43, 0x3e, 0xab, 0xac, 0xa3, 0x3f,
  0x9f, 0x69, 0x7b, 0xbf, 0x9a, 0x03, 0x3e, 0x3f, 0xdf, 0x2d, 0xb9, 0xbf,
  0xfc, 0x86, 0x08, 0xbf, 0x79, 0x4a, 0x43, 0x3f, 0xb0, 0x6b, 0x08, 0x3f,
  0x79, 0x30, 0x02, 0xbf, 0xd2, 0xac, 0x05, 0xc0, 0x25, 0xd9, 0x0a, 0x3f,
  0x27, 0xbf, 0xa5, 0x3f, 0xfb, 0x30, 0x63, 0x3f, 0xdf, 0x6b, 0xd2, 0xb8,
  0xd9, 0x55, 0x45, 0x3d, 0x29, 0x12, 0x6d, 0xbe, 0x94, 0x4d, 0xc5, 0xbe,
  0xaf, 0xb6, 0x84, 0xbf, 0xd6, 0xd9, 0x18, 0x3f, 0x07, 0x92, 0x26, 0xbf,
  0xc4, 0xea, 0x70, 0xbe, 0x6c, 0xcd, 0xd3, 0x3e, 0x23, 0x0f, 0x95, 0x3e,
  0x8d, 0xb2, 0x7f, 0x3d, 0x3c, 0x20, 0x0e, 0xbf, 0x1f, 0x40, 0x70, 0x3f,
  0x25, 0xf7, 0x99, 0x3e, 0xc4, 0x98, 0xaa, 0xbe, 0x0b, 0x1d, 0x07, 0x3c,
  0x8a, 0xe1, 0xae, 0xbf, 0x3e, 0x16, 0x95, 0xbf, 0x87, 0xb4, 0xa5, 0x3e,
  0x97, 0xc0, 0x20, 0xbf, 0x7a, 0x5f, 0x8d, 0x3e, 0x03, 0xf8, 0x62, 0xbf,
  0x66, 0x73, 0xc0, 0xbe, 0xe1, 0xf5, 0x94, 0xbf, 0xc7, 0x35, 0x3a, 0xbf,
  0xff, 0x58, 0x9d, 0x3f, 0x1d, 0x56, 0x86, 0x3f, 0xc3, 0xab, 0x88, 0x3f,
  0x62, 0x66, 0x10, 0xbf, 0x6d, 0x1c, 0xac, 0x3e, 0x68, 0x42, 0x03, 0x3f,
  0x4b, 0xd1, 0xc5, 0xbe, 0xc4, 0x00, 0xa2, 0xbd, 0xef, 0x35, 0x85, 0x3e,
  0x23, 0x1d, 0x5b, 0xbf, 0xba, 0xbf, 0xca, 0x3e, 0x90, 0x0d, 0x45, 0x3e,
  0x64, 0x6f, 0x0b, 0x3f, 0x88, 0xda, 0xb2, 0x3d, 0x54, 0xd8, 0x7b, 0x3f,
  0x85, 0x6b, 0x8f, 0x3e, 0x2a, 0x0c, 0xfb, 0xbd, 0x64, 0x3a, 0x9a, 0xbe,
  0x9f, 0xfe, 0x50, 0x3e, 0xf3, 0xf1, 0xbc, 0xbe, 0xd3, 0xfc, 0x94, 0x3e,
  0xcd, 0x5e, 0x7d, 0xbf, 0xcc, 0x7a, 0x7a, 0xbf, 0x52, 0x20, 0x63, 0xbe,
  0x5a, 0xed, 0x2f, 0xbe, 0x2a, 0xe6, 0xc6, 0xbf, 0xde, 0x9e, 0x24, 0xbe,
  0xdb, 0x93, 0xf3, 0xbb, 0x88, 0x7e, 0xa3, 0x3e, 0x72, 0x0a, 0xfb, 0x3e,
  0x8d, 0x42, 0xd5, 0x3e, 0x61, 0x53, 0xfb, 0x3e, 0x25, 0xb3, 0xae, 0xbf,
  0x48, 0x97, 0x06, 0x3f, 0x01, 0xb5, 0xce, 0x3f, 0xea, 0x1a, 0x04, 0x3f,
  0xf7, 0x99, 0x5b, 0xbe, 0x85, 0x40, 0xeb, 0xbc, 0x8a, 0x69, 0x94, 0x3e,
  0x42, 0xb8, 0x81, 0x3f, 0x04, 0x6f, 0xe7, 0x3f, 0x06, 0x5b, 0x7a, 0x3e,
  0x68, 0xd1, 0xac, 0x3e, 0x27, 0x95, 0x3c, 0xbf, 0xa4, 0x3f, 0x0a, 0xbf,
  0xd7, 0x40, 0x0b, 0x3f, 0x19, 0x75, 0x9b, 0xbe, 0x0b, 0x27, 0xc1, 0x3e,
  0x88, 0xcd, 0xf5, 0x3e, 0x29, 0x44, 0x65, 0x3e, 0xae, 0xda, 0x95, 0xbe,
  0x34, 0xa9, 0x7a, 0x3f, 0x42, 0xd2, 0xdf, 0x3d, 0xae, 0xd7, 0x08, 0xbf,
  0x05, 0xbb, 0xa2, 0x3c, 0xf7, 0x5c, 0xcc, 0xbd, 0x10, 0xd2, 0x47, 0xbf,
  0xd2, 0x81, 0x4f, 0x3f, 0x5a, 0x69, 0x9a, 0xbf, 0x0f, 0x07, 0xf5, 0xbe,
  0xb7, 0x80, 0x4d, 0xbe, 0x4d, 0x11, 0x0e, 0xbf, 0x9e, 0x9a, 0x2e, 0x3f,
  0xbb, 0x05, 0x2c, 0xbf, 0x6e, 0x10, 0x18, 0xbf, 0x15, 0x67, 0x6f, 0x3d,
  0x4e, 0x87, 0x39, 0xbd, 0x05, 0x41, 0x8b, 0xbe, 0x34, 0x92, 0xa1, 0xbe,
  0xe4, 0x67, 0xb3, 0x3f, 0x68, 0x6e, 0xed, 0x3e, 0x95, 0x0b, 0x54, 0x3e,
  0x20, 0x7f, 0xd7, 0x3e, 0x09, 0x20, 0xcb, 0x3d, 0x57, 0x9a, 0x12, 0xbf,
  0xfb, 0x25, 0x21, 0x3d, 0x5c, 0x0d, 0x81, 0x3d, 0x1e, 0xb5, 0x1e, 0xbf,
  0x48, 0x3e, 0x1c, 0x3f, 0x4d, 0x29, 0xc1, 0x3e, 0xa9, 0x74, 0xb7, 0xbf,
  0x1b, 0x54, 0xa4, 0xbd, 0x66, 0x4f, 0xb6, 0x3d, 0xdd, 0x32, 0x4d, 0xbf,
  0x5e, 0xe4, 0xb3, 0xbd, 0x38, 0x60, 0xbd, 0xbe, 0xc5, 0xf2, 0xb1, 0xbf,
  0x16, 0xa2, 0x92, 0x3c, 0x99, 0xdc, 0x39, 0x3f, 0x60, 0xad, 0x50, 0xbf,
  0xda, 0x3f, 0x5a, 0xbf, 0x03, 0x3c, 0x6d, 0xbe, 0xb9, 0x98, 0x85, 0x3f,
  0x24, 0x11, 0x89, 0x3f, 0x15, 0x59, 0x38, 0xbe, 0xa6, 0x85, 0x1c, 0x3f,
  0x16, 0xb4, 0x3f, 0xbf, 0x9b, 0x76, 0x9a, 0xbf, 0x3c, 0x46, 0xf6, 0x3e,
  0x9d, 0x69, 0x0d, 0xbf, 0xab, 0x6c, 0xbe, 0x3e, 0x26, 0x3b, 0x71, 0xbf,
  0xb3, 0xb3, 0x83, 0x3f, 0x3f, 0x17, 0x29, 0x3f, 0xf3, 0xf1, 0x76, 0x3e,
  0xe2, 0x54, 0x9b, 0x3e, 0xac, 0xc4, 0x89, 0x3f, 0x8e, 0xff, 0x81, 0xbe,
  0xca, 0x8d, 0x11, 0xbe, 0x90, 0xf5, 0x99, 0x3f, 0xc7, 0xf8, 0xc2, 0xbd,
  0xfc, 0x8d, 0x6a, 0x3e, 0x99, 0xcd, 0x9f, 0x3f, 0x8d, 0xe9, 0x94, 0xbf,
  0x56, 0x63, 0xa2, 0xbe, 0xb7, 0xe1, 0x96, 0xbf, 0xd9, 0xb6, 0x4b, 0x3f,
  0xc7, 0x50, 0xb7, 0x3e, 0xd2, 0xfd, 0xf7, 0xbe, 0x43, 0x6e, 0x07, 0x3e,
  0x4c, 0x39, 0x67, 0x3f, 0xad, 0x60, 0x25, 0xbf, 0x2c, 0x3e, 0xf3, 0x3e,
  0x49, 0x12, 0x03, 0xbf, 0xb2, 0x8c, 0x1f, 0x3e, 0xe5, 0x47, 0x06, 0x3f,
  0xef, 0x4a, 0xc6, 0x3e, 0x54, 0xa7, 0x02, 0x3d, 0xbd, 0x68, 0x8d, 0xbe,
  0x40, 0xfe, 0x00, 0xbf, 0x27, 0x0d, 0x0f, 0x3f, 0x64, 0x9c, 0xa6, 0xbf,
  0x5f, 0x06, 0xbf, 0xbd, 0xaa, 0x26, 0x87, 0x3e, 0x9d, 0xe4, 0x4e, 0x3f,
  0x74, 0x34, 0x8b, 0x3f, 0xa1, 0x1e, 0x21, 0x3f, 0xd1, 0x5d, 0x34, 0x3f,
  0xab, 0x7c, 0x3c, 0xbe, 0x87, 0x55, 0xd8, 0xbe, 0xe6, 0x04, 0xc3, 0x3f,
  0x6c, 0x1d, 0x68, 0x3e, 0x8e, 0xba, 0xcd, 0x3e, 0x11, 0xb4, 0x4b, 0xbf,
  0x16, 0xff, 0x33, 0x3f, 0xc5, 0x93, 0x70, 0xbe, 0x54, 0x58, 0xb6, 0xbe,
  0xf4, 0xbc, 0xe4, 0xbe, 0x6d, 0x7d, 0x3a, 0x3f, 0xb5, 0xb7, 0x93, 0x3e,
  0xd8, 0x39, 0xb9, 0xbe, 0xd4, 0xc3, 0x38, 0xbf, 0x4b, 0xd0, 0xef, 0x3e,
  0xc8, 0x98, 0x0b, 0xbf, 0xe4, 0x41, 0xfc, 0x3e, 0x1d, 0x31, 0x8e, 0x3f,
  0xcd, 0xcf, 0xf9, 0x3b, 0x88, 0x35, 0x35, 0xbf, 0x67, 0x70, 0x85, 0x3f,
  0xeb, 0xa4, 0x03, 0x3f, 0x2d, 0x12, 0x79, 0xbf, 0x19, 0xb1, 0x82, 0x3e,
  0xd8, 0x3c, 0xfa, 0xbe, 0x6b, 0x5d, 0xc2, 0x3e, 0xcc, 0xbb, 0x2a, 0xbf,
  0xba, 0x86, 0x02, 0xbe, 0x52, 0x63, 0xf4, 0x3e, 0x40, 0x00, 0xc6, 0xbe,
  0xa3, 0x6d, 0x9a, 0xbf, 0x02, 0x72, 0x35, 0x3f, 0x84, 0xe2, 0x31, 0x3f,
  0xfa, 0x82, 0x90, 0x3e, 0x84, 0x63, 0x93, 0x3d, 0x07, 0x63, 0x0e, 0x3f,
  0xab, 0x8b, 0x09, 0xbf, 0x6a, 0x31, 0x17, 0x3f, 0x90, 0xd9, 0x3a, 0x3f,
  0xe5, 0x7d, 0x94, 0xbe, 0x2c, 0x99, 0x0b, 0xbf, 0x87, 0x91, 0x6e, 0x3e,
  0x95, 0xda, 0x54, 0xbf, 0xdb, 0xf1, 0x27, 0xbf, 0x29, 0x43, 0xbd, 0x3e,
  0x44, 0xdf, 0x09, 0x3f, 0x0f, 0xbf, 0xb3, 0x3f, 0x88, 0xfa, 0x00, 0xbe,
  0x62, 0x6a, 0xa9, 0x3e, 0x7c, 0x27, 0x83, 0xbf, 0x07, 0x6a, 0x99, 0x3d,
  0x86, 0x6d, 0x97, 0xbb, 0x2a, 0x4a, 0x06, 0xbf, 0xf2, 0x61, 0x75, 0xbf,
  0xdd, 0x08, 0xa1, 0x3e, 0xd4, 0x83, 0xdc, 0x3e, 0x1a, 0x63, 0x66, 0xbf,
  0xd9, 0xb8, 0xce, 0xbf, 0x5e, 0x77, 0x21, 0x3e, 0x7c, 0x7d, 0x0a, 0xbf,
  0xd6, 0x96, 0x3c, 0xbe, 0xae, 0xfc, 0x48, 0xbf, 0xa6, 0xed, 0x4f, 0x3f,
  0xbb, 0xd7, 0xa1, 0x3e, 0x0d, 0x1d, 0xbe, 0xbe, 0xd2, 0xb0, 0xcd, 0x3f,
  0x53, 0x72, 0x57, 0xbd, 0x38, 0x11, 0x2d, 0x3f, 0xd2, 0xda, 0x7a, 0x3f,
  0x20, 0xbf, 0x85, 0x3d, 0x8a, 0x7e, 0x61, 0xbf, 0x4a, 0xad, 0xdb, 0xbe,
  0xca, 0x7c, 0xc5, 0xbe, 0x4d, 0x6c, 0xd5, 0x3e, 0x2b, 0x58, 0x81, 0x3f,
  0xf4, 0xa2, 0x5b, 0x3f, 0xf1, 0x25, 0x4d, 0xbe, 0x99, 0x81, 0x4f, 0xbd,
  0xe7, 0xa3, 0xba, 0x3d, 0x72, 0x1b, 0x99, 0xbf, 0x23, 0x9f, 0x68, 0xbe,
  0xf9, 0x4b, 0x8c, 0xbf, 0x28, 0x45, 0xea, 0x3d, 0xce, 0x7d, 0x1d, 0x3f,
  0x8c, 0x1d, 0xf2, 0xbe, 0x12, 0x03, 0x8a, 0x3f, 0x4b, 0x12, 0xd1, 0xbf,
  0xf5, 0x9c, 0xca, 0xbe, 0xac, 0x3f, 0x0d, 0x3f, 0xf2, 0xaf, 0x5b, 0xbe,
  0x1e, 0x55, 0x84, 0x3e, 0x6f, 0x25, 0xdc, 0x3e, 0xca, 0xc3, 0x99, 0xbe,
  0xda, 0x66, 0x03, 0xbf, 0x6c, 0xca, 0x45, 0x3f, 0x9e, 0x97, 0xfe, 0x3d,
  0x55, 0x77, 0xf3, 0xbd, 0xbf, 0x28, 0x61, 0xbe, 0x3a, 0xe8, 0x6d, 0xbf,
  0x58, 0xca, 0x4e, 0x3f, 0xce, 0x14, 0xd4, 0xbe, 0xb5, 0xd3, 0xd5, 0xbd,
  0xfb, 0x05, 0x2c, 0x3c, 0x9a, 0xc6, 0xb5, 0x3e, 0xa8, 0x41, 0x85, 0xbf,
  0xa0, 0x12, 0x55, 0x3e, 0x70, 0x33, 0x29, 0xbf, 0x80, 0xf5, 0x6d, 0xbe,
  0xe7, 0xc3, 0xba, 0xbd, 0x82, 0xfe, 0xe5, 0xbf, 0x78, 0x75, 0xa2, 0x3e,
  0x0c, 0x0e, 0xa4, 0x3f, 0xb3, 0x5d, 0xb2, 0x3e, 0x78, 0x61, 0xb5, 0x3e,
  0xfb, 0x42, 0x5a, 0xbf, 0x63, 0xb2, 0x29, 0xbe, 0x60, 0x8a, 0x60, 0x3f,
  0x03, 0xdb, 0x08, 0x3f, 0xc7, 0x98, 0x88, 0x3d, 0xb3, 0xee, 0xb7, 0xbe,
  0xf6, 0x6a, 0x53, 0xbe, 0x9b, 0xcc, 0x13, 0x3f, 0x60, 0x2c, 0xc2, 0xbe,
  0xbd, 0xef, 0x9b, 0xbe, 0x70, 0xb7, 0xf6, 0x3e, 0x3c, 0x66, 0x39, 0xbf,
  0xfd, 0xa9, 0xef, 0x3d, 0x10, 0xa4, 0x1e, 0xbe, 0x25, 0xfd, 0xfd, 0x3f,
  0x79, 0xf9, 0xbc, 0x3d, 0x9f, 0x66, 0x89, 0xbe, 0x4c, 0xf8, 0x96, 0xbe,
  0x6c, 0xbf, 0x02, 0xbf, 0xe5, 0xb3, 0x91, 0x3d, 0xb1, 0x99, 0x48, 0x3f,
  0x67, 0x3f, 0x85, 0x3f, 0x09, 0x3c, 0x10, 0xbe, 0x39, 0xe6, 0xe1, 0x3e,
  0x40, 0x90, 0x98, 0xbf, 0xce, 0xb2, 0x1d, 0x3f, 0xd1, 0x7e, 0x54, 0xbf,
  0x9e, 0xa0, 0x8a, 0x3d, 0x90, 0x57, 0x95, 0x3e, 0x29, 0x3b, 0x82, 0xbf,
  0x26, 0x91, 0x92, 0x3f, 0xec, 0xb9, 0x83, 0x3e, 0x92, 0x48, 0x65, 0xbf,
  0x76, 0xe9, 0xb6, 0x3e, 0x98, 0x0e, 0x24, 0xbd, 0xa1, 0x86, 0x0a, 0x3f,
  0xf5, 0x37, 0x08, 0xbe, 0x23, 0x25, 0x84, 0x3e, 0x60, 0x02, 0x08, 0x3f,
  0x8e, 0x6c, 0x58, 0xbf, 0x78, 0xd3, 0x4a, 0xbe, 0x25, 0x50, 0x2e, 0xbe,
  0xe1, 0x0f, 0xad, 0x3e, 0x80, 0x3c, 0xe0, 0x3d, 0x96, 0x58, 0x80, 0xbf,
  0xe6, 0xf7, 0x81, 0x3e, 0x5f, 0x8b, 0xe9, 0xbe, 0x93, 0x9e, 0x93, 0x3f,
  0x08, 0xd4, 0xc8, 0xbf, 0x08, 0xf4, 0x03, 0x3e, 0xb5, 0xbd, 0x73, 0xbf,
  0xcc, 0x08, 0x24, 0x3f, 0x2d, 0x04, 0x52, 0xbe, 0xb0, 0xa0, 0xcf, 0x3e,
  0x4a, 0x70, 0xa9, 0xbe, 0xbe, 0x4c, 0xe0, 0x3d, 0x1e, 0x8c, 0x2e, 0x3f,
  0x87, 0x6c, 0xe7, 0xbe, 0xbe, 0xb8, 0x6e, 0x3f, 0xfb, 0x62, 0x4e, 0x3e,
  0x0d, 0xbf, 0xa5, 0x3f, 0x62, 0x11, 0xf0, 0xbd, 0xd1, 0x0d, 0x63, 0xbf,
  0x0c, 0x02, 0x43, 0x3f, 0x4c, 0xde, 0x57, 0x3f, 0x5b, 0x23, 0x1f, 0xbe,
  0x85, 0x47, 0xa5, 0x3e, 0x5e, 0xd5, 0x92, 0xbe, 0xab, 0xa6, 0x4b, 0x3e,
  0x3a, 0x4c, 0x26, 0x3f, 0x08, 0x6d, 0xce, 0x3e, 0x3b, 0x18, 0xb8, 0xbe,
  0xe2, 0xd4, 0x1d, 0xbf, 0x7a, 0x0e, 0xb6, 0x3e, 0xdd, 0x74, 0xd1, 0xbf,
  0x92, 0x12, 0xe9, 0x3e, 0xc1, 0x24, 0x98, 0xbf, 0xdd, 0x83, 0x25, 0xbe,
  0x97, 0x2a, 0x06, 0x3f, 0xb6, 0xd9, 0xc8, 0xbd, 0x47, 0xf4, 0x48, 0xbe,
  0xb2, 0x69, 0x05, 0xbe, 0xa5, 0x58, 0x4d, 0x3f, 0x81, 0x9c, 0xd6, 0xbe,
  0xcf, 0x9d, 0x95, 0xbe, 0x55, 0x68, 0xf4, 0x3e, 0xc9, 0x01, 0x46, 0x3f,
  0x0b, 0x46, 0xa3, 0xbf, 0xf7, 0xff, 0x53, 0xbe, 0x22, 0x7f, 0x76, 0xbd,
  0xc7, 0xdb, 0x41, 0x3f, 0x14, 0x26, 0x41, 0x3e, 0x08, 0xa9, 0x3d, 0xbf,
  0xcf, 0x2a, 0x1f, 0xbf, 0x7f, 0x5a, 0xc0, 0xbd, 0x14, 0x78, 0x01, 0xbd,
  0xb0, 0x56, 0x61, 0x3f, 0x25, 0x5e, 0x39, 0xbe, 0x18, 0xc2, 0xe4, 0x3e,
  0x13, 0x2e, 0xbd, 0x3e, 0x1e, 0x49, 0x1b, 0x3f, 0x18, 0x16, 0x17, 0x3e,
  0xbe, 0x25, 0xab, 0x3e, 0x8d, 0x31, 0xf4, 0xbe, 0x11, 0x8b, 0x93, 0xbf,
  0x83, 0x40, 0x89, 0xbe, 0x78, 0x01, 0x9a, 0x3d, 0x95, 0x32, 0x62, 0x3f,
  0xc2, 0x44, 0x1e, 0x3d, 0x0a, 0xbc, 0xa7, 0x3f, 0x71, 0x16, 0xd6, 0x3e,
  0x17, 0x70, 0x65, 0x3e, 0xb6, 0xd9, 0x3e, 0xbe, 0x29, 0x57, 0x87, 0x3f,
  0x1b, 0xb7, 0x6a, 0xbf, 0x63, 0xe6, 0x2e, 0x3f, 0x7b, 0xd2, 0xb8, 0x3e,
  0x9e, 0x7b, 0xd4, 0xbe, 0x0e, 0xb7, 0x6b, 0xbe, 0x4f, 0xb6, 0xa2, 0xbf,
  0x65, 0xdd, 0x1b, 0xbf, 0xea, 0x28, 0x8e, 0x3e, 0xe9, 0xca, 0x7d, 0x3f,
  0x3b, 0xaf, 0xd8, 0x3e, 0x3b, 0x5a, 0x57, 0x3f, 0x98, 0x58, 0xfc, 0x3e,
  0x7e, 0x4d, 0x7b, 0xbe, 0xa1, 0x92, 0x2a, 0xbf, 0x72, 0x43, 0xdd, 0x3d,
  0xfe, 0x61, 0xc8, 0xbd, 0xec, 0x6f, 0x09, 0xbf, 0xec, 0x1a, 0xf0, 0xbe,
  0xb6, 0x9c, 0x9f, 0xbf, 0xdd, 0xcd, 0x85, 0x3f, 0xe0, 0x33, 0x18, 0x3e,
  0x72, 0xcc, 0x8a, 0xbf, 0xe9, 0xe2, 0x9c, 0xbc, 0xeb, 0x0b, 0x79, 0xbf,
  0x9a, 0xd2, 0x56, 0x3e, 0xf3, 0x9f, 0x38, 0x3f, 0x64, 0x13, 0x9f, 0x3e,
  0xca, 0x42, 0x2f, 0x3f, 0x50, 0x6b, 0x95, 0xbd, 0xd0, 0x84, 0x11, 0xbf,
  0x9d, 0x88, 0x78, 0x3f, 0x11, 0xee, 0x35, 0x3f, 0x34, 0x9c, 0x2d, 0x3f,
  0x4b, 0x72, 0x61, 0x3d, 0x0e, 0x0d, 0xb6, 0x3e, 0xb1, 0x10, 0x9d, 0xbf,
  0x97, 0x5a, 0x60, 0xbe, 0x36, 0xd7, 0x1a, 0x3f, 0x67, 0xae, 0x75, 0x3f,
  0x69, 0xa4, 0x46, 0xbe, 0x84, 0xaa, 0xae, 0x3f, 0x7e, 0xc0, 0xf7, 0xbc,
  0xbf, 0x17, 0x85, 0xbf, 0x34, 0x9c, 0x6e, 0xbe, 0xda, 0x13, 0x3d, 0x3f,
  0x2e, 0x71, 0x9a, 0x3f, 0x90, 0x28, 0xd8, 0xbe, 0x94, 0x9c, 0x95, 0x3e,
  0x2b, 0x54, 0x8f, 0xbe, 0x20, 0xf0, 0xa9, 0xbf, 0xdd, 0x5c, 0x08, 0xbe,
  0x9e, 0xc2, 0x41, 0x3f, 0xb4, 0xde, 0x46, 0x3f, 0x42, 0x4b, 0x1b, 0xbf,
  0xac, 0x5a, 0x63, 0xbd, 0xd8, 0x9a, 0xd7, 0x3d, 0x8c, 0x5a, 0xf9, 0xbe,
  0x9d, 0x67, 0xa5, 0xbe, 0xef, 0x12, 0x5c, 0xbf, 0xd6, 0x54, 0x8e, 0xbe,
  0x15, 0x70, 0xf2, 0x3d, 0x4c, 0x70, 0x15, 0x40, 0x99, 0x75, 0x73, 0x3f,
  0xf0, 0x22, 0x28, 0x3f, 0xac, 0xad, 0x9a, 0x3e, 0x6b, 0x1e, 0x70, 0x3e,
  0x7e, 0xda, 0x9a, 0xbe, 0xe0, 0xa0, 0x18, 0xbf, 0xe4, 0x4a, 0x76, 0x3e,
  0xa1, 0xf1, 0x98, 0x3e, 0xd8, 0xd0, 0x09, 0x3f, 0x53, 0x30, 0x58, 0xbe,
  0xf9, 0xbf, 0xab, 0xbd, 0x59, 0x83, 0x6d, 0xbf, 0xb5, 0x9e, 0x41, 0x3c,
  0x50, 0x2c, 0x6a, 0xbf, 0x94, 0x07, 0x47, 0x3e, 0x88, 0xc2, 0x78, 0xbe,
  0x6f, 0x64, 0x35, 0x3d, 0x44, 0x0b, 0x47, 0x3e, 0xf6, 0x31, 0xd7, 0x3e,
  0x67, 0xe8, 0xfe, 0xbe, 0x5b, 0x65, 0x07, 0x3f, 0xc8, 0x22, 0x98, 0xbd,
  0xf5, 0x28, 0x94, 0x3e, 0x1f, 0xbe, 0x1f, 0x3f, 0xf6, 0x3b, 0x52, 0x3e,
  0xdc, 0x52, 0x4a, 0x3f, 0xca, 0x12, 0x85, 0xbf, 0xa5, 0x05, 0x87, 0x3e,
  0x0b, 0xb9, 0x49, 0xbe, 0x7b, 0xaf, 0xae, 0x3f, 0xc0, 0xa3, 0x3d, 0x3e,
  0x21, 0x91, 0x50, 0xbf, 0x53, 0x94, 0x83, 0x3e, 0xd9, 0x0f, 0x10, 0x3f,
  0x6e, 0x4b, 0x00, 0xbf, 0xed, 0x8a, 0x23, 0xbe, 0x6c, 0x7c, 0x0e, 0xbf,
  0x07, 0x7f, 0xf6, 0xbe, 0x56, 0x9c, 0x1f, 0xbf, 0xec, 0x68, 0x18, 0x3e,
  0xa2, 0x0a, 0xa1, 0xbf, 0x9d, 0xdf, 0x53, 0xbe, 0x66, 0xc1, 0xc0, 0x3e,
  0x3d, 0x11, 0xb8, 0x3f, 0x74, 0x5a, 0x94, 0x3e, 0xa4, 0xa1, 0xc2, 0xbe,
  0x44, 0x11, 0x94, 0xbf, 0xa8, 0xa0, 0x56, 0xbf, 0xe2, 0x42, 0xf6, 0xbe,
  0x1d, 0xe5, 0x37, 0xbf, 0x91, 0x82, 0x3a, 0x3f, 0xf6, 0x52, 0x22, 0x3e,
  0xac, 0x3d, 0x93, 0x3f, 0xfc, 0xfe, 0xb8, 0x3d, 0x97, 0xfa, 0xb6, 0xbf,
  0x80, 0x7d, 0x07, 0xbf, 0x7d, 0x57, 0xd1, 0x3e, 0x5b, 0xcd, 0xde, 0xbe,
  0xf2, 0x54, 0x53, 0xbe, 0x73, 0x8b, 0x67, 0xbf, 0x48, 0xb4, 0x3e, 0x3f,
  0xa7, 0x60, 0x2c, 0xbf, 0x55, 0x87, 0x76, 0x3e, 0x22, 0xb3, 0x2b, 0xbf,
  0xd0, 0x53, 0xa4, 0xbe, 0x4f, 0x86, 0x61, 0xbe, 0x6e, 0x3e, 0x53, 0x3f,
  0x82, 0x75, 0x2c, 0x3f, 0x91, 0x24, 0x69, 0xbf, 0x30, 0x61, 0xd8, 0xbe,
  0xe2, 0x02, 0xa5, 0x3e, 0x29, 0x32, 0xf2, 0xbc, 0x33, 0x7a, 0xee, 0xbe,
  0x15, 0x65, 0xec, 0xbe, 0x2f, 0x99, 0xa2, 0xbe, 0xee, 0x04, 0x72, 0xbe,
  0xd3, 0x41, 0xa7, 0x3f, 0xd4, 0xb6, 0x9b, 0xbe, 0xf5, 0xd4, 0xa4, 0xbf,
  0x10, 0xd8, 0x5f, 0x3e, 0xc1, 0x72, 0x5c, 0x3f, 0xe1, 0xc1, 0xb7, 0x3f,
  0x5a, 0xb7, 0xa2, 0xbf, 0x27, 0xc4, 0x66, 0x3f, 0x1c, 0x00, 0x7e, 0x3f,
  0x40, 0xe3, 0xf4, 0x3e, 0xbe, 0xcc, 0xc2, 0x3d, 0x27, 0x68, 0x85, 0xbf,
  0x95, 0x9e, 0xbd, 0x3e, 0xa9, 0x14, 0x00, 0xbf, 0x6b, 0x35, 0xc0, 0x3e,
  0x9e, 0x30, 0x90, 0x3f, 0x4f, 0x53, 0xe9, 0x3e, 0xb2, 0x2b, 0x6e, 0x3e,
  0x7e, 0xce, 0x37, 0xbf, 0x38, 0x05, 0x80, 0xbf, 0xda, 0x62, 0xb0, 0x3f,
  0x2b, 0xe5, 0x09, 0xbf, 0x2d, 0xd9, 0x3f, 0xbf, 0x81, 0x6e, 0x97, 0xbe,
  0x2a, 0x00, 0x2a, 0x3f, 0xa1, 0xe5, 0xeb, 0x3e, 0xfb, 0x00, 0x22, 0xbf,
  0xb9, 0x91, 0x94, 0xbe, 0xfd, 0x9d, 0x7c, 0x3e, 0x76, 0x01, 0x0b, 0xbe,
  0xd9, 0x85, 0x75, 0x3f, 0xfe, 0x82, 0x9e, 0xbf, 0x0b, 0xd1, 0x4d, 0x3e,
  0x4c, 0x5e, 0xc3, 0x3f, 0x80, 0xac, 0x31, 0xbf, 0x09, 0x63, 0x89, 0xbe,
  0x45, 0x9b, 0x8d, 0x3e, 0xef, 0x76, 0x41, 0x3e, 0xc7, 0x38, 0x3b, 0x3d,
  0xa2, 0xc4, 0x1e, 0x3f, 0x12, 0xe1, 0xff, 0xff, 0x04, 0x00, 0x00, 0x00,
  0x00, 0x02, 0x00, 0x00, 0x9b, 0x12, 0x16, 0xbe, 0xab, 0x45, 0x6c, 0xbe,
  0x81, 0x73, 0x6e, 0x3f, 0x15, 0xf4, 0xb7, 0x3d, 0x5e, 0xa3, 0x33, 0xbd,
  0x91, 0xa6, 0x02, 0xbe, 0x60, 0x7e, 0xb8, 0x3d, 0x45, 0x0c, 0xff, 0xbd,
  0x35, 0xa6, 0xaa, 0xbf, 0xdd, 0x6c, 0x80, 0x3e, 0x4b, 0x53, 0xfa, 0xbe,
  0xe4, 0x8c, 0x36, 0xbf, 0x4f, 0xfb, 0x88, 0x3e, 0x34, 0x19, 0x13, 0x3f,
  0xb7, 0x1e, 0xfb, 0xbd, 0x6c, 0xea, 0xe2, 0xbd, 0x87, 0xcf, 0xbf, 0x3c,
  0x31, 0x58, 0x47, 0x3e, 0x20, 0xa5, 0x8e, 0xbc, 0xbf, 0x87, 0xc0, 0xbe,
  0x75, 0x4a, 0xa3, 0xbe, 0xd4, 0xa1, 0xdd, 0x3e, 0x37, 0x2e, 0x5d, 0x3f,
  0xe4, 0x8c, 0xef, 0x3e, 0x82, 0xc4, 0x8f, 0xbf, 0x26, 0x83, 0xc1, 0xbc,
  0xc2, 0x34, 0x18, 0xbe, 0x39, 0x9f, 0xc7, 0xbe, 0xa1, 0x1e, 0x87, 0x3e,
  0xda, 0x9d, 0x6f, 0x3e, 0x10, 0xa1, 0x27, 0x3e, 0xc2, 0xba, 0x11, 0x3e,
  0xae, 0xc4, 0x78, 0x3f, 0xe0, 0x34, 0x9c, 0xbe, 0xed, 0xa0, 0x94, 0xbf,
  0xda, 0x1c, 0x3b, 0xbe, 0x9e, 0x78, 0x18, 0x3f, 0xc2, 0x3d, 0x00, 0x3f,
  0x39, 0x67, 0x7d, 0x3d, 0x27, 0x5c, 0x82, 0x3e, 0xbc, 0xd3, 0x26, 0xbf,
  0xd8, 0x7b, 0x98, 0xbe, 0x5b, 0xd1, 0x23, 0xbf, 0x64, 0x7c, 0xd2, 0x3e,
  0x83, 0x05, 0xfc, 0x3e, 0xcd, 0x2a, 0xd0, 0xbd, 0xa3, 0x6f, 0x04, 0x3e,
  0x30, 0x7a, 0x49, 0x3e, 0xca, 0x51, 0x94, 0xbe, 0x99, 0x21, 0x44, 0xbd,
  0x11, 0x4c, 0x82, 0xbc, 0x82, 0x0f, 0x17, 0xbf, 0xc4, 0xe1, 0xa3, 0x3e,
  0xb2, 0xb6, 0x41, 0xbe, 0xfe, 0x13, 0xe9, 0x3d, 0x98, 0x2d, 0x86, 0xbf,
  0xc4, 0xa7, 0x66, 0x3f, 0xc2, 0x9c, 0x8d, 0x3f, 0xd4, 0xe8, 0xd7, 0x3e,
  0x53, 0x17, 0xd5, 0x3d, 0x87, 0xec, 0x12, 0xbd, 0x84, 0x5e, 0x04, 0xbf,
  0xdb, 0x0a, 0x97, 0xbe, 0x14, 0x47, 0x67, 0xbf, 0x2f, 0x2b, 0xe5, 0xbc,
  0x4b, 0xc5, 0x3f, 0xbe, 0xca, 0x4a, 0x22, 0xbe, 0x1f, 0x54, 0x2b, 0xbf,
  0x73, 0xbb, 0x28, 0xbd, 0x3e, 0x50, 0x24, 0xbe, 0x27, 0x1b, 0xe9, 0xbe,
  0x58, 0x98, 0x29, 0xbe, 0xc8, 0xc5, 0xfa, 0x3e, 0xdf, 0xd8, 0x0e, 0x3f,
  0xc1, 0x93, 0x98, 0x3d, 0x7d, 0xd8, 0x55, 0xbf, 0x6c, 0x95, 0x86, 0x3f,
  0x87, 0x14, 0x33, 0xbf, 0x8f, 0x72, 0xe0, 0xbd, 0xaf, 0x69, 0x7d, 0x3e,
  0x85, 0x0c, 0xe5, 0x3e, 0x58, 0x2f, 0xd9, 0x3e, 0xe2, 0x42, 0x76, 0x3f,
  0xfe, 0x71, 0x99, 0xbd, 0x92, 0x3b, 0x23, 0x3d, 0x96, 0x52, 0x2c, 0xbf,
  0x08, 0x82, 0x62, 0x3e, 0xa9, 0xc7, 0x83, 0xbf, 0x3e, 0x4a, 0xa1, 0x3e,
  0x05, 0x23, 0xf2, 0xbd, 0x8c, 0x7a, 0x37, 0xbf, 0xa7, 0x92, 0x15, 0xbf,
  0xc3, 0x7c, 0x2c, 0xbe, 0xb3, 0x34, 0x3c, 0xbf, 0x8c, 0x08, 0x44, 0x3f,
  0x99, 0x9d, 0x01, 0x3e, 0x59, 0x48, 0xd6, 0xbd, 0x63, 0xe6, 0x19, 0xbf,
  0x68, 0x93, 0x35, 0xbf, 0x3b, 0x00, 0xb7, 0x3c, 0xde, 0x99, 0x6d, 0x3e,
  0xdf, 0x8f, 0x04, 0xbf, 0xb5, 0x8d, 0xe4, 0x3c, 0x7d, 0x81, 0x27, 0x3e,
  0x65, 0x74, 0xbb, 0xbe, 0x59, 0x36, 0x86, 0x3f, 0xd8, 0x42, 0x4b, 0xbe,
  0x12, 0xbf, 0xed, 0xbd, 0x7f, 0x2c, 0xeb, 0xbe, 0xf8, 0x7c, 0xa3, 0x3e,
  0x2e, 0x3e, 0x47, 0x3e, 0xa3, 0x79, 0x40, 0x3e, 0xe9, 0x06, 0xd6, 0x3e,
  0xd3, 0x93, 0xc9, 0xbe, 0x48, 0x74, 0x07, 0x3e, 0xce, 0x57, 0xfc, 0xbe,
  0xd8, 0x7e, 0x06, 0x3f, 0x6d, 0x19, 0x1f, 0x3e, 0xc9, 0x89, 0x05, 0x3e,
  0x75, 0xa9, 0x92, 0xbf, 0xe9, 0xd9, 0x1b, 0x3e, 0x06, 0xcc, 0xa0, 0x3c,
  0xaa, 0x01, 0xd2, 0x3d, 0xfd, 0x9d, 0x12, 0xbe, 0xb6, 0x20, 0x44, 0xbf,
  0x6f, 0x0f, 0xb1, 0x3e, 0x28, 0x08, 0x07, 0x3f, 0x6b, 0x4b, 0xa6, 0x3e,
  0x1e, 0xe3, 0xff, 0xff, 0x04, 0x00, 0x00, 0x00, 0x38, 0x00, 0x00, 0x00,
  0x85, 0x7d, 0xeb, 0xbe, 0x49, 0x18, 0xba, 0x3f, 0x39, 0x79, 0x98, 0xbf,
  0x07, 0x00, 0xa3, 0x3f, 0x8d, 0x19, 0x4a, 0xbe, 0xe9, 0x79, 0x11, 0x3f,
  0xdf, 0x36, 0x89, 0x3e, 0xf8, 0x2a, 0x10, 0x3f, 0xc5, 0xfe, 0x60, 0xbf,
  0xba, 0x5e, 0xb8, 0xbe, 0xd3, 0xbf, 0xb8, 0x3d, 0x8b, 0x60, 0xdc, 0xbe,
  0x7c, 0x44, 0x95, 0xbc, 0x35, 0x35, 0x96, 0xbe, 0x62, 0xe3, 0xff, 0xff,
  0x04, 0x00, 0x00, 0x00, 0x00, 0x1c, 0x00, 0x00, 0x59, 0xe8, 0x49, 0xbe,
  0x7a, 0x59, 0x00, 0xbf, 0xda, 0xdd, 0x11, 0xbf, 0xbe, 0x14, 0xe7, 0xbe,
  0xf5, 0xc5, 0xb3, 0xbe, 0x86, 0xf3, 0xc0, 0xbe, 0x3e, 0x8d, 0x0a, 0xbf,
  0x9a, 0x72, 0xfc, 0xbe, 0x31, 0xbf, 0xb1, 0xbd, 0xc1, 0xce, 0x48, 0xbf,
  0xa9, 0x2d, 0x2e, 0xbe, 0xad, 0xaa, 0xb4, 0xbe, 0x03, 0xd7, 0x42, 0xbf,
  0x24, 0xc8, 0xfe, 0xbe, 0x0c, 0x01, 0x72, 0xbe, 0x05, 0x33, 0x0e, 0xbf,
  0x7f, 0x03, 0x42, 0xbe, 0xea, 0xe1, 0x1b, 0xbf, 0x8f, 0xbe, 0x91, 0xbe,
  0x6a, 0x18, 0x2d, 0xbe, 0xc9, 0xc7, 0xa8, 0xbe, 0xda, 0x8f, 0x1f, 0xbe,
  0x87, 0x00, 0x27, 0xbf, 0xd5, 0x3b, 0x27, 0xbf, 0x8e, 0xdb, 0x90, 0xbd,
  0x97, 0xd3, 0x54, 0xbe, 0x7a, 0x95, 0x9c, 0xbe, 0xdc, 0xe0, 0x31, 0xbf,
  0x62, 0x0a, 0xea, 0xbe, 0x5b, 0x82, 0x2c, 0xbf, 0xf6, 0x35, 0xb9, 0xbe,
  0x61, 0x8b, 0x2a, 0xbf, 0xb6, 0x19, 0x6b, 0xbf, 0xf3, 0x71, 0x19, 0xbf,
  0x04, 0xcb, 0x13, 0xbf, 0x54, 0x3c, 0xf6, 0xbe, 0x2d, 0x94, 0xa0, 0xbe,
  0x28, 0x45, 0x02, 0xbf, 0xeb, 0x0d, 0x9d, 0xbe, 0x7a, 0x70, 0x1c, 0xbf,
  0x75, 0xe0, 0x0b, 0xbf, 0x57, 0x18, 0x83, 0xbe, 0x92, 0xa6, 0x68, 0xbe,
  0x41, 0x54, 0xbe, 0xbe, 0x6b, 0xeb, 0xbd, 0xbe, 0xfc, 0x61, 0xec, 0xbe,
  0xb9, 0xf7, 0x1c, 0xbf, 0x49, 0x8b, 0x13, 0xbf, 0x83, 0xff, 0xa4, 0xbe,
  0x2a, 0xb3, 0x20, 0xbe, 0x3d, 0x07, 0xdf, 0xbe, 0x01, 0xbe, 0x25, 0xbe,
  0x38, 0x8f, 0xc4, 0xbe, 0x57, 0xb5, 0xb6, 0xbe, 0x92, 0x01, 0x33, 0xbf,
  0xaa, 0x22, 0xce, 0xbe, 0x3e, 0x9f, 0xeb, 0xbe, 0x4e, 0x41, 0x46, 0xbf,
  0xcb, 0x70, 0x3f, 0xbf, 0xb3, 0x0a, 0x07, 0xbf, 0xea, 0x54, 0x04, 0xbf,
  0x1d, 0xe3, 0xcb, 0xbe, 0x9a, 0x56, 0x80, 0xbe, 0x24, 0xbb, 0xd5, 0xbd,
  0x69, 0x48, 0x9f, 0xbe, 0x81, 0x8e, 0xd0, 0xbe, 0xd4, 0x24, 0xe2, 0xbe,
  0x1c, 0xd6, 0x82, 0xbe, 0x87, 0x98, 0xe5, 0xbe, 0x2d, 0x8f, 0xdf, 0xbe,
  0x2f, 0x5e, 0x6f, 0xbe, 0x53, 0x7e, 0x8a, 0xbe, 0xc2, 0x64, 0x07, 0xbf,
  0x2a, 0x49, 0xb6, 0xbe, 0x96, 0xce, 0x0f, 0xbf, 0x05, 0xa8, 0x3a, 0xbe,
  0x20, 0xf9, 0x2c, 0xbf, 0x89, 0x9c, 0xfa, 0xbe, 0xff, 0x54, 0x13, 0xbd,
  0x2b, 0xf4, 0x7c, 0xbe, 0x2f, 0x8d, 0x0e, 0xbf, 0xcd, 0x8d, 0xc2, 0xbe,
  0xd5, 0x5a, 0x22, 0xbf, 0x22, 0x05, 0x96, 0xbe, 0xdf, 0x77, 0xe9, 0xbe,
  0xc0, 0x73, 0x29, 0xbe, 0x32, 0x83, 0xe1, 0xbe, 0x36, 0x78, 0xdc, 0xbe,
  0x2c, 0x27, 0x09, 0xbe, 0x48, 0x05, 0xfd, 0xbe, 0x43, 0x4e, 0x9c, 0xbe,
  0xcd, 0x47, 0xaa, 0xbe, 0x35, 0x9f, 0x08, 0xbf, 0x49, 0x2e, 0xb9, 0xbe,
  0x3c, 0x8d, 0x2a, 0xbf, 0x3d, 0x6a, 0x16, 0xbf, 0xe9, 0x3f, 0x2f, 0xbe,
  0x35, 0x77, 0xc8, 0xbd, 0xaa, 0x80, 0xae, 0xbe, 0x09, 0x6e, 0xb0, 0xbe,
  0xef, 0x10, 0xf6, 0xbe, 0xce, 0xd3, 0x3c, 0xbe, 0x3b, 0xc9, 0x02, 0xbf,
  0xf8, 0x79, 0xe1, 0xbe, 0xe8, 0x44, 0xe4, 0xbe, 0x36, 0x65, 0x4e, 0xbf,
  0x1b, 0x0e, 0xb0, 0xbe, 0x5b, 0xf4, 0x08, 0xbf, 0x96, 0x67, 0x6d, 0xbe,
  0xbb, 0x3b, 0x25, 0xbf, 0x7c, 0xfc, 0xb0, 0xbe, 0x47, 0xd1, 0x03, 0xbf,
  0xbc, 0x49, 0xad, 0xbe, 0x41, 0x1e, 0xe9, 0xbe, 0x07, 0x05, 0xe4, 0xbe,
  0x55, 0xaa, 0xcf, 0xbe, 0x6a, 0x5e, 0x3a, 0xbf, 0x68, 0xe2, 0x06, 0xbf,
  0xcf, 0xd7, 0xc4, 0xbe, 0xa0, 0x0d, 0x62, 0xbe, 0x42, 0x50, 0xe0, 0xbe,
  0x95, 0xec, 0xec, 0xbe, 0xe2, 0x2b, 0xde, 0xbe, 0x09, 0xa8, 0xc6, 0xbe,
  0x2b, 0x11, 0xf9, 0xbd, 0x67, 0x69, 0xaf, 0xbe, 0x4d, 0x59, 0xb1, 0xbe,
  0xe9, 0x89, 0x07, 0xbf, 0x4b, 0xff, 0xdb, 0x3f, 0xd6, 0xd7, 0x2c, 0xbf,
  0x91, 0x1f, 0x81, 0x3f, 0xe5, 0x5f, 0x22, 0xc0, 0xab, 0x14, 0xe7, 0x3e,
  0x65, 0x33, 0x0d, 0x3f, 0xab, 0x3d, 0x7a, 0x3f, 0x1a, 0x38, 0x58, 0x3f,
  0xae, 0x2b, 0x0c, 0x3e, 0x5f, 0x83, 0x95, 0xbf, 0xbf, 0x88, 0x36, 0xbf,
  0x0c, 0x47, 0x09, 0x3f, 0xf2, 0x81, 0xe6, 0xbc, 0xd8, 0xd3, 0xfa, 0x3d,
  0x41, 0x66, 0xae, 0x3f, 0x0e, 0xf0, 0x26, 0x40, 0x8d, 0x18, 0x1e, 0xbe,
  0x44, 0x6d, 0x95, 0xbf, 0xb8, 0x98, 0xf2, 0x3e, 0x05, 0x60, 0xc6, 0x3f,
  0x2f, 0x4a, 0x14, 0xbf, 0xf1, 0x00, 0x10, 0xbf, 0x61, 0xf8, 0xc9, 0xbf,
  0xdd, 0x05, 0x16, 0x3f, 0x8c, 0x10, 0x43, 0xbf, 0xf5, 0x10, 0x0d, 0x3f,
  0x04, 0xa7, 0x26, 0x3f, 0x6e, 0x5b, 0x36, 0xbf, 0xe4, 0x60, 0xd2, 0xbf,
  0x03, 0x36, 0xeb, 0x3c, 0x36, 0x28, 0x24, 0xbe, 0x02, 0xe1, 0xec, 0xbd,
  0xf1, 0xfe, 0xae, 0x3f, 0xeb, 0x40, 0x2c, 0xbe, 0xc3, 0x2c, 0x35, 0x3d,
  0xa1, 0x79, 0xec, 0xbe, 0xd7, 0xde, 0x47, 0xbf, 0x2b, 0x1c, 0x4d, 0xbe,
  0x66, 0x8b, 0xb8, 0xbe, 0x6e, 0x3c, 0x85, 0x3e, 0xe9, 0x1d, 0x3b, 0x3f,
  0x8a, 0x8a, 0xee, 0xbf, 0x9a, 0xe2, 0x27, 0x3f, 0x1e, 0xf9, 0x1d, 0x40,
  0x3d, 0x54, 0x3e, 0xbf, 0xc8, 0x1f, 0xd5, 0xbf, 0xe0, 0xc6, 0xe1, 0x3f,
  0x39, 0xf7, 0x85, 0x3d, 0xd9, 0xe9, 0x45, 0xbf, 0x21, 0x0b, 0xad, 0x3f,
  0x22, 0x70, 0x00, 0xc0, 0xc3, 0x97, 0x65, 0x3e, 0xf7, 0xfb, 0xcd, 0x3f,
  0xfd, 0x30, 0x8b, 0x3f, 0x1f, 0x7c, 0xdc, 0xbc, 0x5a, 0xf4, 0x99, 0xbf,
  0x98, 0x84, 0x0f, 0xbf, 0x9a, 0x67, 0x5e, 0xbf, 0x1c, 0x65, 0x20, 0xbf,
  0x25, 0xfa, 0x98, 0xbf, 0x1f, 0x1c, 0xf5, 0xbf, 0x89, 0x0e, 0x90, 0xbf,
  0x19, 0x1d, 0xa6, 0x3f, 0x52, 0xc3, 0x63, 0x3e, 0x68, 0x4f, 0x01, 0x3e,
  0x50, 0x68, 0xec, 0x3e, 0x94, 0x56, 0x67, 0xbf, 0x7e, 0xee, 0x21, 0x40,
  0xdd, 0x5a, 0x89, 0x3e, 0x38, 0x7e, 0x74, 0x3a, 0x58, 0x29, 0x75, 0x3f,
  0x49, 0x4e, 0xba, 0xbf, 0x8f, 0xa2, 0xd9, 0xbd, 0xee, 0x3b, 0x6a, 0x3f,
  0xfd, 0x4a, 0x1f, 0xc0, 0x97, 0xe6, 0x3b, 0xbf, 0x3b, 0x05, 0x1e, 0x3f,
  0xc7, 0x95, 0x89, 0xbe, 0x71, 0xf4, 0x92, 0xbf, 0x0a, 0x23, 0x93, 0xbf,
  0xd8, 0x3a, 0x6d, 0x3f, 0xe6, 0xed, 0x8b, 0x3f, 0x85, 0xbb, 0x82, 0x3e,
  0xa8, 0xc7, 0xcd, 0xbe, 0x97, 0x13, 0x25, 0xbf, 0x26, 0x0e, 0xd3, 0x3f,
  0x8c, 0x0b, 0xb3, 0xbf, 0x5c, 0x0a, 0x0c, 0xbf, 0xf2, 0xf7, 0x5f, 0xbf,
  0xe6, 0x93, 0xe8, 0x3e, 0x2c, 0x35, 0xb7, 0x3f, 0xe7, 0xaa, 0x3b, 0xbf,
  0xce, 0xf7, 0x20, 0x40, 0x20, 0x3c, 0xd8, 0xbd, 0xf9, 0xbe, 0x49, 0xbf,
  0xc6, 0x04, 0x8e, 0x3d, 0x84, 0x2e, 0x8a, 0xbc, 0xd6, 0xee, 0xd8, 0xbf,
  0x02, 0x45, 0x49, 0x3f, 0x58, 0x38, 0x23, 0x3f, 0x32, 0x6c, 0x87, 0xbe,
  0xe1, 0x46, 0x06, 0x40, 0x70, 0x80, 0xcf, 0xbe, 0x63, 0xbe, 0x3f, 0x3f,
  0x9d, 0xfd, 0x1d, 0x3f, 0x94, 0xe4, 0xa1, 0xbf, 0x12, 0xec, 0x05, 0xbe,
  0xbb, 0x0a, 0xa1, 0xbc, 0x33, 0x35, 0x6a, 0x3f, 0x71, 0x4d, 0x90, 0x3e,
  0xd4, 0x3c, 0x48, 0xbf, 0x24, 0x59, 0x7c, 0x3f, 0x0d, 0x50, 0x9d, 0x3e,
  0x6c, 0x90, 0x00, 0xc0, 0x9c, 0xdd, 0xd7, 0xbf, 0xc8, 0xc0, 0xa6, 0xbf,
  0xfc, 0xe2, 0xd3, 0x3f, 0x33, 0x61, 0x86, 0xbf, 0x1f, 0x0f, 0x01, 0xbe,
  0xd6, 0x3c, 0xc1, 0x3e, 0x3e, 0x34, 0x20, 0xbe, 0xb4, 0x20, 0xd0, 0xbf,
  0xf0, 0x0c, 0x46, 0xbf, 0xce, 0xdb, 0xed, 0xbf, 0xff, 0x6b, 0x0b, 0x40,
  0xff, 0x8f, 0x24, 0xbf, 0xa1, 0x59, 0x1a, 0x3f, 0x36, 0x61, 0x59, 0xbf,
  0x6b, 0x0b, 0x94, 0x3f, 0x91, 0x50, 0x1e, 0x3f, 0x71, 0x61, 0xb8, 0xbf,
  0xcd, 0x44, 0x08, 0xbe, 0x52, 0x68, 0xe2, 0xbf, 0x31, 0xcf, 0x7c, 0x3f,
  0x2e, 0x9c, 0x66, 0xbf, 0xe9, 0x05, 0x8f, 0x3e, 0x9c, 0x9b, 0x7d, 0x3e,
  0x9a, 0x68, 0x4a, 0xbf, 0x16, 0xef, 0xc1, 0xbc, 0xd6, 0x28, 0xb3, 0x3f,
  0x28, 0x20, 0x9b, 0x3e, 0xa5, 0x01, 0x44, 0x3f, 0x70, 0xc1, 0x2c, 0xbf,
  0x95, 0x3d, 0xa5, 0x3f, 0x20, 0x74, 0x0f, 0x3f, 0x01, 0xe2, 0x32, 0x3f,
  0x61, 0xb5, 0x89, 0x3f, 0x9d, 0x4d, 0xb1, 0xbf, 0xaf, 0x1c, 0x53, 0x3f,
  0xfd, 0x9c, 0xd4, 0xbf, 0x5b, 0xcb, 0x1a, 0x3f, 0x9c, 0x5b, 0x60, 0xbe,
  0xeb, 0x82, 0xca, 0x3f, 0x54, 0x16, 0x0d, 0x3f, 0x7f, 0x20, 0x9e, 0xbf,
  0x70, 0x7f, 0xd8, 0xbe, 0xa1, 0x07, 0x9b, 0x3f, 0xba, 0xe4, 0x2d, 0x3f,
  0xc1, 0x2a, 0xca, 0x3f, 0x53, 0xb5, 0xe8, 0xbf, 0x75, 0xf5, 0x4f, 0xbc,
  0x85, 0xa5, 0xda, 0xbf, 0xd6, 0x38, 0xd0, 0x3e, 0x0e, 0x1e, 0xce, 0xbf,
  0x9a, 0x02, 0xd4, 0x3e, 0x2b, 0x1e, 0x36, 0x3f, 0xb5, 0xa8, 0xb6, 0xbf,
  0x09, 0x4b, 0x81, 0xbd, 0x56, 0xeb, 0xe8, 0x3f, 0x8a, 0x26, 0x1a, 0xc0,
  0xf8, 0x70, 0xa2, 0xbe, 0x58, 0xbe, 0x67, 0x3f, 0x84, 0xb8, 0x29, 0xbd,
  0xb9, 0x2d, 0xf3, 0xbb, 0xb1, 0x62, 0x9e, 0xbf, 0xba, 0x1d, 0x6b, 0xbe,
  0xff, 0x3b, 0xc1, 0x3f, 0xac, 0x3a, 0x8c, 0x3f, 0x82, 0xef, 0x0a, 0xbf,
  0x93, 0xa4, 0xf3, 0xbd, 0xe7, 0xf1, 0x6d, 0xbf, 0x6b, 0x7a, 0x71, 0xbf,
  0x8f, 0x9d, 0x9f, 0xbf, 0x4d, 0xee, 0xc2, 0x3e, 0x16, 0x81, 0x06, 0x3f,
  0x6a, 0xb8, 0xa7, 0x3d, 0x3c, 0x2e, 0x4c, 0x3e, 0x5d, 0xe4, 0xb0, 0x3f,
  0x6d, 0x5b, 0xa9, 0x3f, 0x88, 0xf9, 0xf5, 0xbe, 0xe7, 0x3a, 0x8e, 0x3f,
  0xd2, 0xdb, 0x23, 0xc0, 0x4d, 0x0d, 0x8f, 0x3d, 0xa8, 0x6c, 0x1a, 0x40,
  0x64, 0x5f, 0x72, 0xbe, 0x10, 0x14, 0xf4, 0xbf, 0x5c, 0x2e, 0x48, 0x3e,
  0x44, 0xd6, 0x08, 0xbd, 0xeb, 0x6b, 0xa7, 0xbf, 0x30, 0x84, 0x8b, 0xbf,
  0xc4, 0x07, 0x0b, 0xbf, 0xf0, 0x13, 0xb0, 0xbf, 0x22, 0xbb, 0x02, 0x3f,
  0x6a, 0x8a, 0x97, 0xbd, 0xaf, 0x32, 0xc4, 0x3f, 0xaf, 0x14, 0x03, 0x3f,
  0x09, 0x81, 0xfb, 0x3f, 0xd8, 0xf6, 0x05, 0x40, 0xb1, 0xf5, 0x8e, 0x3e,
  0x7b, 0x0c, 0xd2, 0xbf, 0xa4, 0x29, 0x2b, 0xbf, 0xdf, 0xf9, 0xea, 0xbe,
  0xc7, 0xc5, 0x1e, 0x3f, 0xac, 0x02, 0x36, 0x3e, 0x4b, 0x67, 0x46, 0x3f,
  0xfd, 0x96, 0xb1, 0xbe, 0x7e, 0x78, 0x4c, 0x3d, 0x58, 0x62, 0x67, 0x3f,
  0xe9, 0x68, 0x8f, 0xbf, 0x56, 0x2b, 0xdf, 0xbe, 0x78, 0x21, 0x56, 0x3f,
  0x71, 0x1e, 0x37, 0xbf, 0x9f, 0xae, 0x9b, 0xbe, 0x04, 0xc3, 0x9a, 0x3f,
  0x8a, 0x17, 0xe0, 0x3e, 0x49, 0xc7, 0xa0, 0x3e, 0xd1, 0xf0, 0xd9, 0x3d,
  0xeb, 0x68, 0xa8, 0x3e, 0x95, 0xbf, 0x49, 0x3f, 0x7b, 0x0a, 0x93, 0xbf,
  0x7b, 0x89, 0x70, 0x3f, 0x36, 0x2c, 0x51, 0x3f, 0xb8, 0xc9, 0x23, 0x3f,
  0xb4, 0x33, 0xe5, 0x3e, 0x66, 0x34, 0x9e, 0xbf, 0x8d, 0x89, 0x58, 0x3f,
  0xd1, 0x99, 0x05, 0xc0, 0xaa, 0xf0, 0x2d, 0xbf, 0xbf, 0x62, 0xb9, 0x3e,
  0x21, 0x5a, 0xc0, 0xbe, 0x0b, 0x67, 0x70, 0xbe, 0x75, 0x2a, 0x34, 0xbf,
  0xcc, 0x1c, 0x75, 0xbf, 0x9f, 0xd8, 0xd1, 0xbd, 0x52, 0xb7, 0xe9, 0xbd,
  0xa7, 0x59, 0x50, 0xbf, 0xde, 0x55, 0xf9, 0xbe, 0x36, 0x5b, 0xba, 0xbe,
  0x9d, 0x11, 0x21, 0x3f, 0xe8, 0x75, 0x52, 0xbe, 0x40, 0xfc, 0xb8, 0xbf,
  0xdc, 0x93, 0x97, 0x3f, 0xf9, 0xfc, 0xa9, 0xbf, 0x42, 0xe5, 0x81, 0x3f,
  0xdc, 0xc6, 0x1a, 0x3f, 0xd0, 0xf0, 0xa7, 0xbe, 0x2c, 0x2d, 0x2c, 0xbf,
  0xb9, 0x32, 0xcf, 0x3f, 0x30, 0x09, 0xd6, 0x3f, 0x01, 0x8f, 0x83, 0xbf,
  0x07, 0xc3, 0xfb, 0xbd, 0x67, 0x3a, 0x69, 0x3f, 0x92, 0x69, 0x61, 0xc0,
  0xd4, 0x03, 0x89, 0x3e, 0x20, 0xd3, 0xc7, 0x3f, 0x5a, 0xfc, 0x57, 0xbf,
  0x83, 0x13, 0x5a, 0x40, 0xef, 0x38, 0xa1, 0xbf, 0x66, 0xaa, 0x51, 0x3f,
  0xb5, 0x55, 0xca, 0xbd, 0x7d, 0x31, 0xab, 0xbf, 0x8d, 0x86, 0x91, 0xbe,
  0x55, 0xd1, 0xb8, 0x3f, 0xb8, 0xa8, 0xbc, 0x3f, 0xd3, 0x54, 0x16, 0xc0,
  0xfa, 0xf3, 0x0f, 0xbf, 0x1f, 0x1d, 0x8c, 0xbf, 0xe7, 0x4b, 0x86, 0x3f,
  0x03, 0x90, 0x16, 0x3f, 0xcd, 0xe0, 0x71, 0xbf, 0x4b, 0x5a, 0xcf, 0xbc,
  0x2b, 0xcc, 0xa2, 0xbf, 0x73, 0xc0, 0x9a, 0x3f, 0xb1, 0x33, 0x3f, 0xc0,
  0x7a, 0xb9, 0x56, 0xbf, 0xbb, 0x79, 0xc2, 0xbe, 0xc1, 0x9c, 0xc7, 0xbf,
  0x5c, 0x68, 0xfb, 0xbf, 0xef, 0x29, 0xaf, 0x3e, 0xcb, 0xa2, 0x99, 0xbf,
  0x61, 0xcf, 0xd6, 0x3e, 0xf1, 0x8a, 0x54, 0xbf, 0xb1, 0x60, 0x41, 0xbf,
  0x35, 0xb3, 0x9b, 0xbf, 0x7f, 0x17, 0xf7, 0x3e, 0xa9, 0x1b, 0x11, 0xc0,
  0xb5, 0xd5, 0xdc, 0x3e, 0xb3, 0xed, 0xd2, 0x3e, 0xd1, 0xa4, 0xe7, 0x3f,
  0xe6, 0x1d, 0xbf, 0xbf, 0x69, 0xc4, 0x00, 0x3e, 0xdf, 0x52, 0x4c, 0x3f,
  0x1a, 0xdc, 0x17, 0xbf, 0xcf, 0x46, 0xef, 0x3e, 0x0e, 0xf9, 0x1e, 0x3f,
  0x82, 0x3a, 0xf6, 0xbf, 0x36, 0xd3, 0x3e, 0x40, 0x79, 0x56, 0xf5, 0x3e,
  0xb5, 0xac, 0x8e, 0xbf, 0x1d, 0xbb, 0x09, 0x3f, 0x6d, 0x01, 0x06, 0x3f,
  0x8c, 0xe0, 0x29, 0xbf, 0x3a, 0x10, 0x96, 0x3f, 0xbc, 0x52, 0x49, 0xbd,
  0x99, 0xb7, 0x2a, 0x40, 0xd7, 0x33, 0x14, 0xbf, 0x6c, 0xdb, 0x3d, 0xbf,
  0xf2, 0xeb, 0x45, 0xbd, 0xd8, 0x76, 0xa1, 0x3e, 0x6d, 0xae, 0x01, 0x3f,
  0x5b, 0x0d, 0x10, 0xbf, 0x02, 0xce, 0x7f, 0xc0, 0xe3, 0x8f, 0x30, 0x3e,
  0xd5, 0xfb, 0x62, 0xbe, 0xb7, 0x46, 0x17, 0x40, 0xab, 0x79, 0xfd, 0xbe,
  0xfa, 0x80, 0xc1, 0xbf, 0xb3, 0xb0, 0x93, 0xbe, 0x1b, 0x27, 0x5d, 0x3e,
  0x97, 0x9d, 0xfb, 0xbe, 0x55, 0x85, 0xae, 0xbf, 0x99, 0x9a, 0xf4, 0x3f,
  0x78, 0x31, 0xad, 0x3f, 0x48, 0x58, 0x4d, 0xbf, 0xb9, 0xa5, 0x2e, 0xbe,
  0x09, 0x06, 0x16, 0xbd, 0x51, 0x06, 0x03, 0x3e, 0xce, 0xce, 0x1b, 0x3f,
  0x9f, 0x32, 0xf9, 0xbf, 0x0b, 0x56, 0xf5, 0x3f, 0x6c, 0x8f, 0x93, 0x3f,
  0xc6, 0x0e, 0xd2, 0x3f, 0x10, 0xb0, 0x86, 0xbf, 0x8c, 0x83, 0x9b, 0x3e,
  0xa5, 0x6d, 0x17, 0xbf, 0x6d, 0x11, 0xce, 0x3f, 0xf0, 0x6f, 0xf0, 0x3e,
  0xad, 0xaf, 0xbe, 0x3f, 0x5b, 0x2c, 0x7c, 0x3f, 0x7e, 0xa2, 0x29, 0x3f,
  0x17, 0xa2, 0xce, 0xbf, 0x95, 0xe7, 0xc6, 0x3d, 0x7c, 0xc4, 0xe7, 0x3e,
  0x42, 0xe0, 0x5c, 0x3c, 0x8a, 0x4b, 0x7d, 0xbf, 0x70, 0x5e, 0x2c, 0x3f,
  0xf6, 0x73, 0x5f, 0xbf, 0x4f, 0xce, 0x1d, 0xbf, 0x2c, 0x76, 0x58, 0xbf,
  0x29, 0x21, 0x96, 0x3c, 0x61, 0xde, 0x01, 0xc0, 0xfe, 0xe4, 0xaf, 0xbf,
  0xb6, 0x71, 0x24, 0x40, 0x6f, 0xc0, 0x4d, 0x3f, 0x2a, 0x3c, 0x87, 0x3f,
  0x9d, 0xfc, 0x0d, 0xc0, 0xa0, 0xed, 0x06, 0x3f, 0xbf, 0x32, 0x18, 0x3f,
  0xe8, 0x78, 0x80, 0x3e, 0xc5, 0xa6, 0x81, 0xc0, 0x7f, 0x66, 0x0f, 0xc0,
  0x1a, 0x3a, 0xb4, 0x3f, 0xe7, 0xdd, 0xe1, 0xbf, 0x69, 0x34, 0xd8, 0xbf,
  0x32, 0x08, 0x79, 0xbe, 0x2c, 0x72, 0x33, 0x40, 0xde, 0x46, 0x96, 0x3f,
  0xbf, 0xbd, 0xde, 0x3f, 0xc2, 0x6e, 0x18, 0x3f, 0x27, 0x36, 0xc3, 0x3f,
  0x39, 0x4a, 0x1b, 0xbf, 0x5b, 0x5d, 0x7c, 0x3e, 0x1e, 0x25, 0xab, 0x3e,
  0x9a, 0x07, 0xaa, 0xc0, 0x3c, 0xbe, 0x06, 0x40, 0x40, 0x9d, 0xaf, 0xbf,
  0xf4, 0xfb, 0xc7, 0x3e, 0x35, 0xc7, 0xd7, 0xbf, 0x3d, 0xd0, 0x69, 0x3f,
  0x19, 0x23, 0xdf, 0x3f, 0x91, 0x24, 0x90, 0xbf, 0x1f, 0x85, 0x81, 0xbf,
  0xf2, 0x5c, 0x16, 0x40, 0x00, 0xeb, 0x61, 0xc0, 0xc5, 0xff, 0xa2, 0xc0,
  0x38, 0x2e, 0xe7, 0xbf, 0x97, 0x75, 0x0a, 0xbf, 0xfc, 0x47, 0xb3, 0x3f,
  0xbe, 0x4c, 0xe9, 0x3e, 0x5e, 0xdf, 0xd4, 0x3f, 0xca, 0xbe, 0x0b, 0xc0,
  0xa5, 0x28, 0xe4, 0x3e, 0xf3, 0x29, 0x0a, 0xbf, 0xcc, 0x39, 0xd9, 0x3e,
  0xae, 0x41, 0xb6, 0x3f, 0x47, 0x6d, 0xa7, 0x3f, 0xe1, 0xe3, 0x28, 0x3f,
  0xf6, 0x6e, 0x8d, 0x3f, 0x86, 0x94, 0x26, 0xc0, 0x49, 0xe7, 0xa1, 0x3e,
  0xbb, 0x77, 0x1f, 0xbe, 0x98, 0x23, 0x61, 0xbf, 0xf2, 0x29, 0x60, 0x40,
  0x04, 0xbe, 0x52, 0xbe, 0x91, 0xb0, 0xb3, 0xbe, 0xf8, 0xeb, 0x63, 0xc0,
  0xe7, 0x75, 0x33, 0xbe, 0xbf, 0xf6, 0xb5, 0x3f, 0x89, 0xb9, 0x91, 0xbf,
  0x02, 0xdd, 0x36, 0x40, 0x76, 0xe4, 0xa2, 0x3d, 0x02, 0x14, 0xcc, 0xbf,
  0x98, 0xf6, 0xa4, 0xc0, 0x45, 0x18, 0x2a, 0x3f, 0x40, 0x56, 0xd0, 0xbf,
  0xbe, 0xf9, 0xf0, 0xbf, 0xdb, 0xa5, 0xc5, 0xc0, 0xbf, 0xd0, 0xf7, 0x3e,
  0xdb, 0x1d, 0x05, 0xbf, 0x3a, 0x3c, 0x6b, 0x3f, 0xad, 0x72, 0xf7, 0x3e,
  0x7c, 0x9b, 0x25, 0xbf, 0x36, 0x80, 0xf3, 0xbf, 0x1a, 0xe7, 0x20, 0xc0,
  0x88, 0x1e, 0x74, 0xbf, 0x18, 0x94, 0x7a, 0xbe, 0x4d, 0x41, 0x06, 0x40,
  0x90, 0xf8, 0xb5, 0x3e, 0x24, 0xac, 0xd4, 0xbf, 0xe5, 0xc6, 0x41, 0xbd,
  0x52, 0x02, 0x1d, 0xbf, 0x0b, 0xc6, 0x9a, 0x3f, 0xa2, 0x50, 0xab, 0xbf,
  0x9d, 0x53, 0x4a, 0x40, 0x8e, 0x91, 0xb7, 0xbd, 0xa7, 0xe5, 0x8c, 0x3e,
  0x4f, 0xd9, 0x05, 0xbf, 0x20, 0xdb, 0xfe, 0x3f, 0x0c, 0xe7, 0x29, 0xbe,
  0x13, 0x62, 0x43, 0xc0, 0x06, 0x23, 0x43, 0x3f, 0x61, 0x64, 0xa7, 0x3e,
  0xc2, 0x6c, 0x7f, 0x3f, 0x11, 0x16, 0x05, 0xc0, 0x9f, 0xc5, 0x55, 0xc0,
  0xf0, 0x9a, 0x01, 0x40, 0x5e, 0xef, 0xdf, 0x3c, 0x1c, 0x30, 0xc0, 0x3f,
  0x03, 0xb6, 0xea, 0x3f, 0xb9, 0x53, 0x95, 0x3f, 0xcb, 0xfd, 0xaf, 0xbf,
  0x38, 0xcf, 0x88, 0xbe, 0x7f, 0x83, 0x14, 0x3f, 0xc1, 0x0d, 0x82, 0xbf,
  0x1f, 0x29, 0xa3, 0x3e, 0x4f, 0x89, 0x10, 0x40, 0xfb, 0x40, 0xac, 0xbf,
  0xd5, 0xba, 0xb5, 0xbf, 0x5c, 0xe4, 0x26, 0xc0, 0x58, 0x01, 0x20, 0xc0,
  0x82, 0x0d, 0x3b, 0x3f, 0xc6, 0x20, 0xa3, 0xbf, 0x9a, 0xeb, 0xbb, 0xbf,
  0xaa, 0x2c, 0x28, 0xbf, 0xaa, 0xd8, 0x53, 0x3e, 0xdd, 0x0a, 0x5b, 0xbf,
  0xed, 0x2e, 0x77, 0x3f, 0x1c, 0xba, 0x27, 0x3f, 0x7a, 0x84, 0x7d, 0xbe,
  0x00, 0xd1, 0xb9, 0xbf, 0xba, 0xdc, 0x9c, 0xc0, 0x26, 0x02, 0x08, 0x3f,
  0x2f, 0xe9, 0x0e, 0x40, 0x29, 0xcf, 0xcc, 0xbf, 0xa3, 0x13, 0x0d, 0xc0,
  0xaa, 0x88, 0x06, 0xc0, 0x81, 0x0e, 0xcb, 0x3f, 0x43, 0x69, 0x69, 0x3e,
  0x81, 0x2b, 0x12, 0x3f, 0x9a, 0x35, 0xc9, 0xbe, 0xe1, 0xe8, 0x93, 0x3f,
  0x53, 0x6c, 0x44, 0x3f, 0x48, 0x93, 0x36, 0x40, 0xbf, 0x34, 0x34, 0xc0,
  0xc2, 0x34, 0x43, 0x3f, 0x2f, 0x99, 0x5f, 0x3f, 0xc6, 0xac, 0x2c, 0x3f,
  0xf3, 0x5e, 0xa0, 0x3f, 0x1b, 0xa0, 0x5b, 0xc0, 0xe2, 0x8a, 0x86, 0xbf,
  0xe7, 0x35, 0x0f, 0x40, 0xc9, 0x65, 0xa8, 0x3f, 0x09, 0xa2, 0x19, 0xc0,
  0xc1, 0x28, 0x8b, 0xbe, 0x2c, 0x43, 0x87, 0xc0, 0x9e, 0x1b, 0x3f, 0xc0,
  0x01, 0x7c, 0x8d, 0x3f, 0xa8, 0xf1, 0x09, 0xbe, 0x0e, 0x7d, 0xf4, 0xbc,
  0x3b, 0x94, 0x72, 0xbf, 0xc5, 0xe4, 0x12, 0x40, 0x3f, 0x4d, 0xed, 0x3e,
  0x1e, 0x2f, 0x40, 0xbf, 0x1b, 0x13, 0x1f, 0x3f, 0x57, 0xfe, 0xfa, 0x3f,
  0x66, 0x05, 0xd4, 0x3e, 0x43, 0x36, 0x9d, 0xbf, 0xca, 0xde, 0x18, 0xbf,
  0xf1, 0x9c, 0x78, 0x3f, 0x4d, 0xf9, 0x51, 0xc0, 0x13, 0xfc, 0xac, 0x3f,
  0xeb, 0x28, 0x16, 0x3f, 0x89, 0x7f, 0x62, 0x3f, 0x28, 0xb6, 0x70, 0x3f,
  0xd2, 0x00, 0xb8, 0xbf, 0x51, 0x74, 0x63, 0xbe, 0x74, 0x44, 0xf5, 0x3e,
  0xa1, 0x27, 0x63, 0xbf, 0x06, 0xd6, 0xac, 0xbe, 0x9d, 0x0d, 0x61, 0x3e,
  0x59, 0xc8, 0x27, 0xbf, 0x9d, 0x71, 0x56, 0xc0, 0xac, 0x37, 0xcc, 0x3f,
  0x00, 0xef, 0xcd, 0x3e, 0x18, 0x92, 0x43, 0xbe, 0xc8, 0x70, 0x5e, 0xbf,
  0xca, 0x3a, 0xca, 0xbf, 0xef, 0x7e, 0x04, 0x3f, 0x85, 0xbd, 0x8e, 0xbd,
  0xb4, 0xf4, 0x7c, 0x3f, 0xbb, 0x72, 0x66, 0x3f, 0xe0, 0x87, 0x7c, 0x3f,
  0xbb, 0x3c, 0xc9, 0x3f, 0xb3, 0x09, 0x19, 0xbf, 0xd7, 0x5f, 0x75, 0xbf,
  0x9c, 0x79, 0x52, 0x3f, 0xe8, 0x17, 0x49, 0xbf, 0x56, 0xbb, 0xe9, 0xbd,
  0xbb, 0x9d, 0x32, 0xbe, 0x19, 0x6b, 0x47, 0xbf, 0x38, 0x8f, 0x53, 0xbf,
  0x2b, 0x1a, 0xd7, 0xbf, 0xa4, 0x2b, 0x59, 0xbf, 0xdf, 0x8e, 0xba, 0x3f,
  0x35, 0x43, 0xff, 0x3f, 0xc1, 0x53, 0xbc, 0xbf, 0x91, 0xc7, 0x7a, 0x3f,
  0x98, 0x33, 0xc8, 0xbe, 0x38, 0x14, 0x7f, 0xc0, 0x7e, 0xc1, 0x12, 0xc0,
  0x23, 0xdb, 0xbf, 0xbf, 0x9c, 0x92, 0xdb, 0xbf, 0x9b, 0x09, 0x8b, 0x3e,
  0xb0, 0xc1, 0xc7, 0xbf, 0x0e, 0xc9, 0x61, 0xbf, 0xa1, 0x82, 0xc7, 0x3f,
  0x80, 0x1e, 0xae, 0x3f, 0x3d, 0xba, 0x55, 0x3f, 0x11, 0x37, 0x3c, 0x3f,
  0x89, 0x14, 0x89, 0x3f, 0xb0, 0x2d, 0xa8, 0xbf, 0x87, 0xd7, 0xa3, 0x3e,
  0x9d, 0x43, 0x69, 0xbf, 0x56, 0x24, 0x7b, 0x3f, 0xf1, 0xf9, 0x9b, 0xbd,
